{
  "version": "1.0",
  "truncation": null,
  "padding": null,
  "added_tokens": [
    {
      "id": 0,
      "content": "[UNK]",
      "single_word": false,
      "lstrip": false,
      "rstrip": false,
      "normalized": false,
      "special": true
    },
    {
      "id": 1,
      "content": "[CLS]",
      "single_word": false,
      "lstrip": false,
      "rstrip": false,
      "normalized": false,
      "special": true
    },
    {
      "id": 2,
      "content": "[SEP]",
      "single_word": false,
      "lstrip": false,
      "rstrip": false,
      "normalized": false,
      "special": true
    },
    {
      "id": 3,
      "content": "[PAD]",
      "single_word": false,
      "lstrip": false,
      "rstrip": false,
      "normalized": false,
      "special": true
    },
    {
      "id": 4,
      "content": "[MASK]",
      "single_word": false,
      "lstrip": false,
      "rstrip": false,
      "normalized": false,
      "special": true
    }
  ],
  "normalizer": {
    "type": "Sequence",
    "normalizers": [
      {
        "type": "NFD"
      },
      {
        "type": "Lowercase"
      },
      {
        "type": "StripAccents"
      }
    ]
  },
  "pre_tokenizer": {
    "type": "Whitespace"
  },
  "post_processor": {
    "type": "TemplateProcessing",
    "single": [
      {
        "SpecialToken": {
          "id": "[CLS]",
          "type_id": 0
        }
      },
      {
        "Sequence": {
          "id": "A",
          "type_id": 0
        }
      },
      {
        "SpecialToken": {
          "id": "[SEP]",
          "type_id": 0
        }
      }
    ],
    "pair": [
      {
        "SpecialToken": {
          "id": "[CLS]",
          "type_id": 0
        }
      },
      {
        "Sequence": {
          "id": "A",
          "type_id": 0
        }
      },
      {
        "SpecialToken": {
          "id": "[SEP]",
          "type_id": 0
        }
      },
      {
        "Sequence": {
          "id": "B",
          "type_id": 1
        }
      },
      {
        "SpecialToken": {
          "id": "[SEP]",
          "type_id": 1
        }
      }
    ],
    "special_tokens": {
      "[CLS]": {
        "id": "[CLS]",
        "ids": [
          1
        ],
        "tokens": [
          "[CLS]"
        ]
      },
      "[SEP]": {
        "id": "[SEP]",
        "ids": [
          2
        ],
        "tokens": [
          "[SEP]"
        ]
      }
    }
  },
  "decoder": {
    "type": "BPEDecoder",
    "suffix": "</w>"
  },
  "model": {
    "type": "BPE",
    "dropout": null,
    "unk_token": null,
    "continuing_subword_prefix": null,
    "end_of_word_suffix": null,
    "fuse_unk": false,
    "byte_fallback": false,
    "vocab": {
      "[UNK]": 0,
      "[CLS]": 1,
      "[SEP]": 2,
      "[PAD]": 3,
      "[MASK]": 4,
      "\u001f": 5,
      "!": 6,
      "\"": 7,
      "'": 8,
      "(": 9,
      ")": 10,
      ",": 11,
      "-": 12,
      ".": 13,
      "0": 14,
      "1": 15,
      "2": 16,
      "3": 17,
      "4": 18,
      "5": 19,
      "6": 20,
      "7": 21,
      "8": 22,
      "9": 23,
      ":": 24,
      ";": 25,
      "?": 26,
      "a": 27,
      "b": 28,
      "c": 29,
      "d": 30,
      "e": 31,
      "f": 32,
      "g": 33,
      "h": 34,
      "i": 35,
      "j": 36,
      "k": 37,
      "l": 38,
      "m": 39,
      "n": 40,
      "o": 41,
      "p": 42,
      "q": 43,
      "r": 44,
      "s": 45,
      "t": 46,
      "u": 47,
      "v": 48,
      "w": 49,
      "x": 50,
      "y": 51,
      "z": 52,
      "а": 53,
      "б": 54,
      "в": 55,
      "г": 56,
      "д": 57,
      "е": 58,
      "ж": 59,
      "з": 60,
      "и": 61,
      "к": 62,
      "л": 63,
      "м": 64,
      "н": 65,
      "о": 66,
      "п": 67,
      "р": 68,
      "с": 69,
      "т": 70,
      "у": 71,
      "ф": 72,
      "х": 73,
      "ц": 74,
      "ч": 75,
      "ш": 76,
      "щ": 77,
      "ъ": 78,
      "ы": 79,
      "ь": 80,
      "э": 81,
      "ю": 82,
      "я": 83,
      "то": 84,
      "но": 85,
      "на": 86,
      "ст": 87,
      "не": 88,
      "ра": 89,
      "по": 90,
      "ро": 91,
      "ко": 92,
      "ни": 93,
      "ль": 94,
      "ка": 95,
      "ре": 96,
      "го": 97,
      "ет": 98,
      "во": 99,
      "ли": 100,
      "ри": 101,
      "ен": 102,
      "ны": 103,
      "ва": 104,
      "мо": 105,
      "те": 106,
      "ть": 107,
      "ло": 108,
      "да": 109,
      "ла": 110,
      "се": 111,
      "за": 112,
      "та": 113,
      "ся": 114,
      "де": 115,
      "ма": 116,
      "ки": 117,
      "со": 118,
      "ле": 119,
      "ми": 120,
      "до": 121,
      "ве": 122,
      "ме": 123,
      "че": 124,
      "же": 125,
      "ти": 126,
      "про": 127,
      "ви": 128,
      "фи": 129,
      "бо": 130,
      "что": 131,
      "ди": 132,
      "это": 133,
      "бы": 134,
      "пе": 135,
      "из": 136,
      "сто": 137,
      "хо": 138,
      "вы": 139,
      "филь": 140,
      "ру": 141,
      "му": 142,
      "ста": 143,
      "все": 144,
      "ля": 145,
      "от": 146,
      "са": 147,
      "ча": 148,
      "при": 149,
      "ры": 150,
      "ну": 151,
      "сь": 152,
      "лю": 153,
      "чи": 154,
      "ше": 155,
      "ще": 156,
      "си": 157,
      "об": 158,
      "жи": 159,
      "раз": 160,
      "ду": 161,
      "льно": 162,
      "бе": 163,
      "сти": 164,
      "ку": 165,
      "лу": 166,
      "кото": 167,
      "ныи": 168,
      "как": 169,
      "сть": 170,
      "ние": 171,
      "па": 172,
      "мы": 173,
      "ется": 174,
      "ши": 175,
      "енно": 176,
      "ско": 177,
      "пре": 178,
      "жа": 179,
      "сво": 180,
      "ния": 181,
      "фильм": 182,
      "ют": 183,
      "га": 184,
      "смо": 185,
      "чно": 186,
      "он": 187,
      "ге": 188,
      "ги": 189,
      "ци": 190,
      "щи": 191,
      "це": 192,
      "ски": 193,
      "ные": 194,
      "ного": 195,
      "ных": 196,
      "смот": 197,
      "ря": 198,
      "его": 199,
      "ска": 200,
      "ты": 201,
      "так": 202,
      "мен": 203,
      "ту": 204,
      "пер": 205,
      "ня": 206,
      "би": 207,
      "нои": 208,
      "ву": 209,
      "су": 210,
      "ная": 211,
      "ень": 212,
      "пи": 213,
      "которы": 214,
      "мож": 215,
      "бу": 216,
      "гра": 217,
      "дет": 218,
      "лько": 219,
      "кра": 220,
      "рои": 221,
      "гла": 222,
      "сле": 223,
      "ба": 224,
      "зна": 225,
      "од": 226,
      "..": 227,
      "ным": 228,
      "ин": 229,
      "ак": 230,
      "пере": 231,
      "ться": 232,
      "гда": 233,
      "под": 234,
      "ис": 235,
      "зы": 236,
      "нии": 237,
      "вер": 238,
      "еи": 239,
      "пу": 240,
      "дру": 241,
      "кои": 242,
      "ша": 243,
      "оч": 244,
      "пра": 245,
      "для": 246,
      "тель": 247,
      "ств": 248,
      "очень": 249,
      "сли": 250,
      "тся": 251,
      "ком": 252,
      "фильма": 253,
      "ды": 254,
      "ство": 255,
      "вно": 256,
      "чу": 257,
      "вре": 258,
      "тельно": 259,
      "рти": 260,
      "пол": 261,
      "она": 262,
      "сте": 263,
      "сю": 264,
      "вля": 265,
      "шь": 266,
      "им": 267,
      "ров": 268,
      "боль": 269,
      "лся": 270,
      "можно": 271,
      "вать": 272,
      "деи": 273,
      "ха": 274,
      "нима": 275,
      "их": 276,
      "тя": 277,
      "сло": 278,
      "смотре": 279,
      "10": 280,
      "ем": 281,
      "стра": 282,
      "просто": 283,
      "лы": 284,
      "том": 285,
      "жет": 286,
      "жиз": 287,
      "акте": 288,
      "кон": 289,
      "дь": 290,
      "только": 291,
      "ющи": 292,
      "лен": 293,
      "ке": 294,
      "ца": 295,
      "воз": 296,
      "чем": 297,
      "мне": 298,
      "сно": 299,
      "сы": 300,
      "лось": 301,
      "даже": 302,
      "без": 303,
      "ную": 304,
      "кино": 305,
      "стви": 306,
      "рас": 307,
      "вает": 308,
      "ща": 309,
      "гу": 310,
      "после": 311,
      "зи": 312,
      "лове": 313,
      "исто": 314,
      "карти": 315,
      "еще": 316,
      "когда": 317,
      "дела": 318,
      "фе": 319,
      "само": 320,
      "три": 321,
      "если": 322,
      "или": 323,
      "каза": 324,
      "каж": 325,
      "кто": 326,
      "чески": 327,
      "сюжет": 328,
      "нь": 329,
      "пы": 330,
      "истори": 331,
      "вет": 332,
      "ят": 333,
      "нно": 334,
      "нет": 335,
      "соб": 336,
      "они": 337,
      "ром": 338,
      "уже": 339,
      "челове": 340,
      "инте": 341,
      "вто": 342,
      "оста": 343,
      "много": 344,
      "глав": 345,
      "вои": 346,
      "мя": 347,
      "было": 348,
      "спо": 349,
      "хоро": 350,
      "ее": 351,
      "этот": 352,
      "ан": 353,
      "дол": 354,
      "ции": 355,
      "меня": 356,
      "стоя": 357,
      "таки": 358,
      "ходи": 359,
      "обще": 360,
      "жен": 361,
      "герои": 362,
      "геро": 363,
      "нее": 364,
      "сме": 365,
      "есть": 366,
      "ства": 367,
      "пред": 368,
      "сона": 369,
      "вз": 370,
      "полу": 371,
      "слу": 372,
      "вот": 373,
      "...": 374,
      "сери": 375,
      "лет": 376,
      "доб": 377,
      "сер": 378,
      "которыи": 379,
      "пло": 380,
      "чего": 381,
      "рабо": 382,
      "тре": 383,
      "цен": 384,
      "бя": 385,
      "сту": 386,
      "интере": 387,
      "режи": 388,
      "фильме": 389,
      "режис": 390,
      "ются": 391,
      "зо": 392,
      "ное": 393,
      "ков": 394,
      "которые": 395,
      "ными": 396,
      "персона": 397,
      "шо": 398,
      "зри": 399,
      "лась": 400,
      "того": 401,
      "неи": 402,
      "фо": 403,
      "дин": 404,
      "ственно": 405,
      "дра": 406,
      "этом": 407,
      "может": 408,
      "смотреть": 409,
      "гля": 410,
      "гово": 411,
      "ном": 412,
      "ход": 413,
      "стои": 414,
      "вле": 415,
      "коне": 416,
      "ника": 417,
      "тра": 418,
      "спе": 419,
      "нра": 420,
      "кого": 421,
      "тем": 422,
      "игра": 423,
      "зда": 424,
      "лись": 425,
      "нача": 426,
      "вая": 427,
      "сце": 428,
      "жно": 429,
      "сказа": 430,
      "скои": 431,
      "этого": 432,
      "образ": 433,
      "зде": 434,
      "хи": 435,
      "вя": 436,
      "люби": 437,
      "вши": 438,
      "всем": 439,
      "пла": 440,
      "кры": 441,
      "луч": 442,
      "эти": 443,
      "рова": 444,
      "лее": 445,
      "ев": 446,
      "ству": 447,
      "любо": 448,
      "дума": 449,
      "',": 450,
      "время": 451,
      "юще": 452,
      "созда": 453,
      "теля": 454,
      "стью": 455,
      "леи": 456,
      "шу": 457,
      "где": 458,
      "сцена": 459,
      "здесь": 460,
      "выи": 461,
      "мер": 462,
      "тому": 463,
      "себя": 464,
      "деистви": 465,
      "тно": 466,
      "ему": 467,
      "ского": 468,
      "больше": 469,
      "сла": 470,
      "сси": 471,
      "чтобы": 472,
      "кру": 473,
      "ствен": 474,
      "жизни": 475,
      "кла": 476,
      "ально": 477,
      "него": 478,
      "нием": 479,
      "рая": 480,
      "ред": 481,
      "хотя": 482,
      "сериа": 483,
      "вается": 484,
      "'.": 485,
      "дер": 486,
      "поня": 487,
      "был": 488,
      "чув": 489,
      "более": 490,
      "свои": 491,
      "получи": 492,
      "нов": 493,
      "мени": 494,
      "стре": 495,
      "аль": 496,
      "ску": 497,
      "мно": 498,
      "клю": 499,
      "вра": 500,
      "),": 501,
      "чет": 502,
      "зу": 503,
      "самы": 504,
      "быть": 505,
      "жу": 506,
      "мет": 507,
      "сня": 508,
      "явля": 509,
      "тов": 510,
      "дно": 511,
      "дан": 512,
      "именно": 513,
      "них": 514,
      ").": 515,
      "ведь": 516,
      "конечно": 517,
      "одна": 518,
      "просмот": 519,
      "которо": 520,
      "ман": 521,
      "момен": 522,
      "отли": 523,
      "мои": 524,
      "нрави": 525,
      "гру": 526,
      "показа": 527,
      "жизнь": 528,
      "бра": 529,
      "тут": 530,
      "логи": 531,
      "нию": 532,
      "экра": 533,
      "рт": 534,
      "мина": 535,
      "своеи": 536,
      "всего": 537,
      "тер": 538,
      "кое": 539,
      "люб": 540,
      "один": 541,
      "чита": 542,
      "полне": 543,
      "дово": 544,
      "изве": 545,
      "жда": 546,
      "ье": 547,
      "уда": 548,
      "лом": 549,
      "скии": 550,
      "вых": 551,
      "будет": 552,
      "кри": 553,
      "прав": 554,
      "интерес": 555,
      "кре": 556,
      "вели": 557,
      "бле": 558,
      "лишь": 559,
      "кан": 560,
      "стро": 561,
      "весь": 562,
      "сказать": 563,
      "глу": 564,
      "жде": 565,
      "актер": 566,
      "обы": 567,
      "дже": 568,
      "кая": 569,
      "вос": 570,
      "фа": 571,
      "отно": 572,
      "поло": 573,
      "ская": 574,
      "ходит": 575,
      "возможно": 576,
      "там": 577,
      "писа": 578,
      "чер": 579,
      "чина": 580,
      "сколько": 581,
      "стоит": 582,
      "ешь": 583,
      "бои": 584,
      "хва": 585,
      "щу": 586,
      "вают": 587,
      "сдела": 588,
      "дж": 589,
      "друго": 590,
      "вь": 591,
      "фильмо": 592,
      "ция": 593,
      "одно": 594,
      "которая": 595,
      "сов": 596,
      "пока": 597,
      "вые": 598,
      "дом": 599,
      "кти": 600,
      "щая": 601,
      "вообще": 602,
      "ющии": 603,
      "потому": 604,
      "сценари": 605,
      "печа": 606,
      "ставля": 607,
      "ких": 608,
      "роль": 609,
      "разу": 610,
      "кии": 611,
      "чь": 612,
      "лле": 613,
      "ник": 614,
      "прави": 615,
      "нем": 616,
      "этому": 617,
      "всегда": 618,
      "иде": 619,
      "цо": 620,
      "сты": 621,
      "точно": 622,
      "лли": 623,
      "героя": 624,
      "себе": 625,
      "работа": 626,
      "стави": 627,
      "дя": 628,
      "настоя": 629,
      "подоб": 630,
      "кро": 631,
      "виде": 632,
      "ничего": 633,
      "име": 634,
      "всех": 635,
      "нам": 636,
      "чныи": 637,
      "бли": 638,
      "понрави": 639,
      "уби": 640,
      "чему": 641,
      "смы": 642,
      "года": 643,
      "ран": 644,
      "ат": 645,
      "тои": 646,
      "сторо": 647,
      "послед": 648,
      "буду": 649,
      "музы": 650,
      "род": 651,
      "пыта": 652,
      "мину": 653,
      "вого": 654,
      "этои": 655,
      "тоже": 656,
      "ним": 657,
      "меди": 658,
      "проис": 659,
      "шего": 660,
      "лег": 661,
      "ожи": 662,
      "уди": 663,
      "история": 664,
      "доста": 665,
      "говори": 666,
      "режиссе": 667,
      "пове": 668,
      "тво": 669,
      "случа": 670,
      "кие": 671,
      "могу": 672,
      "моло": 673,
      "была": 674,
      "иг": 675,
      "людеи": 676,
      "понима": 677,
      "такои": 678,
      "режиссер": 679,
      "пря": 680,
      "цы": 681,
      "други": 682,
      "ужа": 683,
      "особ": 684,
      "героев": 685,
      "сам": 686,
      "лан": 687,
      "мери": 688,
      "чере": 689,
      "дит": 690,
      "наи": 691,
      "вал": 692,
      "чен": 693,
      "совер": 694,
      "ленно": 695,
      "над": 696,
      "тели": 697,
      "части": 698,
      "комеди": 699,
      "краси": 700,
      "роли": 701,
      "обра": 702,
      "телеи": 703,
      "многи": 704,
      "взгля": 705,
      "ками": 706,
      "просмотра": 707,
      "печат": 708,
      "прекра": 709,
      "спа": 710,
      "сцен": 711,
      "дает": 712,
      "вне": 713,
      "смотри": 714,
      "тру": 715,
      "ван": 716,
      "эта": 717,
      "эк": 718,
      "стно": 719,
      "фор": 720,
      "является": 721,
      "собы": 722,
      "эн": 723,
      "дать": 724,
      "начина": 725,
      "лично": 726,
      "плохо": 727,
      "были": 728,
      "мос": 729,
      "кар": 730,
      "авто": 731,
      "деиствительно": 732,
      "впечат": 733,
      "свою": 734,
      "лучше": 735,
      "которых": 736,
      "кажды": 737,
      "жду": 738,
      "ино": 739,
      "проти": 740,
      "мир": 741,
      "голо": 742,
      "амери": 743,
      "также": 744,
      "став": 745,
      "осно": 746,
      "али": 747,
      "ори": 748,
      "ху": 749,
      "деву": 750,
      "картины": 751,
      "смотря": 752,
      "нас": 753,
      "коле": 754,
      "бла": 755,
      "особенно": 756,
      "ден": 757,
      "отноше": 758,
      "нови": 759,
      "нами": 760,
      "сыгра": 761,
      "рен": 762,
      "ских": 763,
      "надо": 764,
      "обо": 765,
      "истории": 766,
      "стя": 767,
      "шая": 768,
      "фильмов": 769,
      "деть": 770,
      "люди": 771,
      "часть": 772,
      "шенно": 773,
      "перед": 774,
      "столько": 775,
      "ходя": 776,
      "мало": 777,
      "прият": 778,
      "человек": 779,
      "шеи": 780,
      "хорошо": 781,
      "почему": 782,
      "тия": 783,
      "наз": 784,
      "совсем": 785,
      "бор": 786,
      "актеров": 787,
      "зе": 788,
      "тор": 789,
      "шии": 790,
      "тан": 791,
      "льныи": 792,
      "эмо": 793,
      "ор": 794,
      "фильмы": 795,
      "мосфе": 796,
      "атмосфе": 797,
      "зрителя": 798,
      "цу": 799,
      "тех": 800,
      "ших": 801,
      "уж": 802,
      "женщи": 803,
      "зывает": 804,
      "девуш": 805,
      "вали": 806,
      "ким": 807,
      "аб": 808,
      "вме": 809,
      "стве": 810,
      "однако": 811,
      "муль": 812,
      "вопро": 813,
      "человека": 814,
      "мни": 815,
      "тро": 816,
      "любовь": 817,
      "свя": 818,
      "которои": 819,
      "вам": 820,
      "каждыи": 821,
      "шло": 822,
      "зло": 823,
      "сут": 824,
      "мон": 825,
      "внима": 826,
      "пробле": 827,
      "чется": 828,
      "каче": 829,
      "осо": 830,
      "сем": 831,
      "своего": 832,
      "сеи": 833,
      "жела": 834,
      "безу": 835,
      "друг": 836,
      "види": 837,
      "поэтому": 838,
      "довольно": 839,
      "жение": 840,
      "посмотреть": 841,
      "роди": 842,
      "зре": 843,
      "какои": 844,
      "тот": 845,
      "два": 846,
      "счита": 847,
      "рак": 848,
      "вое": 849,
      "муж": 850,
      "юмо": 851,
      "поч": 852,
      "ффе": 853,
      "вания": 854,
      "ющие": 855,
      "хочется": 856,
      "вание": 857,
      "свое": 858,
      "нуть": 859,
      "гина": 860,
      "жан": 861,
      "ью": 862,
      "нужно": 863,
      "времени": 864,
      "мати": 865,
      "кажется": 866,
      "которого": 867,
      "ступ": 868,
      "ню": 869,
      "большо": 870,
      "ющих": 871,
      "хоте": 872,
      "менно": 873,
      "фина": 874,
      "помо": 875,
      "дои": 876,
      "хоть": 877,
      "свет": 878,
      "ито": 879,
      "жеи": 880,
      "рот": 881,
      "эффе": 882,
      "зя": 883,
      "реши": 884,
      "день": 885,
      "рю": 886,
      "оригина": 887,
      "кло": 888,
      "теле": 889,
      "способ": 890,
      "пси": 891,
      "между": 892,
      "оче": 893,
      "заме": 894,
      "рую": 895,
      "ответ": 896,
      "уме": 897,
      "актеры": 898,
      "совершенно": 899,
      "сериал": 900,
      "стал": 901,
      "картина": 902,
      "ваться": 903,
      "американ": 904,
      "роде": 905,
      "ские": 906,
      "яр": 907,
      "кт": 908,
      "своих": 909,
      "льные": 910,
      "жить": 911,
      "ление": 912,
      "сс": 913,
      "суще": 914,
      "ья": 915,
      "вым": 916,
      "музыка": 917,
      "учи": 918,
      "снима": 919,
      "пор": 920,
      "немного": 921,
      "ожида": 922,
      "объ": 923,
      "глаза": 924,
      "сами": 925,
      "выгля": 926,
      "бес": 927,
      "шком": 928,
      "вся": 929,
      "преде": 930,
      "стер": 931,
      "пя": 932,
      "нес": 933,
      "однои": 934,
      "несколько": 935,
      "ар": 936,
      "кую": 937,
      "нныи": 938,
      "част": 939,
      "сом": 940,
      "щии": 941,
      "ках": 942,
      "продол": 943,
      "куда": 944,
      "ить": 945,
      "успе": 946,
      "поли": 947,
      "похо": 948,
      "слишком": 949,
      "20": 950,
      "кни": 951,
      "радо": 952,
      "ключе": 953,
      "чнои": 954,
      "пои": 955,
      "ряд": 956,
      "вполне": 957,
      "сразу": 958,
      "ском": 959,
      "ющая": 960,
      "туа": 961,
      "вую": 962,
      "дву": 963,
      "вшии": 964,
      "чные": 965,
      "вное": 966,
      "чная": 967,
      "шел": 968,
      "такое": 969,
      "взгляд": 970,
      "льнои": 971,
      "дело": 972,
      "пар": 973,
      "фан": 974,
      "оказа": 975,
      "тен": 976,
      "достаточно": 977,
      "шен": 978,
      "харак": 979,
      "час": 980,
      "ствует": 981,
      "гре": 982,
      "поз": 983,
      "бое": 984,
      "такие": 985,
      "льных": 986,
      "тогра": 987,
      "шно": 988,
      "пример": 989,
      "интересно": 990,
      "тельныи": 991,
      "жения": 992,
      "доро": 993,
      "извест": 994,
      "нд": 995,
      "чки": 996,
      "убии": 997,
      "мас": 998,
      "помина": 999,
      "станови": 1000,
      "бер": 1001,
      "бро": 1002,
      "тяже": 1003,
      "диа": 1004,
      "изо": 1005,
      "видеть": 1006,
      "сама": 1007,
      "любви": 1008,
      "реально": 1009,
      "фран": 1010,
      "скую": 1011,
      "един": 1012,
      "кому": 1013,
      "самого": 1014,
      "персонажеи": 1015,
      "настолько": 1016,
      "вом": 1017,
      "вери": 1018,
      "наде": 1019,
      "тии": 1020,
      "кад": 1021,
      "почти": 1022,
      "самом": 1023,
      "нема": 1024,
      "встре": 1025,
      "словно": 1026,
      "весьма": 1027,
      "режиссера": 1028,
      "мира": 1029,
      "меи": 1030,
      "льное": 1031,
      "даль": 1032,
      "ощу": 1033,
      "ческои": 1034,
      "ствие": 1035,
      "вод": 1036,
      "больши": 1037,
      "конце": 1038,
      "навер": 1039,
      "цов": 1040,
      "мар": 1041,
      "щего": 1042,
      "емы": 1043,
      "пережи": 1044,
      "лин": 1045,
      "тон": 1046,
      "солю": 1047,
      "слы": 1048,
      "скоре": 1049,
      "перь": 1050,
      "абсолю": 1051,
      "цию": 1052,
      "теперь": 1053,
      "ск": 1054,
      "прекрас": 1055,
      "гли": 1056,
      "общем": 1057,
      "19": 1058,
      "чных": 1059,
      "ников": 1060,
      "эту": 1061,
      "мал": 1062,
      "дов": 1063,
      "щение": 1064,
      "нить": 1065,
      "емо": 1066,
      "потом": 1067,
      "совре": 1068,
      "правда": 1069,
      "год": 1070,
      "пера": 1071,
      "вол": 1072,
      "деле": 1073,
      "лов": 1074,
      "говоря": 1075,
      "дале": 1076,
      "сред": 1077,
      "чувство": 1078,
      "будь": 1079,
      "ское": 1080,
      "высо": 1081,
      "ква": 1082,
      "мульт": 1083,
      "равно": 1084,
      "чка": 1085,
      "ом": 1086,
      "ющеи": 1087,
      "сюжета": 1088,
      "ческии": 1089,
      "теря": 1090,
      "ьез": 1091,
      "либо": 1092,
      "замеча": 1093,
      "поль": 1094,
      "поста": 1095,
      "сеичас": 1096,
      "тки": 1097,
      "ситуа": 1098,
      "сим": 1099,
      "нематогра": 1100,
      "знако": 1101,
      "сон": 1102,
      "неве": 1103,
      "момент": 1104,
      "ог": 1105,
      "зву": 1106,
      "сра": 1107,
      "удиви": 1108,
      "раскры": 1109,
      "попа": 1110,
      "кинематогра": 1111,
      "самое": 1112,
      "тери": 1113,
      "нен": 1114,
      "эп": 1115,
      "главныи": 1116,
      "ради": 1117,
      "ете": 1118,
      "начала": 1119,
      "вместе": 1120,
      "другои": 1121,
      "ности": 1122,
      "опреде": 1123,
      "давно": 1124,
      "плю": 1125,
      "великоле": 1126,
      "менее": 1127,
      "зве": 1128,
      "полно": 1129,
      "мак": 1130,
      "нуж": 1131,
      "влека": 1132,
      "слова": 1133,
      "ваются": 1134,
      "первыи": 1135,
      "вну": 1136,
      "ческих": 1137,
      "несмотря": 1138,
      "вид": 1139,
      "разви": 1140,
      "совет": 1141,
      "блю": 1142,
      "нель": 1143,
      "чным": 1144,
      "ющего": 1145,
      "прин": 1146,
      "стороны": 1147,
      "эмоции": 1148,
      "льного": 1149,
      "фанта": 1150,
      "льная": 1151,
      "великолеп": 1152,
      "реди": 1153,
      "талан": 1154,
      "казы": 1155,
      "через": 1156,
      "каждо": 1157,
      "мента": 1158,
      "серии": 1159,
      "своим": 1160,
      "историю": 1161,
      "экране": 1162,
      "собои": 1163,
      "узна": 1164,
      "становится": 1165,
      "которую": 1166,
      "пожа": 1167,
      "серьез": 1168,
      "эи": 1169,
      "конец": 1170,
      "реали": 1171,
      "этим": 1172,
      "практи": 1173,
      "собственно": 1174,
      "ссии": 1175,
      "фак": 1176,
      "держа": 1177,
      "хе": 1178,
      "съ": 1179,
      "кров": 1180,
      "чество": 1181,
      "ники": 1182,
      "дли": 1183,
      "вала": 1184,
      "роман": 1185,
      "таким": 1186,
      "оди": 1187,
      "нельзя": 1188,
      "целом": 1189,
      "бира": 1190,
      "тыи": 1191,
      "рии": 1192,
      "стати": 1193,
      "расска": 1194,
      "отде": 1195,
      "долж": 1196,
      "уров": 1197,
      "многие": 1198,
      "абсолютно": 1199,
      "получа": 1200,
      "оча": 1201,
      "таких": 1202,
      "поя": 1203,
      "пле": 1204,
      "долго": 1205,
      "двух": 1206,
      "вроде": 1207,
      "откры": 1208,
      "малень": 1209,
      "тогда": 1210,
      "друга": 1211,
      "сма": 1212,
      "нг": 1213,
      "места": 1214,
      "мере": 1215,
      "очеред": 1216,
      "самыи": 1217,
      "буд": 1218,
      "реи": 1219,
      "метить": 1220,
      "фильму": 1221,
      "сцены": 1222,
      "кус": 1223,
      "персонажа": 1224,
      "всю": 1225,
      "рода": 1226,
      "бен": 1227,
      "второи": 1228,
      "сценарии": 1229,
      "вла": 1230,
      "рус": 1231,
      "щее": 1232,
      "обе": 1233,
      "нное": 1234,
      "значи": 1235,
      "нные": 1236,
      "стеи": 1237,
      "следу": 1238,
      "произве": 1239,
      "которое": 1240,
      "держи": 1241,
      "никогда": 1242,
      "ите": 1243,
      "комедии": 1244,
      "кли": 1245,
      "убе": 1246,
      "вари": 1247,
      "дар": 1248,
      "роят": 1249,
      "тив": 1250,
      "плане": 1251,
      "игры": 1252,
      "меч": 1253,
      "главное": 1254,
      "одного": 1255,
      "уве": 1256,
      "оно": 1257,
      "зем": 1258,
      "скорее": 1259,
      "актера": 1260,
      "ления": 1261,
      "благода": 1262,
      "опера": 1263,
      "картин": 1264,
      "лыи": 1265,
      "дете": 1266,
      "сериала": 1267,
      "маль": 1268,
      "пот": 1269,
      "жает": 1270,
      "практически": 1271,
      "смыс": 1272,
      "отношения": 1273,
      "персонаж": 1274,
      "такого": 1275,
      "жесто": 1276,
      "сделать": 1277,
      "минут": 1278,
      "идет": 1279,
      "чуть": 1280,
      "итоге": 1281,
      "гор": 1282,
      "юсь": 1283,
      "подро": 1284,
      "ставляет": 1285,
      "первых": 1286,
      "щую": 1287,
      "ственныи": 1288,
      "посмотре": 1289,
      "взро": 1290,
      "взя": 1291,
      "куль": 1292,
      "дели": 1293,
      "еди": 1294,
      "судь": 1295,
      "ток": 1296,
      "персонажи": 1297,
      "наблю": 1298,
      "краи": 1299,
      "строи": 1300,
      "ческие": 1301,
      "актри": 1302,
      "дев": 1303,
      "ность": 1304,
      "серд": 1305,
      "кор": 1306,
      "спи": 1307,
      "щеи": 1308,
      "нер": 1309,
      "лия": 1310,
      "зритель": 1311,
      "понятно": 1312,
      "ющим": 1313,
      "постоя": 1314,
      "заслу": 1315,
      "щих": 1316,
      "нор": 1317,
      "первои": 1318,
      "вспо": 1319,
      "главного": 1320,
      "прое": 1321,
      "шка": 1322,
      "друз": 1323,
      "боеви": 1324,
      "луи": 1325,
      "происходя": 1326,
      "противо": 1327,
      "ставить": 1328,
      "гает": 1329,
      "душе": 1330,
      "кроме": 1331,
      "помни": 1332,
      "пози": 1333,
      "пыт": 1334,
      "отлично": 1335,
      "случае": 1336,
      "уи": 1337,
      "призна": 1338,
      "сколь": 1339,
      "ум": 1340,
      "других": 1341,
      "огром": 1342,
      "важ": 1343,
      "шую": 1344,
      "самых": 1345,
      "достои": 1346,
      "пара": 1347,
      "тить": 1348,
      "сильно": 1349,
      "картине": 1350,
      "напря": 1351,
      "мело": 1352,
      "принима": 1353,
      "рез": 1354,
      "ческого": 1355,
      "лек": 1356,
      "подо": 1357,
      "смеш": 1358,
      "трилле": 1359,
      "неза": 1360,
      "события": 1361,
      "мог": 1362,
      "выше": 1363,
      "обя": 1364,
      "бри": 1365,
      "лл": 1366,
      "зии": 1367,
      "щие": 1368,
      "льным": 1369,
      "вин": 1370,
      "красо": 1371,
      "ган": 1372,
      "ровать": 1373,
      "класси": 1374,
      "превра": 1375,
      "впечатление": 1376,
      "сек": 1377,
      "стри": 1378,
      "ским": 1379,
      "дить": 1380,
      "играет": 1381,
      "дви": 1382,
      "могут": 1383,
      "щен": 1384,
      "чного": 1385,
      "место": 1386,
      "город": 1387,
      "конца": 1388,
      "внимание": 1389,
      "спец": 1390,
      "обяза": 1391,
      "таи": 1392,
      "главных": 1393,
      "эффек": 1394,
      "очарова": 1395,
      "телю": 1396,
      "сен": 1397,
      "ана": 1398,
      "мом": 1399,
      "понять": 1400,
      "котором": 1401,
      "доволь": 1402,
      "ал": 1403,
      "пода": 1404,
      "прово": 1405,
      "сказ": 1406,
      "оби": 1407,
      "психо": 1408,
      "коли": 1409,
      "происходит": 1410,
      "жанра": 1411,
      "недо": 1412,
      "кстати": 1413,
      "пять": 1414,
      "концов": 1415,
      "шла": 1416,
      "мире": 1417,
      "шки": 1418,
      "чувства": 1419,
      "неплохо": 1420,
      "говорить": 1421,
      "показы": 1422,
      "думаю": 1423,
      "фу": 1424,
      "твор": 1425,
      "гар": 1426,
      "против": 1427,
      "хотелось": 1428,
      "лез": 1429,
      "будто": 1430,
      "деся": 1431,
      "нибудь": 1432,
      "шие": 1433,
      "глубо": 1434,
      "дальше": 1435,
      "обре": 1436,
      "графи": 1437,
      "низа": 1438,
      "россии": 1439,
      "пусть": 1440,
      "легко": 1441,
      "сит": 1442,
      "стать": 1443,
      "ством": 1444,
      "эт": 1445,
      "бога": 1446,
      "цеи": 1447,
      "исполне": 1448,
      "сни": 1449,
      "например": 1450,
      "тами": 1451,
      "присут": 1452,
      "бю": 1453,
      "грани": 1454,
      "кам": 1455,
      "вшего": 1456,
      "тельная": 1457,
      "наверное": 1458,
      "сомне": 1459,
      "выглядит": 1460,
      "дии": 1461,
      "оказы": 1462,
      "шко": 1463,
      "хра": 1464,
      "джон": 1465,
      "всеи": 1466,
      "ступа": 1467,
      "некоторые": 1468,
      "тол": 1469,
      "особо": 1470,
      "шим": 1471,
      "маи": 1472,
      "бло": 1473,
      "оте": 1474,
      "гото": 1475,
      "зада": 1476,
      "ген": 1477,
      "отметить": 1478,
      "стран": 1479,
      "никто": 1480,
      "ляет": 1481,
      "потря": 1482,
      "гро": 1483,
      "заба": 1484,
      "создатели": 1485,
      "пен": 1486,
      "мора": 1487,
      "дево": 1488,
      "тера": 1489,
      "джи": 1490,
      "понравился": 1491,
      "пово": 1492,
      "положи": 1493,
      "циона": 1494,
      "этих": 1495,
      "второ": 1496,
      "романти": 1497,
      "снова": 1498,
      "увидеть": 1499,
      "ина": 1500,
      "семеи": 1501,
      "тельные": 1502,
      "объя": 1503,
      "драма": 1504,
      "побе": 1505,
      "страш": 1506,
      "какие": 1507,
      "картину": 1508,
      "добро": 1509,
      "весе": 1510,
      "вление": 1511,
      "ческая": 1512,
      "талант": 1513,
      "произведе": 1514,
      "получился": 1515,
      "ключи": 1516,
      "тие": 1517,
      "лки": 1518,
      "большои": 1519,
      "иногда": 1520,
      "самои": 1521,
      "невероят": 1522,
      "привы": 1523,
      "коро": 1524,
      "мальчи": 1525,
      "вен": 1526,
      "году": 1527,
      "ях": 1528,
      "жем": 1529,
      "вших": 1530,
      "тур": 1531,
      "интри": 1532,
      "дре": 1533,
      "принци": 1534,
      "тяну": 1535,
      "полни": 1536,
      "рит": 1537,
      "главнои": 1538,
      "нном": 1539,
      "детеи": 1540,
      "пуска": 1541,
      "рует": 1542,
      "своем": 1543,
      "худо": 1544,
      "оцен": 1545,
      "обла": 1546,
      "досто": 1547,
      "семь": 1548,
      "видел": 1549,
      "должен": 1550,
      "вас": 1551,
      "позво": 1552,
      "написа": 1553,
      "смер": 1554,
      "опа": 1555,
      "ходят": 1556,
      "данныи": 1557,
      "улы": 1558,
      "знаю": 1559,
      "шем": 1560,
      "вести": 1561,
      "матери": 1562,
      "тых": 1563,
      "тора": 1564,
      "лливу": 1565,
      "отсут": 1566,
      "остается": 1567,
      "чку": 1568,
      "благодаря": 1569,
      "пли": 1570,
      "тельнои": 1571,
      "основ": 1572,
      "нок": 1573,
      "етра": 1574,
      "зачем": 1575,
      "цев": 1576,
      "каса": 1577,
      "лои": 1578,
      "кова": 1579,
      "пусти": 1580,
      "необы": 1581,
      "пожалуи": 1582,
      "рить": 1583,
      "тает": 1584,
      "нар": 1585,
      "образом": 1586,
      "вопрос": 1587,
      "сложно": 1588,
      "исти": 1589,
      "зрителю": 1590,
      "ними": 1591,
      "такая": 1592,
      "рази": 1593,
      "одним": 1594,
      "повто": 1595,
      "имеет": 1596,
      "нда": 1597,
      "вить": 1598,
      "честно": 1599,
      "попу": 1600,
      "две": 1601,
      "прошло": 1602,
      "жале": 1603,
      "полностью": 1604,
      "гов": 1605,
      "звез": 1606,
      "нена": 1607,
      "коми": 1608,
      "ющее": 1609,
      "чие": 1610,
      "свобо": 1611,
      "риз": 1612,
      "строе": 1613,
      "моменты": 1614,
      "лица": 1615,
      "героиня": 1616,
      "далеко": 1617,
      "доба": 1618,
      "столь": 1619,
      "голливу": 1620,
      "тебя": 1621,
      "сматри": 1622,
      "шее": 1623,
      "профе": 1624,
      "рам": 1625,
      "вляет": 1626,
      "среди": 1627,
      "коло": 1628,
      "делает": 1629,
      "тельных": 1630,
      "дома": 1631,
      "рок": 1632,
      "шли": 1633,
      "есте": 1634,
      "разве": 1635,
      "которым": 1636,
      "прекрасно": 1637,
      "будут": 1638,
      "драмати": 1639,
      "мое": 1640,
      "цион": 1641,
      "жды": 1642,
      "круг": 1643,
      "ница": 1644,
      "повество": 1645,
      "треть": 1646,
      "искус": 1647,
      "джо": 1648,
      "наити": 1649,
      "деиствия": 1650,
      "дают": 1651,
      "начале": 1652,
      "первые": 1653,
      "потряса": 1654,
      "следо": 1655,
      "часто": 1656,
      "све": 1657,
      "близ": 1658,
      "явно": 1659,
      "любимы": 1660,
      "тая": 1661,
      "вяз": 1662,
      "пет": 1663,
      "смотрится": 1664,
      "бана": 1665,
      "чеи": 1666,
      "шает": 1667,
      "причем": 1668,
      "щения": 1669,
      "комен": 1670,
      "ленты": 1671,
      "своими": 1672,
      "мор": 1673,
      "миро": 1674,
      "дая": 1675,
      "жать": 1676,
      "делать": 1677,
      "фантасти": 1678,
      "захва": 1679,
      "потеря": 1680,
      "стара": 1681,
      "искре": 1682,
      "приятно": 1683,
      "чая": 1684,
      "девушка": 1685,
      "юмор": 1686,
      "получилось": 1687,
      "полня": 1688,
      "рекомен": 1689,
      "слож": 1690,
      "време": 1691,
      "нного": 1692,
      "крити": 1693,
      "рь": 1694,
      "удоволь": 1695,
      "стов": 1696,
      "коман": 1697,
      "соци": 1698,
      "бере": 1699,
      "хорошии": 1700,
      "мини": 1701,
      "мень": 1702,
      "игру": 1703,
      "ствия": 1704,
      "лла": 1705,
      "жерт": 1706,
      "груп": 1707,
      "енного": 1708,
      "невозможно": 1709,
      "хочет": 1710,
      "детекти": 1711,
      "комедия": 1712,
      "жении": 1713,
      "ляр": 1714,
      "кора": 1715,
      "динами": 1716,
      "ясь": 1717,
      "фильмах": 1718,
      "сол": 1719,
      "мысли": 1720,
      "ибо": 1721,
      "событии": 1722,
      "кну": 1723,
      "рыи": 1724,
      "каждого": 1725,
      "лиш": 1726,
      "идея": 1727,
      "приме": 1728,
      "еннои": 1729,
      "ходится": 1730,
      "мыс": 1731,
      "нных": 1732,
      "исполь": 1733,
      "лице": 1734,
      "ез": 1735,
      "вшись": 1736,
      "пытается": 1737,
      "закон": 1738,
      "бан": 1739,
      "пеи": 1740,
      "заи": 1741,
      "ждение": 1742,
      "большин": 1743,
      "вовсе": 1744,
      "мужчи": 1745,
      "мана": 1746,
      "скажу": 1747,
      "рых": 1748,
      "нев": 1749,
      "сса": 1750,
      "многих": 1751,
      "рецен": 1752,
      "кими": 1753,
      "напомина": 1754,
      "нс": 1755,
      "дю": 1756,
      "вления": 1757,
      "щим": 1758,
      "возра": 1759,
      "ситуации": 1760,
      "неу": 1761,
      "верну": 1762,
      "тые": 1763,
      "спра": 1764,
      "тяжении": 1765,
      "дэ": 1766,
      "окру": 1767,
      "людя": 1768,
      "протяжении": 1769,
      "пора": 1770,
      "лья": 1771,
      "зад": 1772,
      "экраниза": 1773,
      "гло": 1774,
      "видно": 1775,
      "зыва": 1776,
      "показать": 1777,
      "клон": 1778,
      "чное": 1779,
      "вызывает": 1780,
      "дети": 1781,
      "телям": 1782,
      "фильмом": 1783,
      "приз": 1784,
      "встреча": 1785,
      "дую": 1786,
      "откров": 1787,
      "сне": 1788,
      "казалось": 1789,
      "реаль": 1790,
      "видим": 1791,
      "измени": 1792,
      "одном": 1793,
      "понят": 1794,
      "мол": 1795,
      "одино": 1796,
      "чную": 1797,
      "вора": 1798,
      "вни": 1799,
      "самым": 1800,
      "другие": 1801,
      "уни": 1802,
      "тах": 1803,
      "современно": 1804,
      "спокои": 1805,
      "шек": 1806,
      "пола": 1807,
      "восто": 1808,
      "согла": 1809,
      "оба": 1810,
      "зрели": 1811,
      "удалось": 1812,
      "вку": 1813,
      "приня": 1814,
      "сожале": 1815,
      "состоя": 1816,
      "хочу": 1817,
      "смерти": 1818,
      "ждения": 1819,
      "джет": 1820,
      "однозна": 1821,
      "преступ": 1822,
      "силь": 1823,
      "мимо": 1824,
      "дут": 1825,
      "джа": 1826,
      "произ": 1827,
      "нная": 1828,
      "выми": 1829,
      "оши": 1830,
      "моти": 1831,
      "занима": 1832,
      "нове": 1833,
      "лета": 1834,
      "эле": 1835,
      "главная": 1836,
      "супер": 1837,
      "предста": 1838,
      "забы": 1839,
      "тема": 1840,
      "никак": 1841,
      "лые": 1842,
      "порои": 1843,
      "зом": 1844,
      "спаси": 1845,
      "шедев": 1846,
      "твер": 1847,
      "эм": 1848,
      "постанов": 1849,
      "нах": 1850,
      "оказывается": 1851,
      "маши": 1852,
      "причи": 1853,
      "сау": 1854,
      "стало": 1855,
      "зрителеи": 1856,
      "оце": 1857,
      "назвать": 1858,
      "пом": 1859,
      "шать": 1860,
      "вшие": 1861,
      "важно": 1862,
      "тельным": 1863,
      "верх": 1864,
      "ощущение": 1865,
      "слов": 1866,
      "лицо": 1867,
      "знает": 1868,
      "частли": 1869,
      "сердце": 1870,
      "паре": 1871,
      "ил": 1872,
      "говорит": 1873,
      "брать": 1874,
      "стала": 1875,
      "каме": 1876,
      "интер": 1877,
      "думать": 1878,
      "пери": 1879,
      "замет": 1880,
      "ок": 1881,
      "прочем": 1882,
      "форма": 1883,
      "стали": 1884,
      "вокруг": 1885,
      "работы": 1886,
      "сожалению": 1887,
      "трудно": 1888,
      "постоянно": 1889,
      "фоне": 1890,
      "своему": 1891,
      "первую": 1892,
      "нему": 1893,
      "щается": 1894,
      "очере": 1895,
      "визу": 1896,
      "спу": 1897,
      "необ": 1898,
      "вопло": 1899,
      "цвет": 1900,
      "скры": 1901,
      "живает": 1902,
      "раи": 1903,
      "просмотре": 1904,
      "тура": 1905,
      "современ": 1906,
      "нового": 1907,
      "сыграл": 1908,
      "смысл": 1909,
      "начинает": 1910,
      "щему": 1911,
      "лучших": 1912,
      "гри": 1913,
      "тельного": 1914,
      "каким": 1915,
      "мая": 1916,
      "зато": 1917,
      "тыва": 1918,
      "полови": 1919,
      "подрост": 1920,
      "зма": 1921,
      "счастли": 1922,
      "шта": 1923,
      "ннои": 1924,
      "относи": 1925,
      "деиствие": 1926,
      "пита": 1927,
      "уче": 1928,
      "гени": 1929,
      "зага": 1930,
      "проблемы": 1931,
      "смотрите": 1932,
      "лых": 1933,
      "атмосфера": 1934,
      "впрочем": 1935,
      "справи": 1936,
      "героини": 1937,
      "люблю": 1938,
      "работу": 1939,
      "опять": 1940,
      "возвра": 1941,
      "множе": 1942,
      "саунд": 1943,
      "зм": 1944,
      "пару": 1945,
      "наконец": 1946,
      "симпа": 1947,
      "стю": 1948,
      "количество": 1949,
      "трен": 1950,
      "компа": 1951,
      "200": 1952,
      "выра": 1953,
      "шед": 1954,
      "ужас": 1955,
      "ственное": 1956,
      "лая": 1957,
      "ува": 1958,
      "пуга": 1959,
      "творе": 1960,
      "бюджет": 1961,
      "поклон": 1962,
      "алек": 1963,
      "пти": 1964,
      "приключе": 1965,
      "улыб": 1966,
      "преды": 1967,
      "нность": 1968,
      "кс": 1969,
      "оз": 1970,
      "ору": 1971,
      "проблема": 1972,
      "ступи": 1973,
      "искрен": 1974,
      "души": 1975,
      "иначе": 1976,
      "ссо": 1977,
      "часа": 1978,
      "очередь": 1979,
      "новыи": 1980,
      "норма": 1981,
      "раду": 1982,
      "уровне": 1983,
      "съем": 1984,
      "оборот": 1985,
      "мать": 1986,
      "необходи": 1987,
      "леннои": 1988,
      "ником": 1989,
      "нали": 1990,
      "нова": 1991,
      "тельное": 1992,
      "смотрел": 1993,
      "порадо": 1994,
      "внимания": 1995,
      "идеи": 1996,
      "предска": 1997,
      "дости": 1998,
      "эпизо": 1999,
      "знаком": 2000,
      "док": 2001,
      "талантли": 2002,
      "безусловно": 2003,
      "реше": 2004,
      "заду": 2005,
      "милли": 2006,
      "влюб": 2007,
      "самые": 2008,
      "душ": 2009,
      "ребен": 2010,
      "очереднои": 2011,
      "ново": 2012,
      "спасибо": 2013,
      "чества": 2014,
      "месте": 2015,
      "кве": 2016,
      "мест": 2017,
      "связа": 2018,
      "джу": 2019,
      "разно": 2020,
      "буква": 2021,
      "тему": 2022,
      "саундтре": 2023,
      "разли": 2024,
      "нера": 2025,
      "циеи": 2026,
      "лены": 2027,
      "видимо": 2028,
      "обязательно": 2029,
      "фана": 2030,
      "разочарова": 2031,
      "даннои": 2032,
      "первого": 2033,
      "тек": 2034,
      "вшая": 2035,
      "пов": 2036,
      "существо": 2037,
      "сан": 2038,
      "предсказу": 2039,
      "мыш": 2040,
      "орга": 2041,
      "вдо": 2042,
      "настрое": 2043,
      "демон": 2044,
      "тым": 2045,
      "сили": 2046,
      "вшеи": 2047,
      "мра": 2048,
      "сути": 2049,
      "нечто": 2050,
      "професси": 2051,
      "сез": 2052,
      "восхи": 2053,
      "гер": 2054,
      "оператор": 2055,
      "друзья": 2056,
      "исполни": 2057,
      "популяр": 2058,
      "бывает": 2059,
      "прямо": 2060,
      "естественно": 2061,
      "тит": 2062,
      "исполнении": 2063,
      "счет": 2064,
      "ужасов": 2065,
      "стар": 2066,
      "етраж": 2067,
      "какая": 2068,
      "плох": 2069,
      "няя": 2070,
      "дея": 2071,
      "атмосферу": 2072,
      "запа": 2073,
      "траги": 2074,
      "нести": 2075,
      "ленные": 2076,
      "хро": 2077,
      "er": 2078,
      "убеди": 2079,
      "местами": 2080,
      "помощ": 2081,
      "соответ": 2082,
      "логии": 2083,
      "льта": 2084,
      "претен": 2085,
      "мэ": 2086,
      "появи": 2087,
      "зако": 2088,
      "ждать": 2089,
      "льном": 2090,
      "юмора": 2091,
      "стру": 2092,
      "вныи": 2093,
      "посте": 2094,
      "дво": 2095,
      "рэ": 2096,
      "плюс": 2097,
      "взрослы": 2098,
      "дро": 2099,
      "ческую": 2100,
      "чается": 2101,
      "характер": 2102,
      "япо": 2103,
      "лосо": 2104,
      "уго": 2105,
      "снять": 2106,
      "женщина": 2107,
      "кате": 2108,
      "забо": 2109,
      "внутрен": 2110,
      "чность": 2111,
      "ческое": 2112,
      "ешься": 2113,
      "тю": 2114,
      "пого": 2115,
      "понравилось": 2116,
      "th": 2117,
      "ванием": 2118,
      "деньги": 2119,
      "телем": 2120,
      "хотел": 2121,
      "ценно": 2122,
      "первая": 2123,
      "заставляет": 2124,
      "ниями": 2125,
      "чувству": 2126,
      "одну": 2127,
      "нности": 2128,
      "ети": 2129,
      "друж": 2130,
      "ката": 2131,
      "краине": 2132,
      "вспомни": 2133,
      "переда": 2134,
      "остави": 2135,
      "ани": 2136,
      "состав": 2137,
      "гом": 2138,
      "произо": 2139,
      "иле": 2140,
      "ленныи": 2141,
      "начинается": 2142,
      "мультфильм": 2143,
      "любит": 2144,
      "мастер": 2145,
      "францу": 2146,
      "in": 2147,
      "ющую": 2148,
      "касается": 2149,
      "щем": 2150,
      "рд": 2151,
      "поступ": 2152,
      "участи": 2153,
      "значит": 2154,
      "ведли": 2155,
      "спецэффек": 2156,
      "язы": 2157,
      "тебе": 2158,
      "счасть": 2159,
      "пути": 2160,
      "диало": 2161,
      "гря": 2162,
      "прия": 2163,
      "корот": 2164,
      "бре": 2165,
      "типи": 2166,
      "смерть": 2167,
      "жена": 2168,
      "теа": 2169,
      "отца": 2170,
      "ленных": 2171,
      "актерскии": 2172,
      "самая": 2173,
      "реалисти": 2174,
      "благо": 2175,
      "моз": 2176,
      "вместо": 2177,
      "филосо": 2178,
      "решил": 2179,
      "достоин": 2180,
      "чивается": 2181,
      "эмоциона": 2182,
      "ческим": 2183,
      "любои": 2184,
      "вало": 2185,
      "автор": 2186,
      "нару": 2187,
      "жал": 2188,
      "дере": 2189,
      "выз": 2190,
      "бар": 2191,
      "вном": 2192,
      "хариз": 2193,
      "рица": 2194,
      "боя": 2195,
      "прости": 2196,
      "интересныи": 2197,
      "понравилась": 2198,
      "резу": 2199,
      "подру": 2200,
      "точ": 2201,
      "ктов": 2202,
      "диалоги": 2203,
      "раздо": 2204,
      "семьи": 2205,
      "тради": 2206,
      "всему": 2207,
      "бит": 2208,
      "жут": 2209,
      "разных": 2210,
      "чис": 2211,
      "щает": 2212,
      "голливуд": 2213,
      "колле": 2214,
      "чать": 2215,
      "предыду": 2216,
      "смея": 2217,
      "результа": 2218,
      "парень": 2219,
      "жаль": 2220,
      "сми": 2221,
      "описа": 2222,
      "дется": 2223,
      "англи": 2224,
      "зави": 2225,
      "вызы": 2226,
      "лым": 2227,
      "мисти": 2228,
      "готов": 2229,
      "проек": 2230,
      "нравится": 2231,
      "правля": 2232,
      "просты": 2233,
      "временно": 2234,
      "обычно": 2235,
      "ницы": 2236,
      "специ": 2237,
      "мерт": 2238,
      "типа": 2239,
      "вался": 2240,
      "памя": 2241,
      "ам": 2242,
      "главные": 2243,
      "составля": 2244,
      "воспринима": 2245,
      "буквально": 2246,
      "чение": 2247,
      "рка": 2248,
      "гами": 2249,
      "клады": 2250,
      "нья": 2251,
      "оска": 2252,
      "наблюдать": 2253,
      "альныи": 2254,
      "женщины": 2255,
      "холо": 2256,
      "профессиона": 2257,
      "запомина": 2258,
      "смысле": 2259,
      "странно": 2260,
      "играть": 2261,
      "креп": 2262,
      "отношении": 2263,
      "страда": 2264,
      "фер": 2265,
      "вании": 2266,
      "желание": 2267,
      "считаю": 2268,
      "должны": 2269,
      "беспо": 2270,
      "итог": 2271,
      "сопрово": 2272,
      "хом": 2273,
      "ада": 2274,
      "живу": 2275,
      "воины": 2276,
      "которому": 2277,
      "представля": 2278,
      "снят": 2279,
      "стен": 2280,
      "людям": 2281,
      "леген": 2282,
      "назад": 2283,
      "видела": 2284,
      "дят": 2285,
      "финал": 2286,
      "зрения": 2287,
      "годы": 2288,
      "полицеи": 2289,
      "эпо": 2290,
      "сегод": 2291,
      "задума": 2292,
      "тка": 2293,
      "рон": 2294,
      "нег": 2295,
      "сегодня": 2296,
      "внеш": 2297,
      "психологи": 2298,
      "неуда": 2299,
      "триллер": 2300,
      "лиза": 2301,
      "чными": 2302,
      "неле": 2303,
      "насколько": 2304,
      "ствуют": 2305,
      "молоды": 2306,
      "льную": 2307,
      "данном": 2308,
      "глупо": 2309,
      "должно": 2310,
      "недоста": 2311,
      "гораздо": 2312,
      "кин": 2313,
      "ходить": 2314,
      "другу": 2315,
      "тяги": 2316,
      "кримина": 2317,
      "характе": 2318,
      "костю": 2319,
      "пью": 2320,
      "моментов": 2321,
      "показывает": 2322,
      "девушки": 2323,
      "никаких": 2324,
      "наме": 2325,
      "смог": 2326,
      "!!": 2327,
      "иска": 2328,
      "кур": 2329,
      "глуби": 2330,
      "созна": 2331,
      "случаино": 2332,
      "скольку": 2333,
      "ствии": 2334,
      "хуже": 2335,
      "чает": 2336,
      "сила": 2337,
      "хватает": 2338,
      "деля": 2339,
      "чности": 2340,
      "представи": 2341,
      "изод": 2342,
      "трога": 2343,
      "смысла": 2344,
      "эпизод": 2345,
      "являются": 2346,
      "точки": 2347,
      "закончи": 2348,
      "погру": 2349,
      "снимать": 2350,
      "знакомы": 2351,
      "писы": 2352,
      "ственнои": 2353,
      "другом": 2354,
      "ющими": 2355,
      "мульти": 2356,
      "осозна": 2357,
      "случаи": 2358,
      "рами": 2359,
      "начало": 2360,
      "ити": 2361,
      ".'": 2362,
      "симпати": 2363,
      "просмотру": 2364,
      "крови": 2365,
      "поведе": 2366,
      "an": 2367,
      "борь": 2368,
      "сначала": 2369,
      "полити": 2370,
      "редко": 2371,
      "всеми": 2372,
      "любов": 2373,
      "ar": 2374,
      "дня": 2375,
      "ственная": 2376,
      "некоторых": 2377,
      "поро": 2378,
      "идеально": 2379,
      "моему": 2380,
      "отвра": 2381,
      "мую": 2382,
      "поскольку": 2383,
      "беско": 2384,
      "верси": 2385,
      "принципе": 2386,
      "вида": 2387,
      "отец": 2388,
      "ственным": 2389,
      "охо": 2390,
      "настоящему": 2391,
      "мечта": 2392,
      "возника": 2393,
      "чаи": 2394,
      "молоде": 2395,
      "знамени": 2396,
      "карье": 2397,
      "чения": 2398,
      "чисто": 2399,
      "водит": 2400,
      "взаи": 2401,
      "ньше": 2402,
      "упо": 2403,
      "чудо": 2404,
      "сюже": 2405,
      "наши": 2406,
      "факт": 2407,
      "план": 2408,
      "рро": 2409,
      "актриса": 2410,
      "наоборот": 2411,
      "жил": 2412,
      "цель": 2413,
      "чит": 2414,
      "быстро": 2415,
      "остальные": 2416,
      "жит": 2417,
      "каких": 2418,
      "известно": 2419,
      "посред": 2420,
      "востор": 2421,
      "сторону": 2422,
      "компью": 2423,
      "сериале": 2424,
      "путе": 2425,
      "лить": 2426,
      "увере": 2427,
      "привлека": 2428,
      "дел": 2429,
      "скому": 2430,
      "хода": 2431,
      "название": 2432,
      "речь": 2433,
      "наш": 2434,
      "разные": 2435,
      "кинематографа": 2436,
      "получается": 2437,
      "оказался": 2438,
      "окружа": 2439,
      "художе": 2440,
      "путь": 2441,
      "выда": 2442,
      "виду": 2443,
      "отрица": 2444,
      "итак": 2445,
      "ям": 2446,
      "защи": 2447,
      "хов": 2448,
      "живет": 2449,
      "актерская": 2450,
      "класс": 2451,
      "рри": 2452,
      "исключи": 2453,
      "качестве": 2454,
      "собира": 2455,
      "кл": 2456,
      "мого": 2457,
      "главным": 2458,
      "отве": 2459,
      "пан": 2460,
      "сить": 2461,
      "знакоми": 2462,
      "тин": 2463,
      "определенно": 2464,
      "раньше": 2465,
      "on": 2466,
      "декора": 2467,
      "линии": 2468,
      "насла": 2469,
      "назы": 2470,
      "попро": 2471,
      "данного": 2472,
      "собра": 2473,
      "авторы": 2474,
      "сексу": 2475,
      "окон": 2476,
      "удивительно": 2477,
      "заставля": 2478,
      "рядом": 2479,
      "глаз": 2480,
      "похожи": 2481,
      "нико": 2482,
      "евро": 2483,
      "вышел": 2484,
      "молодои": 2485,
      "звезд": 2486,
      "перво": 2487,
      "вновь": 2488,
      "следует": 2489,
      "макси": 2490,
      "жанр": 2491,
      "ске": 2492,
      "драмы": 2493,
      "рые": 2494,
      "вятся": 2495,
      "уверен": 2496,
      "ственные": 2497,
      "человеком": 2498,
      "лента": 2499,
      "рия": 2500,
      "нным": 2501,
      "невероятно": 2502,
      "новои": 2503,
      "джеим": 2504,
      "вдруг": 2505,
      "настоящии": 2506,
      "хорош": 2507,
      "демонстри": 2508,
      "исключе": 2509,
      "лад": 2510,
      "прежде": 2511,
      "спустя": 2512,
      "мнение": 2513,
      "лож": 2514,
      "пропа": 2515,
      "говорят": 2516,
      "голову": 2517,
      "бом": 2518,
      "героями": 2519,
      "запомни": 2520,
      "откровенно": 2521,
      "лик": 2522,
      "гии": 2523,
      "труд": 2524,
      "друзеи": 2525,
      "компози": 2526,
      "жестоко": 2527,
      "неожида": 2528,
      "мысль": 2529,
      "жо": 2530,
      "раздра": 2531,
      "новые": 2532,
      "просмотр": 2533,
      "золо": 2534,
      "правильно": 2535,
      "гои": 2536,
      "слово": 2537,
      "остро": 2538,
      "бесконе": 2539,
      "дыха": 2540,
      "дия": 2541,
      "чуде": 2542,
      "меньше": 2543,
      "множество": 2544,
      "заня": 2545,
      "лях": 2546,
      "эффект": 2547,
      "нется": 2548,
      "вопросы": 2549,
      "взаимо": 2550,
      "другого": 2551,
      "вряд": 2552,
      "француз": 2553,
      "съемо": 2554,
      "рисо": 2555,
      "тывает": 2556,
      "каждои": 2557,
      "ер": 2558,
      "отра": 2559,
      "тона": 2560,
      "прош": 2561,
      "неожи": 2562,
      "воспо": 2563,
      "право": 2564,
      "кеи": 2565,
      "мощ": 2566,
      "ведливо": 2567,
      "цели": 2568,
      "ступает": 2569,
      "еть": 2570,
      "простои": 2571,
      "сказал": 2572,
      "имени": 2573,
      "стями": 2574,
      "похва": 2575,
      "сил": 2576,
      "попыт": 2577,
      "разуме": 2578,
      "руки": 2579,
      "ошиб": 2580,
      "низ": 2581,
      "чек": 2582,
      "отличныи": 2583,
      "доку": 2584,
      "тельства": 2585,
      "соба": 2586,
      "посмотрел": 2587,
      "ственных": 2588,
      "увы": 2589,
      "бал": 2590,
      "джеи": 2591,
      "века": 2592,
      "мел": 2593,
      "понимаю": 2594,
      "спаса": 2595,
      "кадре": 2596,
      "краса": 2597,
      "шедевр": 2598,
      "ющиися": 2599,
      "сравне": 2600,
      "играют": 2601,
      "разру": 2602,
      "стан": 2603,
      "шикар": 2604,
      "конф": 2605,
      "иро": 2606,
      "преда": 2607,
      "имя": 2608,
      "оли": 2609,
      "шку": 2610,
      "тельную": 2611,
      "разгово": 2612,
      "90": 2613,
      "крова": 2614,
      "гать": 2615,
      "забав": 2616,
      "нарко": 2617,
      "дель": 2618,
      "затяну": 2619,
      "появляется": 2620,
      "води": 2621,
      "использо": 2622,
      "здоро": 2623,
      "оти": 2624,
      "раза": 2625,
      "вар": 2626,
      "докто": 2627,
      "возь": 2628,
      "след": 2629,
      "ственного": 2630,
      "какое": 2631,
      "бур": 2632,
      "ую": 2633,
      "живот": 2634,
      "отда": 2635,
      "манья": 2636,
      "продю": 2637,
      "отзы": 2638,
      "аниме": 2639,
      "жизнью": 2640,
      "201": 2641,
      "00": 2642,
      "дон": 2643,
      "мета": 2644,
      "напоминает": 2645,
      "сравни": 2646,
      "возмож": 2647,
      "рекомендую": 2648,
      "мии": 2649,
      "закан": 2650,
      "стом": 2651,
      "игрои": 2652,
      "другим": 2653,
      "игре": 2654,
      "одновременно": 2655,
      "япон": 2656,
      "стано": 2657,
      "показывают": 2658,
      "физи": 2659,
      "дьми": 2660,
      "ясно": 2661,
      "линия": 2662,
      "смотрела": 2663,
      "емыи": 2664,
      "постав": 2665,
      "речи": 2666,
      "ид": 2667,
      "поколе": 2668,
      "частью": 2669,
      "семья": 2670,
      "енное": 2671,
      "продолжение": 2672,
      "зрелищ": 2673,
      "середи": 2674,
      "шему": 2675,
      "возможность": 2676,
      "скими": 2677,
      "случи": 2678,
      "лого": 2679,
      "затем": 2680,
      "сохра": 2681,
      "англии": 2682,
      "исключительно": 2683,
      "стера": 2684,
      "людьми": 2685,
      "вторая": 2686,
      "зомби": 2687,
      "путеше": 2688,
      "ранее": 2689,
      "еха": 2690,
      "увлека": 2691,
      "обая": 2692,
      "офи": 2693,
      "работ": 2694,
      "никакои": 2695,
      "пафо": 2696,
      "страи": 2697,
      "моя": 2698,
      "порти": 2699,
      "актерскои": 2700,
      "ума": 2701,
      "теи": 2702,
      "отчая": 2703,
      "ствием": 2704,
      "красиво": 2705,
      "фон": 2706,
      "клу": 2707,
      "анима": 2708,
      "ауди": 2709,
      "гам": 2710,
      "приходится": 2711,
      "рассу": 2712,
      "ваясь": 2713,
      "вещи": 2714,
      "сюжетом": 2715,
      "поряд": 2716,
      "превос": 2717,
      "похоже": 2718,
      "шлось": 2719,
      "волше": 2720,
      "эл": 2721,
      "лучшии": 2722,
      "гры": 2723,
      "застави": 2724,
      "саундтрек": 2725,
      "душу": 2726,
      "книги": 2727,
      "мин": 2728,
      "стари": 2729,
      "волшеб": 2730,
      "другое": 2731,
      "детектив": 2732,
      "гне": 2733,
      "поме": 2734,
      "циях": 2735,
      "ребенка": 2736,
      "злодеи": 2737,
      "фри": 2738,
      "спецэффекты": 2739,
      "четы": 2740,
      "лит": 2741,
      "единственныи": 2742,
      "вами": 2743,
      "видео": 2744,
      "снял": 2745,
      "тесь": 2746,
      "видит": 2747,
      "выбра": 2748,
      "st": 2749,
      "боевик": 2750,
      "города": 2751,
      "скоро": 2752,
      "захватыва": 2753,
      "гряз": 2754,
      "должна": 2755,
      "волю": 2756,
      "нач": 2757,
      "крас": 2758,
      "денег": 2759,
      "масшта": 2760,
      "удовольствие": 2761,
      "выбор": 2762,
      "сделал": 2763,
      "стиле": 2764,
      "обстоя": 2765,
      "жением": 2766,
      "сих": 2767,
      "отдельно": 2768,
      "хорро": 2769,
      "нашеи": 2770,
      "стую": 2771,
      "помимо": 2772,
      "вампи": 2773,
      "дем": 2774,
      "бля": 2775,
      "мане": 2776,
      "пересматри": 2777,
      "верить": 2778,
      "какого": 2779,
      "изобра": 2780,
      "заклю": 2781,
      "кса": 2782,
      "жизнен": 2783,
      "вшиися": 2784,
      "пят": 2785,
      "такую": 2786,
      "мужчина": 2787,
      "непри": 2788,
      "нично": 2789,
      "пароди": 2790,
      "шоу": 2791,
      "парня": 2792,
      "кэ": 2793,
      "выс": 2794,
      "re": 2795,
      "крет": 2796,
      "миру": 2797,
      "траге": 2798,
      "отсутствие": 2799,
      "впечатления": 2800,
      "броса": 2801,
      "иди": 2802,
      "лии": 2803,
      "смело": 2804,
      "таком": 2805,
      "шутки": 2806,
      "заслуживает": 2807,
      "театра": 2808,
      "однозначно": 2809,
      "нью": 2810,
      "времен": 2811,
      "круп": 2812,
      "компьютер": 2813,
      "вшим": 2814,
      "альнои": 2815,
      "жают": 2816,
      "слабо": 2817,
      "жены": 2818,
      "концовка": 2819,
      "станда": 2820,
      "глазами": 2821,
      "чувствовать": 2822,
      "дали": 2823,
      "оконча": 2824,
      "ладно": 2825,
      "получилась": 2826,
      "документа": 2827,
      "мум": 2828,
      "?!": 2829,
      "советую": 2830,
      "влия": 2831,
      "могла": 2832,
      "голове": 2833,
      "присутствует": 2834,
      "слови": 2835,
      "проце": 2836,
      "пени": 2837,
      "большая": 2838,
      "анти": 2839,
      "многое": 2840,
      "сви": 2841,
      "секу": 2842,
      "стол": 2843,
      "стандарт": 2844,
      "сопережи": 2845,
      "рин": 2846,
      "вов": 2847,
      "шар": 2848,
      "суть": 2849,
      "дав": 2850,
      "далее": 2851,
      "любить": 2852,
      "нау": 2853,
      "носит": 2854,
      "мед": 2855,
      "видели": 2856,
      "деб": 2857,
      "чии": 2858,
      "нометраж": 2859,
      "en": 2860,
      "ит": 2861,
      "мене": 2862,
      "происходящего": 2863,
      "ссе": 2864,
      "био": 2865,
      "могли": 2866,
      "стране": 2867,
      "четвер": 2868,
      "нево": 2869,
      "последние": 2870,
      "джона": 2871,
      "аудито": 2872,
      "закры": 2873,
      "вались": 2874,
      "ночь": 2875,
      "абсу": 2876,
      "дца": 2877,
      "лое": 2878,
      "момента": 2879,
      "слыша": 2880,
      "ближе": 2881,
      "разы": 2882,
      "тите": 2883,
      "настроение": 2884,
      "взры": 2885,
      "чета": 2886,
      "последнии": 2887,
      "силу": 2888,
      "ета": 2889,
      "рах": 2890,
      "шиз": 2891,
      "молодо": 2892,
      "кем": 2893,
      "однажды": 2894,
      "ита": 2895,
      "пусты": 2896,
      "кат": 2897,
      "сикве": 2898,
      "ждает": 2899,
      "скучно": 2900,
      "экш": 2901,
      "сосе": 2902,
      "чар": 2903,
      "оставляет": 2904,
      "героем": 2905,
      "необходимо": 2906,
      "рассказы": 2907,
      "гают": 2908,
      "лую": 2909,
      "зия": 2910,
      "джек": 2911,
      "ужасти": 2912,
      "проду": 2913,
      "каждая": 2914,
      "стреми": 2915,
      "большинство": 2916,
      "сюжете": 2917,
      "трех": 2918,
      "брю": 2919,
      "таин": 2920,
      "тил": 2921,
      "станет": 2922,
      "нуться": 2923,
      "думал": 2924,
      "воспомина": 2925,
      "глупы": 2926,
      "единственное": 2927,
      "жанре": 2928,
      "повествования": 2929,
      "какую": 2930,
      "жало": 2931,
      "реальности": 2932,
      "темати": 2933,
      "лении": 2934,
      "the": 2935,
      "худож": 2936,
      "неиз": 2937,
      "хозя": 2938,
      "аген": 2939,
      "впервые": 2940,
      "содержа": 2941,
      "работе": 2942,
      "штам": 2943,
      "делают": 2944,
      "постеп": 2945,
      "неожиданно": 2946,
      "доби": 2947,
      "акцен": 2948,
      "систе": 2949,
      "цеп": 2950,
      "внутри": 2951,
      "жест": 2952,
      "солда": 2953,
      "мыи": 2954,
      "полнои": 2955,
      "треиле": 2956,
      "хорошего": 2957,
      "смешно": 2958,
      "большим": 2959,
      "образо": 2960,
      "оружи": 2961,
      "понял": 2962,
      "сп": 2963,
      "рым": 2964,
      "подобных": 2965,
      "красивая": 2966,
      "дныи": 2967,
      "ост": 2968,
      "оказалось": 2969,
      "никакого": 2970,
      "эпи": 2971,
      "рассказывает": 2972,
      "ваешь": 2973,
      "туда": 2974,
      "дал": 2975,
      "мия": 2976,
      "радует": 2977,
      "режиссу": 2978,
      "главную": 2979,
      "пута": 2980,
      "непло": 2981,
      "блестя": 2982,
      "убииства": 2983,
      "воро": 2984,
      "паль": 2985,
      "реша": 2986,
      "ческом": 2987,
      "дух": 2988,
      "сторон": 2989,
      "изнача": 2990,
      "придется": 2991,
      "сына": 2992,
      "шить": 2993,
      "делить": 2994,
      "нику": 2995,
      "испы": 2996,
      "степени": 2997,
      "работать": 2998,
      "пеиза": 2999,
      "получил": 3000,
      "образе": 3001,
      "тако": 3002,
      "рели": 3003,
      "катего": 3004,
      "муд": 3005,
      "опасно": 3006,
      "лок": 3007,
      "жели": 3008,
      "правдо": 3009,
      "создать": 3010,
      "намного": 3011,
      "шут": 3012,
      "80": 3013,
      "тое": 3014,
      "яв": 3015,
      "тую": 3016,
      "новых": 3017,
      "патри": 3018,
      "такими": 3019,
      "вок": 3020,
      "безум": 3021,
      "проект": 3022,
      "хорошая": 3023,
      "вторых": 3024,
      "общества": 3025,
      "хорошее": 3026,
      "пытаются": 3027,
      "вспомина": 3028,
      "увидел": 3029,
      "ненави": 3030,
      "вли": 3031,
      "ун": 3032,
      "доказа": 3033,
      "сценария": 3034,
      "зря": 3035,
      "глазах": 3036,
      "постепенно": 3037,
      "чить": 3038,
      "симво": 3039,
      "понимает": 3040,
      "пари": 3041,
      "второсте": 3042,
      "сделали": 3043,
      "широ": 3044,
      "спор": 3045,
      "короле": 3046,
      "пошло": 3047,
      "культо": 3048,
      "судьба": 3049,
      "детства": 3050,
      "девочка": 3051,
      "берт": 3052,
      "писать": 3053,
      "миллио": 3054,
      "народ": 3055,
      "ленная": 3056,
      "оцени": 3057,
      "мена": 3058,
      "эль": 3059,
      "страх": 3060,
      "новое": 3061,
      "сове": 3062,
      "загадо": 3063,
      "интригу": 3064,
      "образи": 3065,
      "объе": 3066,
      "уо": 3067,
      "съемки": 3068,
      "началу": 3069,
      "ребе": 3070,
      "несколь": 3071,
      "проблем": 3072,
      "подобного": 3073,
      "ющиеся": 3074,
      "нк": 3075,
      "задуматься": 3076,
      "чке": 3077,
      "рекла": 3078,
      "монта": 3079,
      "руко": 3080,
      "льными": 3081,
      "выжи": 3082,
      "представляет": 3083,
      "отличие": 3084,
      "ющихся": 3085,
      "проя": 3086,
      "хорошие": 3087,
      "сможет": 3088,
      "вариан": 3089,
      "смеяться": 3090,
      "силы": 3091,
      "чены": 3092,
      "рецензии": 3093,
      "неплохои": 3094,
      "воина": 3095,
      "выходит": 3096,
      "зап": 3097,
      "которыми": 3098,
      "превосход": 3099,
      "кол": 3100,
      "цом": 3101,
      "ограни": 3102,
      "боро": 3103,
      "скор": 3104,
      "темы": 3105,
      "смотришь": 3106,
      "подроб": 3107,
      "тывая": 3108,
      "внешно": 3109,
      "приро": 3110,
      "сыграла": 3111,
      "испыта": 3112,
      "психи": 3113,
      "рил": 3114,
      "тирова": 3115,
      "уста": 3116,
      "названием": 3117,
      "происходящее": 3118,
      "туры": 3119,
      "кинематографи": 3120,
      "откуда": 3121,
      "последнее": 3122,
      "сна": 3123,
      "стая": 3124,
      "задум": 3125,
      "мани": 3126,
      "решили": 3127,
      "каждом": 3128,
      "отече": 3129,
      "уника": 3130,
      "зов": 3131,
      "отношение": 3132,
      "оде": 3133,
      "публи": 3134,
      "сочета": 3135,
      "поворо": 3136,
      "тныи": 3137,
      "бок": 3138,
      "тыся": 3139,
      "своеобраз": 3140,
      "лам": 3141,
      "пру": 3142,
      "женно": 3143,
      "жешь": 3144,
      "поги": 3145,
      "памяти": 3146,
      "ныне": 3147,
      "нюю": 3148,
      "каждому": 3149,
      "вдох": 3150,
      "философ": 3151,
      "ваи": 3152,
      "франшиз": 3153,
      "сша": 3154,
      "прошлого": 3155,
      "цами": 3156,
      "непонятно": 3157,
      "телеви": 3158,
      "мель": 3159,
      "стях": 3160,
      "сын": 3161,
      "песни": 3162,
      "нул": 3163,
      "ждет": 3164,
      "элемен": 3165,
      "наполне": 3166,
      "получить": 3167,
      "немало": 3168,
      "старо": 3169,
      "большое": 3170,
      "вспомнить": 3171,
      "остальных": 3172,
      "наше": 3173,
      "данная": 3174,
      "днеи": 3175,
      "ному": 3176,
      "восприя": 3177,
      "справедливо": 3178,
      "непонят": 3179,
      "декорации": 3180,
      "сок": 3181,
      "завер": 3182,
      "напра": 3183,
      "кана": 3184,
      "дочь": 3185,
      "произведения": 3186,
      "гон": 3187,
      "вече": 3188,
      "приключения": 3189,
      "al": 3190,
      "дина": 3191,
      "слову": 3192,
      "бол": 3193,
      "человеку": 3194,
      "альная": 3195,
      "деиство": 3196,
      "дки": 3197,
      "образы": 3198,
      "картинка": 3199,
      "бессмыс": 3200,
      "ходу": 3201,
      "оценка": 3202,
      "судьбы": 3203,
      "компании": 3204,
      "осталось": 3205,
      "щет": 3206,
      "лять": 3207,
      "личности": 3208,
      "интересо": 3209,
      "узнать": 3210,
      "лями": 3211,
      "приходит": 3212,
      "сумас": 3213,
      "особы": 3214,
      "краинеи": 3215,
      "телями": 3216,
      "страшно": 3217,
      "руют": 3218,
      "дабы": 3219,
      "нашего": 3220,
      "дис": 3221,
      "мяг": 3222,
      "зла": 3223,
      "валась": 3224,
      "фигу": 3225,
      "точнее": 3226,
      "ведет": 3227,
      "требу": 3228,
      "понимаешь": 3229,
      "моеи": 3230,
      "добрыи": 3231,
      "повествование": 3232,
      "стныи": 3233,
      "днои": 3234,
      "днев": 3235,
      "кажу": 3236,
      "гах": 3237,
      "уэ": 3238,
      "кош": 3239,
      "гармо": 3240,
      "преврати": 3241,
      "способен": 3242,
      "харизмати": 3243,
      "or": 3244,
      "использу": 3245,
      "потра": 3246,
      "нечего": 3247,
      "хан": 3248,
      "услови": 3249,
      "реза": 3250,
      "листи": 3251,
      "противостоя": 3252,
      "основном": 3253,
      "правдоподоб": 3254,
      "знаете": 3255,
      "дальнеи": 3256,
      "посмотрите": 3257,
      "знать": 3258,
      "тельность": 3259,
      "уничто": 3260,
      "упомя": 3261,
      "горо": 3262,
      "кле": 3263,
      "лэ": 3264,
      "укра": 3265,
      "выглядят": 3266,
      "числе": 3267,
      "любимых": 3268,
      "нео": 3269,
      "пить": 3270,
      "тельности": 3271,
      "держит": 3272,
      "жизне": 3273,
      "болез": 3274,
      "лете": 3275,
      "ули": 3276,
      "работает": 3277,
      "понравится": 3278,
      "изначально": 3279,
      "чувств": 3280,
      "джен": 3281,
      "проник": 3282,
      "никами": 3283,
      "вяза": 3284,
      "чик": 3285,
      "успеш": 3286,
      "несомне": 3287,
      "наблюда": 3288,
      "второстепен": 3289,
      "счастье": 3290,
      "уча": 3291,
      "щать": 3292,
      "взять": 3293,
      "брат": 3294,
      "подобра": 3295,
      "ребя": 3296,
      "рию": 3297,
      "оку": 3298,
      "опас": 3299,
      "разумеется": 3300,
      "сюда": 3301,
      "кер": 3302,
      "ностью": 3303,
      "ничем": 3304,
      "черно": 3305,
      "хар": 3306,
      "мнои": 3307,
      "эд": 3308,
      "монст": 3309,
      "тило": 3310,
      "сезона": 3311,
      "валось": 3312,
      "моно": 3313,
      "телен": 3314,
      "соста": 3315,
      "дам": 3316,
      "ального": 3317,
      "внезап": 3318,
      "выбо": 3319,
      "отправля": 3320,
      "ленте": 3321,
      "великолепно": 3322,
      "времена": 3323,
      "доме": 3324,
      "ou": 3325,
      "кен": 3326,
      "воен": 3327,
      "мов": 3328,
      "шель": 3329,
      "сыграли": 3330,
      "размыш": 3331,
      "льности": 3332,
      "живут": 3333,
      "альных": 3334,
      "останови": 3335,
      "робо": 3336,
      "возникает": 3337,
      "ролеи": 3338,
      "сценаристы": 3339,
      "женщин": 3340,
      "смысло": 3341,
      "оты": 3342,
      "мужчины": 3343,
      "никому": 3344,
      "страны": 3345,
      "произведение": 3346,
      "считать": 3347,
      "постави": 3348,
      "помню": 3349,
      "преж": 3350,
      "праз": 3351,
      "биз": 3352,
      "жили": 3353,
      "199": 3354,
      "ото": 3355,
      "ленного": 3356,
      "техни": 3357,
      "наших": 3358,
      "сюжету": 3359,
      "первое": 3360,
      "духе": 3361,
      "тони": 3362,
      "блок": 3363,
      "носи": 3364,
      "режиссеру": 3365,
      "строен": 3366,
      "второго": 3367,
      "выход": 3368,
      "самому": 3369,
      "посы": 3370,
      "!'": 3371,
      "многим": 3372,
      "героям": 3373,
      "поднима": 3374,
      "жур": 3375,
      "оскар": 3376,
      "сцене": 3377,
      "четыре": 3378,
      "ями": 3379,
      "вел": 3380,
      "пришлось": 3381,
      "музыку": 3382,
      "пусто": 3383,
      "жива": 3384,
      "поставить": 3385,
      "пры": 3386,
      "бру": 3387,
      "льность": 3388,
      "пустить": 3389,
      "вил": 3390,
      "поко": 3391,
      "дета": 3392,
      "воло": 3393,
      "непре": 3394,
      "большую": 3395,
      "нную": 3396,
      "зам": 3397,
      "сложи": 3398,
      "ственную": 3399,
      "бь": 3400,
      "ческими": 3401,
      "призра": 3402,
      "мальчик": 3403,
      "оставля": 3404,
      "хотят": 3405,
      "драму": 3406,
      "пользу": 3407,
      "гая": 3408,
      "книгу": 3409,
      "поводу": 3410,
      "влении": 3411,
      ".-": 3412,
      "ярко": 3413,
      "тар": 3414,
      "экранизации": 3415,
      "похож": 3416,
      "хая": 3417,
      "экспе": 3418,
      "мым": 3419,
      "акту": 3420,
      "ус": 3421,
      "начи": 3422,
      "первом": 3423,
      "циями": 3424,
      "снято": 3425,
      "посмотрела": 3426,
      "прочи": 3427,
      "лети": 3428,
      "дни": 3429,
      "паде": 3430,
      "горя": 3431,
      "причина": 3432,
      "альные": 3433,
      "вечно": 3434,
      "стере": 3435,
      "подчер": 3436,
      "деше": 3437,
      "создателеи": 3438,
      "питан": 3439,
      "фф": 3440,
      "нежели": 3441,
      "предло": 3442,
      "представить": 3443,
      "кля": 3444,
      "нец": 3445,
      "герою": 3446,
      "продюсе": 3447,
      "мые": 3448,
      "стает": 3449,
      "решает": 3450,
      "стиль": 3451,
      "мили": 3452,
      "меняется": 3453,
      "уны": 3454,
      "искренне": 3455,
      "демо": 3456,
      "мести": 3457,
      "стрем": 3458,
      "впечатли": 3459,
      "девушку": 3460,
      "тыми": 3461,
      "другому": 3462,
      "умира": 3463,
      "никам": 3464,
      "терпе": 3465,
      "режиссером": 3466,
      "плохои": 3467,
      "душев": 3468,
      "начинают": 3469,
      "развяз": 3470,
      "прост": 3471,
      "многом": 3472,
      "красивые": 3473,
      "поле": 3474,
      "аде": 3475,
      "источ": 3476,
      "поря": 3477,
      "минус": 3478,
      "большеи": 3479,
      "госпо": 3480,
      "несчаст": 3481,
      "гран": 3482,
      "скром": 3483,
      "зав": 3484,
      "эффектов": 3485,
      "посвя": 3486,
      "мужи": 3487,
      "паро": 3488,
      "тельство": 3489,
      "прекрасныи": 3490,
      "будущее": 3491,
      "ужаса": 3492,
      "желания": 3493,
      "грам": 3494,
      "шабло": 3495,
      "спасти": 3496,
      "сезон": 3497,
      "дога": 3498,
      "находится": 3499,
      "надца": 3500,
      "детстве": 3501,
      "показали": 3502,
      "суб": 3503,
      "нако": 3504,
      "гна": 3505,
      "согласи": 3506,
      "передать": 3507,
      "прико": 3508,
      "романа": 3509,
      "чо": 3510,
      "паралле": 3511,
      "ребенок": 3512,
      "горе": 3513,
      "выхода": 3514,
      "родителеи": 3515,
      "звуча": 3516,
      "нося": 3517,
      "щими": 3518,
      "предла": 3519,
      "воды": 3520,
      "тнои": 3521,
      "участ": 3522,
      "рома": 3523,
      "чна": 3524,
      "экшн": 3525,
      "смотрю": 3526,
      "оправда": 3527,
      "интересным": 3528,
      "семье": 3529,
      "вышло": 3530,
      "опыт": 3531,
      "мари": 3532,
      "подра": 3533,
      "биографи": 3534,
      "ницу": 3535,
      "порази": 3536,
      "максима": 3537,
      "наро": 3538,
      "цем": 3539,
      "чудови": 3540,
      "вклю": 3541,
      "вопросов": 3542,
      "ян": 3543,
      "млад": 3544,
      "зер": 3545,
      "сказка": 3546,
      "30": 3547,
      "комна": 3548,
      "образа": 3549,
      "мец": 3550,
      "стности": 3551,
      "подня": 3552,
      "шпи": 3553,
      "тюрь": 3554,
      "поступки": 3555,
      "вшихся": 3556,
      "маикл": 3557,
      "посе": 3558,
      "показал": 3559,
      "помощью": 3560,
      "тать": 3561,
      "бить": 3562,
      "идти": 3563,
      "зирова": 3564,
      "перестре": 3565,
      "слег": 3566,
      "позже": 3567,
      "подобные": 3568,
      "энд": 3569,
      "ваите": 3570,
      "иску": 3571,
      "поиска": 3572,
      "ад": 3573,
      "ала": 3574,
      "настоящая": 3575,
      "качества": 3576,
      "слегка": 3577,
      "минимум": 3578,
      "сре": 3579,
      "здорово": 3580,
      "страха": 3581,
      "50": 3582,
      "нут": 3583,
      "сход": 3584,
      "юмором": 3585,
      "молодеж": 3586,
      "зрители": 3587,
      "!)": 3588,
      "простран": 3589,
      "бет": 3590,
      "живо": 3591,
      "дора": 3592,
      "концу": 3593,
      "щаться": 3594,
      "контра": 3595,
      "верь": 3596,
      "насы": 3597,
      "исче": 3598,
      "емых": 3599,
      "шение": 3600,
      "моих": 3601,
      "остался": 3602,
      "безумно": 3603,
      "серьезно": 3604,
      "ролью": 3605,
      "ио": 3606,
      "боли": 3607,
      "отврати": 3608,
      "подобное": 3609,
      "хотели": 3610,
      "ляют": 3611,
      "кадры": 3612,
      "блокба": 3613,
      "силия": 3614,
      "лка": 3615,
      "стин": 3616,
      "выя": 3617,
      "поки": 3618,
      "детям": 3619,
      "находя": 3620,
      "света": 3621,
      "подходит": 3622,
      "фар": 3623,
      "емые": 3624,
      "пира": 3625,
      "чужи": 3626,
      "любят": 3627,
      "награ": 3628,
      "сверх": 3629,
      "сезо": 3630,
      "сердца": 3631,
      "прочита": 3632,
      "выделя": 3633,
      "одни": 3634,
      "любителям": 3635,
      "вкус": 3636,
      "литера": 3637,
      "лог": 3638,
      "постара": 3639,
      "джор": 3640,
      "хотите": 3641,
      "преду": 3642,
      "полага": 3643,
      "мораль": 3644,
      "шуток": 3645,
      "голос": 3646,
      "хри": 3647,
      "помочь": 3648,
      "at": 3649,
      "искусства": 3650,
      "несет": 3651,
      "творение": 3652,
      "шена": 3653,
      "середине": 3654,
      "попы": 3655,
      "тием": 3656,
      "рэн": 3657,
      "развора": 3658,
      "мужа": 3659,
      "словом": 3660,
      "задумы": 3661,
      "жая": 3662,
      "никого": 3663,
      "любом": 3664,
      "реальность": 3665,
      "оправ": 3666,
      "сценариста": 3667,
      "лон": 3668,
      "характера": 3669,
      "озву": 3670,
      "книге": 3671,
      "играл": 3672,
      "существует": 3673,
      "няка": 3674,
      "чудес": 3675,
      "чкои": 3676,
      "вана": 3677,
      "дами": 3678,
      "прими": 3679,
      "связ": 3680,
      "глубоко": 3681,
      "кадров": 3682,
      "ленным": 3683,
      "деиствии": 3684,
      "экспери": 3685,
      "едва": 3686,
      "чиво": 3687,
      "бель": 3688,
      "трои": 3689,
      "комик": 3690,
      "хорошим": 3691,
      "повторя": 3692,
      "отправи": 3693,
      "удается": 3694,
      "гони": 3695,
      "шан": 3696,
      "супру": 3697,
      "бог": 3698,
      "развития": 3699,
      "нескольких": 3700,
      "спло": 3701,
      "показано": 3702,
      "безы": 3703,
      "вили": 3704,
      "сыграть": 3705,
      "британ": 3706,
      "группы": 3707,
      "могло": 3708,
      "отличается": 3709,
      "зво": 3710,
      "обеща": 3711,
      "теат": 3712,
      "адеква": 3713,
      "гром": 3714,
      "поверх": 3715,
      "мило": 3716,
      "чном": 3717,
      "шеде": 3718,
      "интересное": 3719,
      "продума": 3720,
      "потен": 3721,
      "хие": 3722,
      "иллю": 3723,
      "кту": 3724,
      "энер": 3725,
      "бин": 3726,
      "мнению": 3727,
      "скот": 3728,
      "зию": 3729,
      "миха": 3730,
      "море": 3731,
      "дура": 3732,
      "добра": 3733,
      "участием": 3734,
      "историеи": 3735,
      "другими": 3736,
      "эро": 3737,
      "последних": 3738,
      "интелле": 3739,
      "навсегда": 3740,
      "грамо": 3741,
      "несомненно": 3742,
      "завора": 3743,
      "интересная": 3744,
      "экрана": 3745,
      "будучи": 3746,
      "держать": 3747,
      "ваю": 3748,
      "le": 3749,
      "нду": 3750,
      "рассказа": 3751,
      "элемента": 3752,
      "нака": 3753,
      "ченно": 3754,
      "вызывают": 3755,
      "зор": 3756,
      "известныи": 3757,
      "арт": 3758,
      "препод": 3759,
      "любого": 3760,
      "детали": 3761,
      "массо": 3762,
      "товари": 3763,
      "свер": 3764,
      "знают": 3765,
      "ктив": 3766,
      "идею": 3767,
      "отор": 3768,
      "огромное": 3769,
      "наркоти": 3770,
      "создает": 3771,
      "персонажами": 3772,
      "потре": 3773,
      "операторская": 3774,
      "подозре": 3775,
      "равнодуш": 3776,
      "госу": 3777,
      "почита": 3778,
      "слабы": 3779,
      "роберт": 3780,
      "форме": 3781,
      "основнои": 3782,
      "привле": 3783,
      "учитывая": 3784,
      "дка": 3785,
      "словами": 3786,
      "личность": 3787,
      "нос": 3788,
      "луа": 3789,
      "отличная": 3790,
      "чны": 3791,
      "цве": 3792,
      "снить": 3793,
      "позволяет": 3794,
      "красави": 3795,
      "жки": 3796,
      "посмотрев": 3797,
      "вшегося": 3798,
      "связи": 3799,
      "рэи": 3800,
      "зрителям": 3801,
      "водя": 3802,
      "цвета": 3803,
      "стить": 3804,
      "уровень": 3805,
      "сюр": 3806,
      "тихо": 3807,
      "крат": 3808,
      "объеди": 3809,
      "руку": 3810,
      "стива": 3811,
      "ужасно": 3812,
      "атмосфер": 3813,
      "масштаб": 3814,
      "решила": 3815,
      "результате": 3816,
      "фии": 3817,
      "городе": 3818,
      "временем": 3819,
      "натура": 3820,
      "инои": 3821,
      "музыки": 3822,
      "ощущения": 3823,
      "собственнои": 3824,
      "нан": 3825,
      "оценку": 3826,
      "рика": 3827,
      "анге": 3828,
      "новая": 3829,
      "ственности": 3830,
      "производ": 3831,
      "лишен": 3832,
      "бэт": 3833,
      "отсы": 3834,
      "тяжело": 3835,
      "забыть": 3836,
      "пригла": 3837,
      "любовью": 3838,
      "воине": 3839,
      "сва": 3840,
      "оне": 3841,
      "искать": 3842,
      "семью": 3843,
      "полняет": 3844,
      "зача": 3845,
      "десяти": 3846,
      "инди": 3847,
      "тягивает": 3848,
      "идут": 3849,
      "неприят": 3850,
      "дове": 3851,
      "настоящее": 3852,
      "комедию": 3853,
      "моби": 3854,
      "заце": 3855,
      "очевидно": 3856,
      "заинтересо": 3857,
      "хороших": 3858,
      "мости": 3859,
      "чтоб": 3860,
      "умеет": 3861,
      "большие": 3862,
      "мура": 3863,
      "отме": 3864,
      "вина": 3865,
      "переживания": 3866,
      "емся": 3867,
      "ждал": 3868,
      "тивно": 3869,
      "маленькии": 3870,
      "кает": 3871,
      "жается": 3872,
      "многочис": 3873,
      "спек": 3874,
      "полюби": 3875,
      "первым": 3876,
      "минуты": 3877,
      "блу": 3878,
      "чрез": 3879,
      "геи": 3880,
      "режиссеров": 3881,
      "справился": 3882,
      "дного": 3883,
      "мама": 3884,
      "соеди": 3885,
      "честве": 3886,
      "сумасшед": 3887,
      "интересен": 3888,
      "государ": 3889,
      "пье": 3890,
      "информа": 3891,
      "высоко": 3892,
      "самим": 3893,
      "кровь": 3894,
      "плен": 3895,
      "вырази": 3896,
      "неожидан": 3897,
      "заканчи": 3898,
      "начинаешь": 3899,
      "четко": 3900,
      "годов": 3901,
      "ряда": 3902,
      "дных": 3903,
      "тельными": 3904,
      "чаще": 3905,
      "сущ": 3906,
      "нения": 3907,
      "тывать": 3908,
      "наиболее": 3909,
      "нин": 3910,
      "начиная": 3911,
      "лд": 3912,
      "эст": 3913,
      "находит": 3914,
      "заметить": 3915,
      "вынуж": 3916,
      "сах": 3917,
      "отношениях": 3918,
      "ственность": 3919,
      "произошло": 3920,
      "душа": 3921,
      "стату": 3922,
      "музыкальное": 3923,
      "бая": 3924,
      "попадает": 3925,
      "убить": 3926,
      "нега": 3927,
      "очевид": 3928,
      "реальнои": 3929,
      "актрисы": 3930,
      "катастро": 3931,
      "европеи": 3932,
      "аи": 3933,
      "показаны": 3934,
      "правду": 3935,
      "15": 3936,
      "лыми": 3937,
      "студии": 3938,
      "поначалу": 3939,
      "купа": 3940,
      "няет": 3941,
      "нностью": 3942,
      "пес": 3943,
      "альным": 3944,
      "большого": 3945,
      "потенци": 3946,
      "прием": 3947,
      "ленную": 3948,
      "плака": 3949,
      "техно": 3950,
      "дур": 3951,
      "брата": 3952,
      "фин": 3953,
      "женныи": 3954,
      "космо": 3955,
      "звучит": 3956,
      "верно": 3957,
      "свете": 3958,
      "вато": 3959,
      "тельна": 3960,
      "претензии": 3961,
      "вающии": 3962,
      "шедевра": 3963,
      "мах": 3964,
      "емои": 3965,
      "смогли": 3966,
      "пересматривать": 3967,
      "любя": 3968,
      "сильнее": 3969,
      "веду": 3970,
      "измене": 3971,
      "мых": 3972,
      "гал": 3973,
      "санд": 3974,
      "удачно": 3975,
      "примерно": 3976,
      "нят": 3977,
      "схо": 3978,
      "ливо": 3979,
      "дья": 3980,
      "суро": 3981,
      "ющегося": 3982,
      "дова": 3983,
      "развитие": 3984,
      "коротком": 3985,
      "тили": 3986,
      "мент": 3987,
      "ими": 3988,
      "сопровождение": 3989,
      "актерами": 3990,
      "замечательныи": 3991,
      "лес": 3992,
      "прошлое": 3993,
      "станов": 3994,
      "надое": 3995,
      "ченныи": 3996,
      "банди": 3997,
      "становятся": 3998,
      "каз": 3999,
      "шер": 4000,
      "ожидал": 4001,
      "молодого": 4002,
      "злодея": 4003,
      "развлека": 4004,
      "вера": 4005,
      "красивыи": 4006,
      "каждым": 4007,
      "смерт": 4008,
      "хватило": 4009,
      "нными": 4010,
      "самую": 4011,
      "ющем": 4012,
      "лена": 4013,
      "склады": 4014,
      "недавно": 4015,
      "вич": 4016,
      "уто": 4017,
      "умер": 4018,
      "исте": 4019,
      "послу": 4020,
      "наверняка": 4021,
      "песня": 4022,
      "сия": 4023,
      "понравились": 4024,
      "чувствуется": 4025,
      "хол": 4026,
      "ната": 4027,
      "el": 4028,
      "титься": 4029,
      "хороши": 4030,
      "спокоино": 4031,
      "расследо": 4032,
      "фаль": 4033,
      "чест": 4034,
      "родители": 4035,
      "колорит": 4036,
      "попыта": 4037,
      "кнов": 4038,
      "новую": 4039,
      "вижу": 4040,
      "солн": 4041,
      "научи": 4042,
      "противоречи": 4043,
      "чур": 4044,
      "тома": 4045,
      "начать": 4046,
      "называ": 4047,
      "вес": 4048,
      "начал": 4049,
      "трэ": 4050,
      "центра": 4051,
      "помощи": 4052,
      "берг": 4053,
      "фут": 4054,
      "копи": 4055,
      "кадра": 4056,
      "насе": 4057,
      "сум": 4058,
      "изба": 4059,
      "уми": 4060,
      "думы": 4061,
      "исключением": 4062,
      "спасе": 4063,
      "изменить": 4064,
      "вероят": 4065,
      "успех": 4066,
      "возможности": 4067,
      "полныи": 4068,
      "интересные": 4069,
      "последнего": 4070,
      "руется": 4071,
      "удивля": 4072,
      "наслажда": 4073,
      "попытка": 4074,
      "эр": 4075,
      "пау": 4076,
      "мечты": 4077,
      "ребята": 4078,
      "любы": 4079,
      "индии": 4080,
      "хорошеи": 4081,
      "вс": 4082,
      "уилья": 4083,
      "веи": 4084,
      "джеимс": 4085,
      "иор": 4086,
      "последу": 4087,
      "решение": 4088,
      "60": 4089,
      "пись": 4090,
      "разобра": 4091,
      "помогает": 4092,
      "сцену": 4093,
      "относится": 4094,
      "экранизация": 4095,
      "рожде": 4096,
      "будем": 4097,
      "вывод": 4098,
      "девочки": 4099,
      "дные": 4100,
      "бежать": 4101,
      "худ": 4102,
      "мертве": 4103,
      "вообра": 4104,
      "мут": 4105,
      "ляется": 4106,
      "чужо": 4107,
      "моро": 4108,
      "замечательно": 4109,
      "фильмам": 4110,
      "револю": 4111,
      "вышла": 4112,
      "возник": 4113,
      "неж": 4114,
      "надеюсь": 4115,
      "нит": 4116,
      "показана": 4117,
      "работои": 4118,
      "чении": 4119,
      "ожидания": 4120,
      "часов": 4121,
      "емого": 4122,
      "гие": 4123,
      "говорил": 4124,
      "отлича": 4125,
      "лер": 4126,
      "транс": 4127,
      "увидела": 4128,
      "выполне": 4129,
      "лем": 4130,
      "100": 4131,
      "ъе": 4132,
      "земле": 4133,
      "поп": 4134,
      "шения": 4135,
      "лиз": 4136,
      "обычныи": 4137,
      "наив": 4138,
      "экран": 4139,
      "зерка": 4140,
      "ситуация": 4141,
      "вшиеся": 4142,
      "имеют": 4143,
      "оказалась": 4144,
      "достоино": 4145,
      "выделить": 4146,
      "фраза": 4147,
      "бабу": 4148,
      "двое": 4149,
      "двадца": 4150,
      "шке": 4151,
      "подтвер": 4152,
      "американского": 4153,
      "кварти": 4154,
      "шанс": 4155,
      "уровня": 4156,
      "знал": 4157,
      "взросле": 4158,
      "вшую": 4159,
      "мю": 4160,
      "син": 4161,
      "неоднозна": 4162,
      "капита": 4163,
      "меняет": 4164,
      "другая": 4165,
      "любопыт": 4166,
      "марти": 4167,
      "is": 4168,
      "концеп": 4169,
      "реальных": 4170,
      "убииство": 4171,
      "слезы": 4172,
      "религи": 4173,
      "сор": 4174,
      "ох": 4175,
      "бун": 4176,
      "эли": 4177,
      "дор": 4178,
      "нули": 4179,
      "поверить": 4180,
      "повтори": 4181,
      "молодых": 4182,
      "экшен": 4183,
      "серия": 4184,
      "дона": 4185,
      "поведение": 4186,
      "щик": 4187,
      "настоящеи": 4188,
      "качественно": 4189,
      "кнуть": 4190,
      "рыв": 4191,
      "сценарист": 4192,
      "сел": 4193,
      "прибли": 4194,
      "каком": 4195,
      "щении": 4196,
      "угодно": 4197,
      "сталь": 4198,
      "удовольствием": 4199,
      "подумать": 4200,
      "вперед": 4201,
      "сюжетные": 4202,
      "угро": 4203,
      "ого": 4204,
      "пья": 4205,
      "съемок": 4206,
      "берет": 4207,
      "назна": 4208,
      "общего": 4209,
      "тет": 4210,
      "запу": 4211,
      "шаг": 4212,
      "мультфильма": 4213,
      "лицом": 4214,
      "меся": 4215,
      "пал": 4216,
      "известных": 4217,
      "напомни": 4218,
      "ах": 4219,
      "утвер": 4220,
      "рят": 4221,
      "триллера": 4222,
      "устрои": 4223,
      "веришь": 4224,
      "реб": 4225,
      "секрет": 4226,
      "незави": 4227,
      "шит": 4228,
      "поняла": 4229,
      "получает": 4230,
      "довать": 4231,
      "прове": 4232,
      "нному": 4233,
      "мур": 4234,
      "молча": 4235,
      "показалось": 4236,
      "12": 4237,
      "тации": 4238,
      "успеха": 4239,
      "тим": 4240,
      "рик": 4241,
      "точку": 4242,
      "вселеннои": 4243,
      "ои": 4244,
      "заве": 4245,
      "жден": 4246,
      "выбира": 4247,
      "уро": 4248,
      "тагони": 4249,
      "мето": 4250,
      "сериалов": 4251,
      "увле": 4252,
      "нице": 4253,
      "слав": 4254,
      "маги": 4255,
      "обнару": 4256,
      "цита": 4257,
      "современного": 4258,
      "спецэффектов": 4259,
      "ванныи": 4260,
      "остальное": 4261,
      "ктор": 4262,
      "независи": 4263,
      "трю": 4264,
      "создателям": 4265,
      "воспоминания": 4266,
      "тупо": 4267,
      "диалогов": 4268,
      "самостоя": 4269,
      "настоящего": 4270,
      "излиш": 4271,
      "непосред": 4272,
      "сильныи": 4273,
      "находи": 4274,
      "сот": 4275,
      "ходе": 4276,
      "новым": 4277,
      "воспита": 4278,
      "противополо": 4279,
      "легендар": 4280,
      "руках": 4281,
      "яркии": 4282,
      "уз": 4283,
      "нике": 4284,
      "ремеи": 4285,
      "покали": 4286,
      "вернуться": 4287,
      "вшеися": 4288,
      "упор": 4289,
      "эго": 4290,
      "большом": 4291,
      "финале": 4292,
      "ющаяся": 4293,
      "тело": 4294,
      "тли": 4295,
      "проходит": 4296,
      "сюжетных": 4297,
      "одинако": 4298,
      "превращается": 4299,
      "счастья": 4300,
      "анна": 4301,
      "подви": 4302,
      "студен": 4303,
      "выпу": 4304,
      "костюмы": 4305,
      "экс": 4306,
      "прези": 4307,
      "сказки": 4308,
      "режиссеры": 4309,
      "франшизы": 4310,
      "номина": 4311,
      "двумя": 4312,
      "деиству": 4313,
      "диться": 4314,
      "мирова": 4315,
      "вза": 4316,
      "упомина": 4317,
      "италья": 4318,
      "мими": 4319,
      "петь": 4320,
      "доче": 4321,
      "198": 4322,
      "долла": 4323,
      "говорится": 4324,
      "показаться": 4325,
      "всяких": 4326,
      "смешнои": 4327,
      "рк": 4328,
      "национа": 4329,
      "последнеи": 4330,
      "кси": 4331,
      "неплох": 4332,
      "охот": 4333,
      "судя": 4334,
      "думала": 4335,
      "мальчика": 4336,
      "замы": 4337,
      "запре": 4338,
      "обви": 4339,
      "героиню": 4340,
      "ас": 4341,
      "вечер": 4342,
      "принять": 4343,
      "чок": 4344,
      "цело": 4345,
      "лучшая": 4346,
      "написать": 4347,
      "утра": 4348,
      "внезапно": 4349,
      "ниц": 4350,
      "кинематографе": 4351,
      "предо": 4352,
      "вынужден": 4353,
      "ленту": 4354,
      "кта": 4355,
      "бред": 4356,
      "гениально": 4357,
      "нужен": 4358,
      "сие": 4359,
      "фре": 4360,
      "приобре": 4361,
      "американских": 4362,
      "наверно": 4363,
      "американскии": 4364,
      "влюби": 4365,
      "обили": 4366,
      "прекрасная": 4367,
      "прописа": 4368,
      "характеры": 4369,
      "совершен": 4370,
      "неудач": 4371,
      "сет": 4372,
      "ситуацию": 4373,
      "короткометраж": 4374,
      "ссы": 4375,
      "кинематограф": 4376,
      "чика": 4377,
      "ницеи": 4378,
      "пит": 4379,
      "будущего": 4380,
      "миром": 4381,
      "вность": 4382,
      "?'": 4383,
      "попытки": 4384,
      "завяз": 4385,
      "носталь": 4386,
      "пресси": 4387,
      "версии": 4388,
      "ера": 4389,
      "немец": 4390,
      "полнометраж": 4391,
      "отню": 4392,
      "дера": 4393,
      "закру": 4394,
      "сюжетная": 4395,
      "оценить": 4396,
      "ждается": 4397,
      "рассматри": 4398,
      "отнюдь": 4399,
      "служ": 4400,
      "ставлю": 4401,
      "хру": 4402,
      "группа": 4403,
      "дным": 4404,
      "хороша": 4405,
      "мье": 4406,
      "последствии": 4407,
      "своя": 4408,
      "смогла": 4409,
      "остались": 4410,
      "13": 4411,
      "дне": 4412,
      "лоу": 4413,
      "кристо": 4414,
      "имеем": 4415,
      "обстанов": 4416,
      "бую": 4417,
      "традицион": 4418,
      "везде": 4419,
      "останется": 4420,
      "лиц": 4421,
      "руя": 4422,
      "пля": 4423,
      "прода": 4424,
      "относительно": 4425,
      "прошлом": 4426,
      "ничто": 4427,
      "примеча": 4428,
      "никола": 4429,
      "отказа": 4430,
      "примеру": 4431,
      "ровно": 4432,
      "шься": 4433,
      "ковои": 4434,
      "дится": 4435,
      "ровал": 4436,
      "абсур": 4437,
      "терро": 4438,
      "кадр": 4439,
      "обстоятельства": 4440,
      "случилось": 4441,
      "лежит": 4442,
      "древ": 4443,
      "изю": 4444,
      "преле": 4445,
      "приятного": 4446,
      "хле": 4447,
      "двига": 4448,
      "третии": 4449,
      "мировои": 4450,
      "обма": 4451,
      "влением": 4452,
      "высоте": 4453,
      "иск": 4454,
      "настоящим": 4455,
      "воль": 4456,
      "ниеи": 4457,
      "понимать": 4458,
      "емым": 4459,
      "женные": 4460,
      "берта": 4461,
      "('": 4462,
      "шет": 4463,
      "влена": 4464,
      "людях": 4465,
      "дочери": 4466,
      "двои": 4467,
      "говорю": 4468,
      "возраста": 4469,
      "умуд": 4470,
      "скажем": 4471,
      "рассказать": 4472,
      "груст": 4473,
      "фантазии": 4474,
      "доктор": 4475,
      "чел": 4476,
      "власти": 4477,
      "любимыи": 4478,
      "итальян": 4479,
      "заключается": 4480,
      "торо": 4481,
      "здра": 4482,
      "общество": 4483,
      "жила": 4484,
      "поим": 4485,
      "кали": 4486,
      "человеческои": 4487,
      "началь": 4488,
      "слез": 4489,
      "дэвид": 4490,
      "me": 4491,
      "знаем": 4492,
      "экранного": 4493,
      "мг": 4494,
      "органи": 4495,
      "взрослых": 4496,
      "целью": 4497,
      "интереснее": 4498,
      "самих": 4499,
      "сделано": 4500,
      "предсказуемо": 4501,
      "убедительно": 4502,
      "пафос": 4503,
      "оре": 4504,
      "алкого": 4505,
      "откровен": 4506,
      "изобре": 4507,
      "хотела": 4508,
      "!!!": 4509,
      "40": 4510,
      "секс": 4511,
      "облада": 4512,
      "мозг": 4513,
      "зачастую": 4514,
      "вит": 4515,
      "нять": 4516,
      "джеки": 4517,
      "нужны": 4518,
      "ваны": 4519,
      "лами": 4520,
      "мат": 4521,
      "язык": 4522,
      "маикла": 4523,
      "благород": 4524,
      "тепло": 4525,
      "школе": 4526,
      "развле": 4527,
      "папа": 4528,
      "улыба": 4529,
      "сценаристов": 4530,
      "арти": 4531,
      "обсу": 4532,
      "сомнения": 4533,
      "эстети": 4534,
      "боже": 4535,
      "звезда": 4536,
      "пеизажи": 4537,
      "проще": 4538,
      "сталки": 4539,
      "злоде": 4540,
      "it": 4541,
      "емая": 4542,
      "быва": 4543,
      "рассказ": 4544,
      "творчество": 4545,
      "надежды": 4546,
      "мужчин": 4547,
      "любитель": 4548,
      "получится": 4549,
      "монтаж": 4550,
      "празд": 4551,
      "70": 4552,
      "частности": 4553,
      "сказы": 4554,
      "ранти": 4555,
      "сравнивать": 4556,
      "as": 4557,
      "добавить": 4558,
      "домои": 4559,
      "честь": 4560,
      "ура": 4561,
      "выро": 4562,
      "прокат": 4563,
      "страсти": 4564,
      "приходи": 4565,
      "ролях": 4566,
      "одному": 4567,
      "небольшои": 4568,
      "тельств": 4569,
      "конфли": 4570,
      "саму": 4571,
      "ющеися": 4572,
      "пош": 4573,
      "интересных": 4574,
      "безупре": 4575,
      "вена": 4576,
      "верю": 4577,
      "автора": 4578,
      "зая": 4579,
      "надея": 4580,
      "жено": 4581,
      "американскои": 4582,
      "сквозь": 4583,
      "продолжения": 4584,
      "способно": 4585,
      "память": 4586,
      "лучшее": 4587,
      "возраст": 4588,
      "говари": 4589,
      "вернуть": 4590,
      "миллионов": 4591,
      "экраны": 4592,
      "смотрит": 4593,
      "поити": 4594,
      "увели": 4595,
      "некии": 4596,
      "будущем": 4597,
      "школь": 4598,
      "дах": 4599,
      "какими": 4600,
      "голу": 4601,
      "джонни": 4602,
      "жалко": 4603,
      "ужели": 4604,
      "мотива": 4605,
      "нки": 4606,
      "уга": 4607,
      "кано": 4608,
      "стоят": 4609,
      "поздно": 4610,
      "возрасте": 4611,
      "бби": 4612,
      "тная": 4613,
      "дается": 4614,
      "чера": 4615,
      "яркие": 4616,
      "смех": 4617,
      "медленно": 4618,
      "пожале": 4619,
      "груз": 4620,
      "появление": 4621,
      "оке": 4622,
      "атмосферы": 4623,
      "другую": 4624,
      "твори": 4625,
      "смотрятся": 4626,
      "порадовал": 4627,
      "денно": 4628,
      "тится": 4629,
      "цени": 4630,
      "плана": 4631,
      "решения": 4632,
      "известного": 4633,
      "окончательно": 4634,
      "тинг": 4635,
      "забавно": 4636,
      "полтора": 4637,
      "ro": 4638,
      "беру": 4639,
      "...'": 4640,
      "подростков": 4641,
      "неужели": 4642,
      "ланд": 4643,
      "вскоре": 4644,
      "яко": 4645,
      "проработа": 4646,
      "дил": 4647,
      "шают": 4648,
      "нашел": 4649,
      "эпизодов": 4650,
      "дная": 4651,
      "оператора": 4652,
      "фир": 4653,
      "недостат": 4654,
      "духа": 4655,
      "легкии": 4656,
      "современных": 4657,
      "убиица": 4658,
      "положительные": 4659,
      "движения": 4660,
      "ниже": 4661,
      "вному": 4662,
      "стоило": 4663,
      "создания": 4664,
      "атмосферои": 4665,
      "центре": 4666,
      "фотогра": 4667,
      "жнои": 4668,
      "период": 4669,
      "обладает": 4670,
      "предстоит": 4671,
      "настоящие": 4672,
      "половину": 4673,
      "разби": 4674,
      "туре": 4675,
      "дино": 4676,
      "саи": 4677,
      "требо": 4678,
      "категории": 4679,
      "взросло": 4680,
      "реак": 4681,
      "эпизоды": 4682,
      "одо": 4683,
      "девушек": 4684,
      "энни": 4685,
      "неповтори": 4686,
      "il": 4687,
      "дное": 4688,
      "косми": 4689,
      "положительных": 4690,
      "придума": 4691,
      "свидете": 4692,
      "обои": 4693,
      "характери": 4694,
      "фестива": 4695,
      "уважа": 4696,
      "описы": 4697,
      "старе": 4698,
      "гут": 4699,
      "состоянии": 4700,
      "живых": 4701,
      "мона": 4702,
      "круто": 4703,
      "русскии": 4704,
      "ченных": 4705,
      "женных": 4706,
      "кристи": 4707,
      "женщину": 4708,
      "изюмин": 4709,
      "эда": 4710,
      "участие": 4711,
      "черт": 4712,
      "програм": 4713,
      "китаи": 4714,
      "прочь": 4715,
      "бэ": 4716,
      "предыдущих": 4717,
      "шоки": 4718,
      "несу": 4719,
      "зрелище": 4720,
      "позитив": 4721,
      "хоррор": 4722,
      "представ": 4723,
      "зировать": 4724,
      "ценности": 4725,
      "намере": 4726,
      "мость": 4727,
      "нынеш": 4728,
      "головои": 4729,
      "иметь": 4730,
      "александ": 4731,
      "состоит": 4732,
      "пое": 4733,
      "земли": 4734,
      "критики": 4735,
      "понимание": 4736,
      "журнали": 4737,
      "муже": 4738,
      "красивои": 4739,
      "умение": 4740,
      "сопереживать": 4741,
      "различных": 4742,
      "минусы": 4743,
      "долларов": 4744,
      "ав": 4745,
      "максимально": 4746,
      "гну": 4747,
      "вности": 4748,
      "проекта": 4749,
      "видишь": 4750,
      "дыхании": 4751,
      "ева": 4752,
      "устраи": 4753,
      "дебют": 4754,
      "премье": 4755,
      "переме": 4756,
      "похи": 4757,
      "подходя": 4758,
      "трилогии": 4759,
      "итесь": 4760,
      "приключении": 4761,
      "сюжетнои": 4762,
      "создал": 4763,
      "сценах": 4764,
      "дох": 4765,
      "терри": 4766,
      "ждении": 4767,
      "природы": 4768,
      "заметно": 4769,
      "спро": 4770,
      "пробу": 4771,
      "можем": 4772,
      "бон": 4773,
      "езжает": 4774,
      "объяснить": 4775,
      "ic": 4776,
      "псе": 4777,
      "эми": 4778,
      "фрэн": 4779,
      "огромныи": 4780,
      "попросту": 4781,
      "lo": 4782,
      "пожи": 4783,
      "данную": 4784,
      "ченного": 4785,
      "лока": 4786,
      "горь": 4787,
      "шкои": 4788,
      "следова": 4789,
      "остаться": 4790,
      "пытаясь": 4791,
      "событиях": 4792,
      "человеке": 4793,
      "щают": 4794,
      "мера": 4795,
      "разнообраз": 4796,
      "рисов": 4797,
      "зная": 4798,
      "даи": 4799,
      "серию": 4800,
      "шои": 4801,
      "эпохи": 4802,
      "чле": 4803,
      "видите": 4804,
      "клад": 4805,
      "впечатля": 4806,
      "невольно": 4807,
      "каждую": 4808,
      "рассла": 4809,
      "остальном": 4810,
      "стилисти": 4811,
      "сыпа": 4812,
      "новение": 4813,
      "адре": 4814,
      "прокате": 4815,
      "усили": 4816,
      "бора": 4817,
      "схва": 4818,
      "нелепы": 4819,
      "летво": 4820,
      "большего": 4821,
      "автомоби": 4822,
      "мэт": 4823,
      "сказано": 4824,
      "старается": 4825,
      "зацепи": 4826,
      "роско": 4827,
      "перечис": 4828,
      "тела": 4829,
      "тонко": 4830,
      "ванные": 4831,
      "основная": 4832,
      "сою": 4833,
      "желез": 4834,
      "жену": 4835,
      "актерам": 4836,
      "ожидать": 4837,
      "марк": 4838,
      "подража": 4839,
      "сосед": 4840,
      "зок": 4841,
      "пускает": 4842,
      "ода": 4843,
      "тически": 4844,
      "наша": 4845,
      "ченные": 4846,
      "качество": 4847,
      "причине": 4848,
      "нужна": 4849,
      "присутствуют": 4850,
      "сму": 4851,
      "даваите": 4852,
      "ющимся": 4853,
      "оставить": 4854,
      "дружба": 4855,
      "готовы": 4856,
      "доров": 4857,
      "дует": 4858,
      "знаешь": 4859,
      "юно": 4860,
      "любимои": 4861,
      "актерского": 4862,
      "эроти": 4863,
      "споиле": 4864,
      "приве": 4865,
      "сует": 4866,
      "форму": 4867,
      "ива": 4868,
      "эко": 4869,
      "книга": 4870,
      "десять": 4871,
      "учитель": 4872,
      "боевика": 4873,
      "прова": 4874,
      "тного": 4875,
      "славу": 4876,
      "нка": 4877,
      "фраз": 4878,
      "данное": 4879,
      "слуша": 4880,
      "напряжении": 4881,
      "десят": 4882,
      "нормально": 4883,
      "номер": 4884,
      "упомяну": 4885,
      "мультик": 4886,
      "обеспе": 4887,
      "пости": 4888,
      "рецензию": 4889,
      "душои": 4890,
      "довлетво": 4891,
      "заставляют": 4892,
      "старыи": 4893,
      "персонажем": 4894,
      "внешне": 4895,
      "суме": 4896,
      "сравнению": 4897,
      "сэм": 4898,
      "фэн": 4899,
      "ставит": 4900,
      "хозяи": 4901,
      "кула": 4902,
      "зову": 4903,
      "признать": 4904,
      "обита": 4905,
      "кинотеат": 4906,
      "остаются": 4907,
      "оказались": 4908,
      "лучшего": 4909,
      "помощь": 4910,
      "лент": 4911,
      "воспринимать": 4912,
      "рем": 4913,
      "ствовать": 4914,
      "просмотром": 4915,
      "камера": 4916,
      "браво": 4917,
      "оставил": 4918,
      "больно": 4919,
      "мс": 4920,
      "домаш": 4921,
      "гала": 4922,
      "заканчивается": 4923,
      "жив": 4924,
      "писатель": 4925,
      "фильмами": 4926,
      "хит": 4927,
      "особенности": 4928,
      "продолжает": 4929,
      "огра": 4930,
      "полное": 4931,
      "лучшие": 4932,
      "плюсы": 4933,
      "испорти": 4934,
      "разум": 4935,
      "постановка": 4936,
      "ака": 4937,
      "мсти": 4938,
      "спен": 4939,
      "правди": 4940,
      "прям": 4941,
      "головы": 4942,
      "мены": 4943,
      "школы": 4944,
      "способны": 4945,
      "текст": 4946,
      "меру": 4947,
      "андре": 4948,
      "планы": 4949,
      "подоби": 4950,
      "близких": 4951,
      "лина": 4952,
      "специально": 4953,
      "воину": 4954,
      "понимания": 4955,
      "друзьями": 4956,
      "жка": 4957,
      "ир": 4958,
      "сотруд": 4959,
      "тина": 4960,
      "щаются": 4961,
      "рек": 4962,
      "боевиков": 4963,
      "снимает": 4964,
      "пост": 4965,
      "основа": 4966,
      "команда": 4967,
      "братьев": 4968,
      "куп": 4969,
      "сделан": 4970,
      "искусство": 4971,
      "ллер": 4972,
      "поез": 4973,
      "меха": 4974,
      "гении": 4975,
      "жанро": 4976,
      "клише": 4977,
      "жныи": 4978,
      "талки": 4979,
      "права": 4980,
      "позволи": 4981,
      "бороться": 4982,
      "кажутся": 4983,
      "зака": 4984,
      "фили": 4985,
      "трево": 4986,
      "зрителем": 4987,
      "чено": 4988,
      "падает": 4989,
      "лучшим": 4990,
      "треилер": 4991,
      "рет": 4992,
      "водят": 4993,
      "принце": 4994,
      "винова": 4995,
      "короче": 4996,
      "сомни": 4997,
      "18": 4998,
      "умело": 4999,
      "попада": 5000,
      "хью": 5001,
      "яро": 5002,
      "принад": 5003,
      "оценки": 5004,
      "аудитории": 5005,
      "ила": 5006,
      "кореи": 5007,
      "щика": 5008,
      "парни": 5009,
      "пяти": 5010,
      "путешествие": 5011,
      "веща": 5012,
      "президен": 5013,
      "псевдо": 5014,
      "реа": 5015,
      "тянет": 5016,
      "раба": 5017,
      "одержи": 5018,
      "творения": 5019,
      "репли": 5020,
      "изм": 5021,
      "хитро": 5022,
      "снятыи": 5023,
      "обез": 5024,
      "цам": 5025,
      "великолепныи": 5026,
      "нина": 5027,
      "сати": 5028,
      "судить": 5029,
      "длин": 5030,
      "сестра": 5031,
      "процен": 5032,
      "песен": 5033,
      "целыи": 5034,
      "показывать": 5035,
      "шах": 5036,
      "мелодрама": 5037,
      "половина": 5038,
      "ленное": 5039,
      "оригинальныи": 5040,
      "звезды": 5041,
      "мерз": 5042,
      "ссия": 5043,
      "великого": 5044,
      "увид": 5045,
      "предстает": 5046,
      "особого": 5047,
      "am": 5048,
      "объясня": 5049,
      "тельны": 5050,
      "финан": 5051,
      "мастера": 5052,
      "рав": 5053,
      "живои": 5054,
      "человеческих": 5055,
      "погиб": 5056,
      "льд": 5057,
      "затраги": 5058,
      "довери": 5059,
      "хал": 5060,
      "отнести": 5061,
      "абсурд": 5062,
      "лера": 5063,
      "андер": 5064,
      "прови": 5065,
      "удивление": 5066,
      "ср": 5067,
      "бов": 5068,
      "бездар": 5069,
      "чувствует": 5070,
      "считает": 5071,
      "хронометраж": 5072,
      "стереоти": 5073,
      "ану": 5074,
      "прили": 5075,
      "детьми": 5076,
      "общее": 5077,
      "солдат": 5078,
      "сбо": 5079,
      "любимого": 5080,
      "лением": 5081,
      "лье": 5082,
      "проити": 5083,
      "бала": 5084,
      "женои": 5085,
      "победи": 5086,
      "генера": 5087,
      "рамках": 5088,
      "подчерки": 5089,
      "вероятно": 5090,
      "ночи": 5091,
      "чивает": 5092,
      "ждан": 5093,
      "создается": 5094,
      "происходят": 5095,
      "простых": 5096,
      "мага": 5097,
      "ступил": 5098,
      "якобы": 5099,
      "команды": 5100,
      "мик": 5101,
      "дож": 5102,
      "евре": 5103,
      "мену": 5104,
      "фразы": 5105,
      "мию": 5106,
      "джеимса": 5107,
      "справились": 5108,
      "задачеи": 5109,
      "нат": 5110,
      "ственными": 5111,
      "ad": 5112,
      "моментах": 5113,
      "убиицы": 5114,
      "злове": 5115,
      "машины": 5116,
      "называется": 5117,
      "живают": 5118,
      "тят": 5119,
      "пытался": 5120,
      "объясне": 5121,
      "познакоми": 5122,
      "сиквел": 5123,
      "мягко": 5124,
      "агре": 5125,
      "атри": 5126,
      "мэри": 5127,
      "небо": 5128,
      "мафи": 5129,
      "влади": 5130,
      "учены": 5131,
      "сильная": 5132,
      "цар": 5133,
      "основе": 5134,
      "титра": 5135,
      "общеи": 5136,
      "ориен": 5137,
      "нашем": 5138,
      "справля": 5139,
      "'?": 5140,
      "нение": 5141,
      "чешь": 5142,
      "чко": 5143,
      "тв": 5144,
      "пересмотреть": 5145,
      "насилия": 5146,
      "гляды": 5147,
      "воин": 5148,
      "выити": 5149,
      "бесподоб": 5150,
      "фальши": 5151,
      "провести": 5152,
      "получила": 5153,
      "лаз": 5154,
      "откро": 5155,
      "доброт": 5156,
      "сков": 5157,
      "скло": 5158,
      "разбира": 5159,
      "менты": 5160,
      "напряжение": 5161,
      "конфлик": 5162,
      "навли": 5163,
      "конкрет": 5164,
      "логично": 5165,
      "последствия": 5166,
      "ярких": 5167,
      "сплош": 5168,
      "обна": 5169,
      "жат": 5170,
      "биться": 5171,
      "кура": 5172,
      "сумел": 5173,
      "смотрели": 5174,
      "простая": 5175,
      "потрясающе": 5176,
      "игро": 5177,
      "вещеи": 5178,
      "плуа": 5179,
      "вшаяся": 5180,
      "линеи": 5181,
      "менять": 5182,
      "позволя": 5183,
      "лаге": 5184,
      "отдать": 5185,
      "примитив": 5186,
      "сои": 5187,
      "ктора": 5188,
      "балан": 5189,
      "раскрыть": 5190,
      "амплуа": 5191,
      "развивается": 5192,
      "разобраться": 5193,
      "напар": 5194,
      "следить": 5195,
      "пах": 5196,
      "ссу": 5197,
      "спасает": 5198,
      "деви": 5199,
      "любителеи": 5200,
      "нил": 5201,
      "убивает": 5202,
      "счастью": 5203,
      "исполня": 5204,
      "ne": 5205,
      "напи": 5206,
      "вжи": 5207,
      "творчества": 5208,
      "ведут": 5209,
      "девушкои": 5210,
      "альную": 5211,
      "коп": 5212,
      "кара": 5213,
      "большее": 5214,
      "грамотно": 5215,
      "дию": 5216,
      "ссср": 5217,
      "ожидала": 5218,
      "символи": 5219,
      "справедливости": 5220,
      "конфликт": 5221,
      "умо": 5222,
      "нарисо": 5223,
      "коль": 5224,
      "музыкои": 5225,
      "заставить": 5226,
      "надежда": 5227,
      "дира": 5228,
      "ниях": 5229,
      "вода": 5230,
      "графика": 5231,
      "ос": 5232,
      "тила": 5233,
      "поддержи": 5234,
      "положение": 5235,
      "режиссура": 5236,
      "вло": 5237,
      "последняя": 5238,
      "повествует": 5239,
      "подробно": 5240,
      "индивиду": 5241,
      "прокля": 5242,
      "чья": 5243,
      "частеи": 5244,
      "земля": 5245,
      "хэн": 5246,
      "лень": 5247,
      "ключен": 5248,
      "хвата": 5249,
      "ванных": 5250,
      "ванию": 5251,
      "вызыва": 5252,
      "работал": 5253,
      "отношению": 5254,
      "появляются": 5255,
      "минуту": 5256,
      "мотивы": 5257,
      "сегодняш": 5258,
      "амби": 5259,
      "разить": 5260,
      "уло": 5261,
      "ненуж": 5262,
      "странныи": 5263,
      "больших": 5264,
      "этими": 5265,
      "показан": 5266,
      "вариант": 5267,
      "родствен": 5268,
      "средне": 5269,
      "условиях": 5270,
      "полез": 5271,
      "дуэт": 5272,
      "осталась": 5273,
      "специфи": 5274,
      "неви": 5275,
      "рис": 5276,
      "веру": 5277,
      "джер": 5278,
      "театре": 5279,
      "жестокости": 5280,
      "зет": 5281,
      "нирова": 5282,
      "бывают": 5283,
      "интриги": 5284,
      "элементами": 5285,
      "домо": 5286,
      "интрига": 5287,
      "достоинства": 5288,
      "зен": 5289,
      "тное": 5290,
      "вере": 5291,
      "интереснои": 5292,
      "снимают": 5293,
      "визуально": 5294,
      "жных": 5295,
      "глуб": 5296,
      "радость": 5297,
      "потрясающии": 5298,
      "поисках": 5299,
      "ракур": 5300,
      "мистер": 5301,
      "антагони": 5302,
      "гаи": 5303,
      "граждан": 5304,
      "слеи": 5305,
      "кера": 5306,
      "дите": 5307,
      "человечества": 5308,
      "теп": 5309,
      "цини": 5310,
      "рано": 5311,
      "струк": 5312,
      "около": 5313,
      "нашу": 5314,
      "ходили": 5315,
      "ари": 5316,
      "изма": 5317,
      "моего": 5318,
      "чами": 5319,
      "стороне": 5320,
      "экшена": 5321,
      "чон": 5322,
      "религиоз": 5323,
      "повсе": 5324,
      "проход": 5325,
      "стивен": 5326,
      "можете": 5327,
      "девя": 5328,
      "личнои": 5329,
      "аван": 5330,
      "оригинала": 5331,
      "изде": 5332,
      "компле": 5333,
      "авторов": 5334,
      "морали": 5335,
      "дэвида": 5336,
      "доктора": 5337,
      "мега": 5338,
      "недостатки": 5339,
      "изби": 5340,
      "ряет": 5341,
      "питер": 5342,
      "молодая": 5343,
      "насили": 5344,
      "мок": 5345,
      "правило": 5346,
      "обли": 5347,
      "задумка": 5348,
      "лку": 5349,
      "ленными": 5350,
      "ждала": 5351,
      "результат": 5352,
      "шусь": 5353,
      "храни": 5354,
      "большинстве": 5355,
      "прежнему": 5356,
      "рук": 5357,
      "состояние": 5358,
      "трагедии": 5359,
      "рождения": 5360,
      "кеит": 5361,
      "гиган": 5362,
      "единственная": 5363,
      "провин": 5364,
      "рад": 5365,
      "фро": 5366,
      "кошмар": 5367,
      "отцом": 5368,
      "банально": 5369,
      "периоди": 5370,
      "ностальги": 5371,
      "ужасы": 5372,
      "поклонников": 5373,
      "позна": 5374,
      "резко": 5375,
      "свадь": 5376,
      "тези": 5377,
      "торов": 5378,
      "вторую": 5379,
      "оригинально": 5380,
      "реитин": 5381,
      "признаться": 5382,
      "ошибки": 5383,
      "рту": 5384,
      "власть": 5385,
      "желании": 5386,
      "верит": 5387,
      "слышать": 5388,
      "сказоч": 5389,
      "телевизо": 5390,
      "ac": 5391,
      "типичныи": 5392,
      "таранти": 5393,
      "месту": 5394,
      "глубины": 5395,
      "особои": 5396,
      "критиков": 5397,
      "гиб": 5398,
      "уг": 5399,
      "наказа": 5400,
      "ходом": 5401,
      "ющему": 5402,
      "третья": 5403,
      "уол": 5404,
      "жени": 5405,
      "современнои": 5406,
      "обществе": 5407,
      "органично": 5408,
      "восхити": 5409,
      "растя": 5410,
      "стине": 5411,
      "бук": 5412,
      "последова": 5413,
      "вызвать": 5414,
      "блестяще": 5415,
      "заключе": 5416,
      "жность": 5417,
      "простые": 5418,
      "маленького": 5419,
      "акцент": 5420,
      "оправды": 5421,
      "ждают": 5422,
      "радости": 5423,
      "твои": 5424,
      "приключен": 5425,
      "слава": 5426,
      "чнее": 5427,
      "злоб": 5428,
      "строить": 5429,
      "реалистично": 5430,
      "3d": 5431,
      "площа": 5432,
      "местах": 5433,
      "джим": 5434,
      "семьеи": 5435,
      "вывает": 5436,
      "совето": 5437,
      "197": 5438,
      "написал": 5439,
      "разо": 5440,
      "объясни": 5441,
      "сняли": 5442,
      "список": 5443,
      "кассо": 5444,
      "выстре": 5445,
      "жаи": 5446,
      "подчи": 5447,
      "борьба": 5448,
      "террори": 5449,
      "стры": 5450,
      "ing": 5451,
      "мною": 5452,
      "истери": 5453,
      "виден": 5454,
      "покалипси": 5455,
      "зан": 5456,
      "тию": 5457,
      "третьеи": 5458,
      "можешь": 5459,
      "возлюб": 5460,
      "приятное": 5461,
      "копа": 5462,
      "оказываются": 5463,
      "шпион": 5464,
      "элек": 5465,
      "to": 5466,
      "уна": 5467,
      "блон": 5468,
      "счи": 5469,
      "сценар": 5470,
      "каждое": 5471,
      "розо": 5472,
      "реитинг": 5473,
      "первоисточ": 5474,
      "писал": 5475,
      "основу": 5476,
      "большинства": 5477,
      "глоба": 5478,
      "ищет": 5479,
      "хочешь": 5480,
      "отчасти": 5481,
      "известные": 5482,
      "камеры": 5483,
      "связь": 5484,
      "оса": 5485,
      "фы": 5486,
      "ганг": 5487,
      "поражает": 5488,
      "глубже": 5489,
      "подобран": 5490,
      "генри": 5491,
      "поверхно": 5492,
      "антура": 5493,
      "узнает": 5494,
      "изя": 5495,
      "наличие": 5496,
      "поучи": 5497,
      "переигры": 5498,
      "отправляется": 5499,
      "щенныи": 5500,
      "прочих": 5501,
      "весело": 5502,
      "поистине": 5503,
      "парти": 5504,
      "реализа": 5505,
      "пускаи": 5506,
      "проявля": 5507,
      "дум": 5508,
      "бело": 5509,
      "неизбе": 5510,
      "переп": 5511,
      "появился": 5512,
      "возму": 5513,
      "делал": 5514,
      "прекраснои": 5515,
      "анали": 5516,
      "детектива": 5517,
      "воле": 5518,
      "реализо": 5519,
      "рука": 5520,
      "играли": 5521,
      "кульмина": 5522,
      "судьбу": 5523,
      "пенси": 5524,
      "завтра": 5525,
      "ходил": 5526,
      "картинки": 5527,
      "ии": 5528,
      "неуме": 5529,
      "тип": 5530,
      "чат": 5531,
      "погони": 5532,
      "темно": 5533,
      "девушке": 5534,
      "')": 5535,
      "смыслом": 5536,
      "нравятся": 5537,
      "негатив": 5538,
      "складывается": 5539,
      "лор": 5540,
      "тяга": 5541,
      "упа": 5542,
      "дала": 5543,
      "вшими": 5544,
      "читал": 5545,
      "сказку": 5546,
      "сочув": 5547,
      "нями": 5548,
      "богат": 5549,
      "спорт": 5550,
      "драки": 5551,
      "землю": 5552,
      "конку": 5553,
      "вещ": 5554,
      "нометра": 5555,
      "лучшую": 5556,
      "вось": 5557,
      "милая": 5558,
      "говор": 5559,
      "дороги": 5560,
      "вышед": 5561,
      "гарри": 5562,
      "казывает": 5563,
      "опасности": 5564,
      "подростко": 5565,
      "чарли": 5566,
      "невы": 5567,
      "читать": 5568,
      "субъе": 5569,
      "набор": 5570,
      "течение": 5571,
      "чия": 5572,
      "смеха": 5573,
      "зелены": 5574,
      "парнеи": 5575,
      "произведении": 5576,
      "странные": 5577,
      "обыкнов": 5578,
      "танце": 5579,
      "молодые": 5580,
      "теми": 5581,
      "de": 5582,
      "счету": 5583,
      "посмеяться": 5584,
      "кона": 5585,
      "моем": 5586,
      "женная": 5587,
      "змом": 5588,
      "секре": 5589,
      "разба": 5590,
      "стям": 5591,
      "советского": 5592,
      "фактически": 5593,
      "брута": 5594,
      "тря": 5595,
      "браи": 5596,
      "страдания": 5597,
      "неспра": 5598,
      "поведения": 5599,
      "изы": 5600,
      "тности": 5601,
      "орди": 5602,
      "алле": 5603,
      "сэ": 5604,
      "нек": 5605,
      "титров": 5606,
      "черныи": 5607,
      "иму": 5608,
      "обожа": 5609,
      "конт": 5610,
      "камеру": 5611,
      "?-": 5612,
      "старые": 5613,
      "соответству": 5614,
      "пам": 5615,
      "плохого": 5616,
      "li": 5617,
      "животных": 5618,
      "плы": 5619,
      "продолжи": 5620,
      "вписы": 5621,
      "вписа": 5622,
      "духов": 5623,
      "поколения": 5624,
      "отры": 5625,
      "держится": 5626,
      "линию": 5627,
      "вью": 5628,
      "взглядом": 5629,
      "порядке": 5630,
      "пору": 5631,
      "предела": 5632,
      "вшее": 5633,
      "').": 5634,
      "саспен": 5635,
      "мыслеи": 5636,
      "тность": 5637,
      "благодар": 5638,
      "начну": 5639,
      "голливуда": 5640,
      "воплощение": 5641,
      "взо": 5642,
      "'...": 5643,
      "пь": 5644,
      "приводит": 5645,
      "блеи": 5646,
      "тобои": 5647,
      "зви": 5648,
      "наве": 5649,
      "слушать": 5650,
      "качественныи": 5651,
      "ых": 5652,
      "стоун": 5653,
      "разга": 5654,
      "безна": 5655,
      "леть": 5656,
      "жестокость": 5657,
      "ази": 5658,
      "щенно": 5659,
      "виться": 5660,
      "сказала": 5661,
      "учит": 5662,
      "новения": 5663,
      "равнодушным": 5664,
      "народа": 5665,
      "переживать": 5666,
      "безысход": 5667,
      "рона": 5668,
      "зале": 5669,
      "смешные": 5670,
      "ступить": 5671,
      "бил": 5672,
      "восторге": 5673,
      "ниро": 5674,
      "слэ": 5675,
      "стыи": 5676,
      "женщинои": 5677,
      "офици": 5678,
      "продукт": 5679,
      "ординар": 5680,
      "гни": 5681,
      "уют": 5682,
      "оружие": 5683,
      "нрав": 5684,
      "удовлетво": 5685,
      "красоты": 5686,
      "слышал": 5687,
      "озна": 5688,
      "жителеи": 5689,
      "маленькая": 5690,
      "культур": 5691,
      "ау": 5692,
      "моря": 5693,
      "лаи": 5694,
      "11": 5695,
      "новом": 5696,
      "успешно": 5697,
      "термина": 5698,
      "адво": 5699,
      "планеты": 5700,
      "пошел": 5701,
      "старых": 5702,
      "женным": 5703,
      "лома": 5704,
      "роднои": 5705,
      "нелепо": 5706,
      "аж": 5707,
      "интересного": 5708,
      "щением": 5709,
      "бого": 5710,
      "рыца": 5711,
      "трав": 5712,
      "америки": 5713,
      "обоих": 5714,
      "незамет": 5715,
      "дке": 5716,
      "наигра": 5717,
      "нула": 5718,
      "ходило": 5719,
      "собственного": 5720,
      "мюзи": 5721,
      "указа": 5722,
      "пугать": 5723,
      "разворачивается": 5724,
      "ребят": 5725,
      "попал": 5726,
      "снимали": 5727,
      "хронометра": 5728,
      "ив": 5729,
      "малы": 5730,
      "пары": 5731,
      "обидно": 5732,
      "временами": 5733,
      "счур": 5734,
      "наход": 5735,
      "возвращается": 5736,
      "улыбку": 5737,
      "сью": 5738,
      "универ": 5739,
      "идеа": 5740,
      "чересчур": 5741,
      "тупы": 5742,
      "теряет": 5743,
      "пропаган": 5744,
      "названия": 5745,
      "великии": 5746,
      "правила": 5747,
      "форм": 5748,
      "убииств": 5749,
      "кожи": 5750,
      "ряду": 5751,
      "жанру": 5752,
      "зои": 5753,
      "появля": 5754,
      "гера": 5755,
      "подготов": 5756,
      "сериалы": 5757,
      "гно": 5758,
      "проч": 5759,
      "бесконечно": 5760,
      "тащи": 5761,
      "добрая": 5762,
      "писателя": 5763,
      "классика": 5764,
      "ирони": 5765,
      "чками": 5766,
      "нифер": 5767,
      "поры": 5768,
      "дебю": 5769,
      "прие": 5770,
      "жности": 5771,
      "чаино": 5772,
      "достоиныи": 5773,
      "сопер": 5774,
      "быто": 5775,
      "расста": 5776,
      "элементы": 5777,
      "тере": 5778,
      "прочие": 5779,
      "деиствительности": 5780,
      "русского": 5781,
      "сугу": 5782,
      "увиде": 5783,
      "улице": 5784,
      "медве": 5785,
      "тором": 5786,
      "быт": 5787,
      "жали": 5788,
      "оказаться": 5789,
      "освобо": 5790,
      "стами": 5791,
      "фред": 5792,
      "пуль": 5793,
      "ваннои": 5794,
      "дения": 5795,
      "единственным": 5796,
      "ничуть": 5797,
      "проигры": 5798,
      "изви": 5799,
      "выжить": 5800,
      "отвер": 5801,
      "отказы": 5802,
      "показался": 5803,
      "исчез": 5804,
      "циоз": 5805,
      "фантастики": 5806,
      "неплохая": 5807,
      "гоня": 5808,
      "ключить": 5809,
      "описать": 5810,
      "жные": 5811,
      "пта": 5812,
      "чьи": 5813,
      "боится": 5814,
      "рамки": 5815,
      "хорошем": 5816,
      "детство": 5817,
      "шту": 5818,
      "разговор": 5819,
      "женнои": 5820,
      "подума": 5821,
      "снимал": 5822,
      "визи": 5823,
      "подбор": 5824,
      "лили": 5825,
      "куча": 5826,
      "полиции": 5827,
      "взгляда": 5828,
      "сценами": 5829,
      "проника": 5830,
      "составляющая": 5831,
      "торы": 5832,
      "богу": 5833,
      "будете": 5834,
      "особен": 5835,
      "пускать": 5836,
      "мся": 5837,
      "понимают": 5838,
      "музыкан": 5839,
      "очередная": 5840,
      "существование": 5841,
      "стнои": 5842,
      "ресто": 5843,
      "фона": 5844,
      "мит": 5845,
      "летия": 5846,
      "гэ": 5847,
      "разме": 5848,
      "главному": 5849,
      "получились": 5850,
      "скучать": 5851,
      "интерне": 5852,
      "пок": 5853,
      "великолепная": 5854,
      "носят": 5855,
      "александр": 5856,
      "главными": 5857,
      "шается": 5858,
      "замкну": 5859,
      "ченным": 5860,
      "голов": 5861,
      "жертв": 5862,
      "берга": 5863,
      "нара": 5864,
      "влено": 5865,
      "воде": 5866,
      "уважения": 5867,
      "скри": 5868,
      "силои": 5869,
      "карьере": 5870,
      "чена": 5871,
      "вопросом": 5872,
      "взрослые": 5873,
      "мисс": 5874,
      "кучу": 5875,
      "сознание": 5876,
      "ve": 5877,
      "умныи": 5878,
      "жку": 5879,
      "тировать": 5880,
      "пая": 5881,
      "испан": 5882,
      "кок": 5883,
      "бесе": 5884,
      "зеле": 5885,
      "тарантино": 5886,
      "you": 5887,
      "назо": 5888,
      "следующии": 5889,
      "отсутствует": 5890,
      "чужои": 5891,
      "коммер": 5892,
      "лев": 5893,
      "героине": 5894,
      "алексан": 5895,
      "осу": 5896,
      "никуда": 5897,
      "сда": 5898,
      "летом": 5899,
      "бывшии": 5900,
      "баллов": 5901,
      "выр": 5902,
      "осве": 5903,
      "лана": 5904,
      "узнал": 5905,
      "вызвал": 5906,
      "дополни": 5907,
      "интересна": 5908,
      "зависи": 5909,
      "знакомых": 5910,
      "энерги": 5911,
      "уши": 5912,
      "фра": 5913,
      "напротив": 5914,
      "сестры": 5915,
      "пришел": 5916,
      "чрезмер": 5917,
      "поце": 5918,
      "сего": 5919,
      "разоча": 5920,
      "грустно": 5921,
      "образов": 5922,
      "поту": 5923,
      "исправи": 5924,
      "хищ": 5925,
      "плать": 5926,
      "уходит": 5927,
      "маленькои": 5928,
      "патриоти": 5929,
      "дкои": 5930,
      "дку": 5931,
      "вещь": 5932,
      "шими": 5933,
      "актером": 5934,
      "талантливыи": 5935,
      "писто": 5936,
      "полнить": 5937,
      "волну": 5938,
      "руковод": 5939,
      "втором": 5940,
      "срав": 5941,
      "пик": 5942,
      "ch": 5943,
      "сети": 5944,
      "извра": 5945,
      "дорого": 5946,
      "чал": 5947,
      "тельном": 5948,
      "актерскую": 5949,
      "имея": 5950,
      "секса": 5951,
      "плохих": 5952,
      "милыи": 5953,
      "портит": 5954,
      "оригинальнои": 5955,
      "емое": 5956,
      "герма": 5957,
      "ноги": 5958,
      "депресси": 5959,
      "закончится": 5960,
      "глядя": 5961,
      "поддер": 5962,
      "красивых": 5963,
      "надежду": 5964,
      "опти": 5965,
      "запи": 5966,
      "проте": 5967,
      "сена": 5968,
      "сками": 5969,
      "картинои": 5970,
      "отчего": 5971,
      "фом": 5972,
      "настоящую": 5973,
      "соответственно": 5974,
      "красав": 5975,
      "стеров": 5976,
      "существу": 5977,
      "различные": 5978,
      "процесс": 5979,
      "летнии": 5980,
      "логия": 5981,
      "способна": 5982,
      "уилли": 5983,
      "бел": 5984,
      "захватывает": 5985,
      "лью": 5986,
      "продемонстри": 5987,
      "ходы": 5988,
      "аудиторию": 5989,
      "баи": 5990,
      "причины": 5991,
      "чики": 5992,
      "смотрят": 5993,
      "вон": 5994,
      "пытались": 5995,
      "отталки": 5996,
      "придает": 5997,
      "глубокии": 5998,
      "посту": 5999,
      "каи": 6000,
      "старого": 6001,
      "имуще": 6002,
      "гг": 6003,
      "рять": 6004,
      "сердцем": 6005,
      "бль": 6006,
      "стивена": 6007,
      "бросить": 6008,
      "отмечу": 6009,
      "убивать": 6010,
      "маньяка": 6011,
      "ап": 6012,
      "ужастик": 6013,
      "некоторое": 6014,
      "логию": 6015,
      "отсюда": 6016,
      "трудом": 6017,
      "любимым": 6018,
      "непредсказу": 6019,
      "черты": 6020,
      "танцы": 6021,
      "тью": 6022,
      "воду": 6023,
      "вестер": 6024,
      "имею": 6025,
      "эффекты": 6026,
      "тара": 6027,
      "деталеи": 6028,
      "террито": 6029,
      "ног": 6030,
      "живе": 6031,
      "пришель": 6032,
      "интеллекту": 6033,
      "задача": 6034,
      "обстоятельств": 6035,
      "технологии": 6036,
      "провали": 6037,
      "сади": 6038,
      "пала": 6039,
      "страшныи": 6040,
      "встречает": 6041,
      "16": 6042,
      "ченнои": 6043,
      "чертов": 6044,
      "особенного": 6045,
      "теме": 6046,
      "перспе": 6047,
      "??": 6048,
      "дикт": 6049,
      "хорошую": 6050,
      "имена": 6051,
      "ванная": 6052,
      "монстра": 6053,
      "кадром": 6054,
      "клеи": 6055,
      "шил": 6056,
      "подвер": 6057,
      "внешность": 6058,
      "кинотеатра": 6059,
      "минусов": 6060,
      "окружающих": 6061,
      "кинои": 6062,
      "готова": 6063,
      "посыл": 6064,
      "знакомство": 6065,
      "тща": 6066,
      "мешает": 6067,
      "вис": 6068,
      "мудро": 6069,
      "америка": 6070,
      "плюсов": 6071,
      "красота": 6072,
      "существования": 6073,
      "рс": 6074,
      "эдва": 6075,
      "кошма": 6076,
      "бизне": 6077,
      "гнуть": 6078,
      "погрузи": 6079,
      "золотои": 6080,
      "жного": 6081,
      "придумать": 6082,
      "считают": 6083,
      "традиции": 6084,
      "добиться": 6085,
      "построен": 6086,
      "финала": 6087,
      "появления": 6088,
      "второе": 6089,
      "захотелось": 6090,
      "старои": 6091,
      "лучшеи": 6092,
      "стные": 6093,
      "кости": 6094,
      "неизвестно": 6095,
      "рта": 6096,
      "подобно": 6097,
      "отзывы": 6098,
      "брюс": 6099,
      "королев": 6100,
      "периодически": 6101,
      "кончи": 6102,
      "включая": 6103,
      "отзыв": 6104,
      "джесси": 6105,
      "чуда": 6106,
      "смотрим": 6107,
      "чувством": 6108,
      "профессо": 6109,
      "жертво": 6110,
      "сток": 6111,
      "жаться": 6112,
      "соблаз": 6113,
      "метафо": 6114,
      "чее": 6115,
      "секунду": 6116,
      "конкре": 6117,
      "плохие": 6118,
      "начали": 6119,
      "способности": 6120,
      "мишель": 6121,
      "чива": 6122,
      "циони": 6123,
      "били": 6124,
      "предше": 6125,
      "восприятия": 6126,
      "вец": 6127,
      "русских": 6128,
      "ковар": 6129,
      "составляющеи": 6130,
      "вуди": 6131,
      "интерпре": 6132,
      "взаимоотношения": 6133,
      "'),": 6134,
      "король": 6135,
      "разговари": 6136,
      "купи": 6137,
      "получили": 6138,
      "порядок": 6139,
      "таины": 6140,
      "апокалипси": 6141,
      "философи": 6142,
      "потерял": 6143,
      "ческому": 6144,
      "проблемами": 6145,
      "дреи": 6146,
      "совмести": 6147,
      "бизнес": 6148,
      "зис": 6149,
      "сомнении": 6150,
      "стного": 6151,
      "залож": 6152,
      "должное": 6153,
      "сну": 6154,
      "разде": 6155,
      "судеб": 6156,
      "таланта": 6157,
      "тени": 6158,
      "насчет": 6159,
      "отыгра": 6160,
      "шками": 6161,
      "спил": 6162,
      "ара": 6163,
      "пова": 6164,
      "балл": 6165,
      "перевод": 6166,
      "полном": 6167,
      "забыл": 6168,
      "распро": 6169,
      "тость": 6170,
      "ните": 6171,
      "долгое": 6172,
      "рубе": 6173,
      "оригинале": 6174,
      "повторю": 6175,
      "хло": 6176,
      "деп": 6177,
      "достовер": 6178,
      "рыва": 6179,
      "спосо": 6180,
      "играла": 6181,
      "здоров": 6182,
      "веры": 6183,
      "парт": 6184,
      ".,": 6185,
      "компания": 6186,
      "простите": 6187,
      "серге": 6188,
      "имел": 6189,
      "правдоподобно": 6190,
      "чают": 6191,
      "ступают": 6192,
      "пародии": 6193,
      "эконо": 6194,
      "затро": 6195,
      "енько": 6196,
      "толком": 6197,
      "трагедия": 6198,
      "сро": 6199,
      "рассчита": 6200,
      "любим": 6201,
      "ожидании": 6202,
      "принимает": 6203,
      "легкостью": 6204,
      "прожи": 6205,
      "любил": 6206,
      "культуры": 6207,
      "признаюсь": 6208,
      "наткну": 6209,
      "ментов": 6210,
      "макс": 6211,
      "третьих": 6212,
      "заранее": 6213,
      "русские": 6214,
      "брен": 6215,
      "меняются": 6216,
      "простым": 6217,
      "лука": 6218,
      "вьте": 6219,
      "известнои": 6220,
      "короля": 6221,
      "литератур": 6222,
      "вор": 6223,
      "запута": 6224,
      "целе": 6225,
      "скать": 6226,
      "кратно": 6227,
      "серьезныи": 6228,
      "гордо": 6229,
      "скажет": 6230,
      "ответы": 6231,
      "демонстрирует": 6232,
      "проста": 6233,
      "средства": 6234,
      "оторваться": 6235,
      "порно": 6236,
      "забывать": 6237,
      "вшему": 6238,
      "большому": 6239,
      "целиком": 6240,
      "ночью": 6241,
      "чувствуешь": 6242,
      "гомо": 6243,
      "лав": 6244,
      "преодо": 6245,
      "конечном": 6246,
      "экрани": 6247,
      "выступает": 6248,
      "существ": 6249,
      "дото": 6250,
      "риться": 6251,
      "путем": 6252,
      "приятныи": 6253,
      "порадовала": 6254,
      "поидет": 6255,
      "разочарование": 6256,
      "офице": 6257,
      "тные": 6258,
      "похожа": 6259,
      "жутко": 6260,
      "отмет": 6261,
      "подка": 6262,
      "строго": 6263,
      "обу": 6264,
      "глава": 6265,
      "существа": 6266,
      "титры": 6267,
      "фэнтези": 6268,
      "ищу": 6269,
      "соли": 6270,
      "видят": 6271,
      "зовут": 6272,
      "коммента": 6273,
      "ждешь": 6274,
      "смешных": 6275,
      "мами": 6276,
      "тывают": 6277,
      "форса": 6278,
      "белыи": 6279,
      "пиро": 6280,
      "христи": 6281,
      "конкурен": 6282,
      "духо": 6283,
      "дность": 6284,
      "удовольствия": 6285,
      "ехать": 6286,
      "лихо": 6287,
      "стон": 6288,
      "чан": 6289,
      "поставил": 6290,
      "тота": 6291,
      "теори": 6292,
      "мучи": 6293,
      "легкои": 6294,
      "наидет": 6295,
      "маньяк": 6296,
      "плика": 6297,
      "жертвы": 6298,
      "современном": 6299,
      "спорти": 6300,
      "ленность": 6301,
      "взглянуть": 6302,
      "замечательная": 6303,
      "циви": 6304,
      "крис": 6305,
      "отдельное": 6306,
      "понятия": 6307,
      "обычных": 6308,
      "простого": 6309,
      "es": 6310,
      "иду": 6311,
      "останавли": 6312,
      "сценарию": 6313,
      "прекрасные": 6314,
      "поворот": 6315,
      "страну": 6316,
      "зион": 6317,
      "современныи": 6318,
      "впоследствии": 6319,
      "кот": 6320,
      "тита": 6321,
      "скон": 6322,
      "заметил": 6323,
      "борьбы": 6324,
      "стных": 6325,
      "дешь": 6326,
      "чностью": 6327,
      "гнета": 6328,
      "mo": 6329,
      "сирова": 6330,
      "имеется": 6331,
      "чести": 6332,
      "обычная": 6333,
      "идееи": 6334,
      "цепляет": 6335,
      "некогда": 6336,
      "тимента": 6337,
      "великои": 6338,
      "встречи": 6339,
      "поклонникам": 6340,
      "смеша": 6341,
      "неишии": 6342,
      "крутои": 6343,
      "держан": 6344,
      "нора": 6345,
      "догада": 6346,
      "двадцать": 6347,
      "сильнои": 6348,
      "сное": 6349,
      "видение": 6350,
      "роберта": 6351,
      "сторона": 6352,
      "специали": 6353,
      "?..": 6354,
      "обычнои": 6355,
      "афри": 6356,
      "гора": 6357,
      "рила": 6358,
      "доступ": 6359,
      "сят": 6360,
      "чиков": 6361,
      "собрать": 6362,
      "un": 6363,
      "ряется": 6364,
      "порядку": 6365,
      "капитан": 6366,
      "впечатляет": 6367,
      "америке": 6368,
      "мастерски": 6369,
      "агент": 6370,
      "шон": 6371,
      "жала": 6372,
      "состава": 6373,
      "вчера": 6374,
      "видом": 6375,
      "плоть": 6376,
      "увидите": 6377,
      "молод": 6378,
      "верьте": 6379,
      "пугает": 6380,
      "россииского": 6381,
      "ненависть": 6382,
      "скотт": 6383,
      "делом": 6384,
      "ливыи": 6385,
      "уити": 6386,
      "втори": 6387,
      "привык": 6388,
      "потрясающая": 6389,
      "черного": 6390,
      "дие": 6391,
      "джера": 6392,
      "спраши": 6393,
      "требует": 6394,
      "гали": 6395,
      "джеин": 6396,
      "узнава": 6397,
      "предлагает": 6398,
      "?)": 6399,
      "лоша": 6400,
      "честву": 6401,
      "гается": 6402,
      "сделала": 6403,
      "рецензия": 6404,
      "побольше": 6405,
      "жене": 6406,
      "американцы": 6407,
      "мультиплика": 6408,
      "вернее": 6409,
      "полноцен": 6410,
      "общии": 6411,
      "подход": 6412,
      "добавля": 6413,
      "сеан": 6414,
      "пами": 6415,
      "незабыва": 6416,
      "интервью": 6417,
      "версия": 6418,
      "фрон": 6419,
      "дена": 6420,
      "пило": 6421,
      "планетя": 6422,
      "организа": 6423,
      "делали": 6424,
      "драм": 6425,
      "картинку": 6426,
      "съемочнои": 6427,
      "сентимента": 6428,
      "цет": 6429,
      "рим": 6430,
      "чиваются": 6431,
      "жд": 6432,
      "феи": 6433,
      "полицеискии": 6434,
      "блиста": 6435,
      "инопланетя": 6436,
      "жанров": 6437,
      "увидев": 6438,
      "оттен": 6439,
      "изящ": 6440,
      "цивилиза": 6441,
      "ут": 6442,
      "разма": 6443,
      "аа": 6444,
      "часо": 6445,
      "привет": 6446,
      "смотрелся": 6447,
      "напрочь": 6448,
      "вале": 6449,
      "зала": 6450,
      "бели": 6451,
      "кусо": 6452,
      "клас": 6453,
      "вязчи": 6454,
      "джин": 6455,
      "добрые": 6456,
      "обычные": 6457,
      "фами": 6458,
      "удар": 6459,
      "ii": 6460,
      "туру": 6461,
      "идеальныи": 6462,
      "похоро": 6463,
      "хаус": 6464,
      "доми": 6465,
      "половине": 6466,
      "думает": 6467,
      "традициях": 6468,
      "непосредственно": 6469,
      "остров": 6470,
      "бр": 6471,
      "жению": 6472,
      "страсть": 6473,
      "совмест": 6474,
      "тяж": 6475,
      "женщине": 6476,
      "страна": 6477,
      "!),": 6478,
      "привыкли": 6479,
      "выбора": 6480,
      "сильные": 6481,
      "поняли": 6482,
      "скучныи": 6483,
      "свободы": 6484,
      "ay": 6485,
      "человеческого": 6486,
      "александра": 6487,
      "продук": 6488,
      "онов": 6489,
      "расте": 6490,
      "любите": 6491,
      "изобрета": 6492,
      "надолго": 6493,
      "выки": 6494,
      "старая": 6495,
      "говорили": 6496,
      "бл": 6497,
      "ллиген": 6498,
      "драматур": 6499,
      "люд": 6500,
      "книг": 6501,
      "непременно": 6502,
      "сби": 6503,
      "столкну": 6504,
      "плевать": 6505,
      "постановки": 6506,
      "дженнифер": 6507,
      "уса": 6508,
      "вому": 6509,
      "живые": 6510,
      "гармонично": 6511,
      "немно": 6512,
      "лири": 6513,
      "прогре": 6514,
      "выполня": 6515,
      "подобныи": 6516,
      "надцать": 6517,
      "всевозмож": 6518,
      "удив": 6519,
      "10p": 6520,
      "обоити": 6521,
      "природа": 6522,
      "кают": 6523,
      "тран": 6524,
      "поте": 6525,
      "олицет": 6526,
      "особых": 6527,
      "олицетво": 6528,
      "ужи": 6529,
      "улица": 6530,
      "льна": 6531,
      "расчет": 6532,
      "священ": 6533,
      "раскрывает": 6534,
      "роскош": 6535,
      "поза": 6536,
      "секунд": 6537,
      "литься": 6538,
      "завет": 6539,
      "интересом": 6540,
      "отличные": 6541,
      "попасть": 6542,
      "русскои": 6543,
      "девчон": 6544,
      "свободу": 6545,
      "комму": 6546,
      "слави": 6547,
      "наци": 6548,
      "андже": 6549,
      "привяза": 6550,
      "страдает": 6551,
      "незамы": 6552,
      "матер": 6553,
      "человечество": 6554,
      "анимацион": 6555,
      "ho": 6556,
      "нации": 6557,
      "обычного": 6558,
      "чудовищ": 6559,
      "некая": 6560,
      "хии": 6561,
      "атмосфере": 6562,
      "ребенком": 6563,
      "причинам": 6564,
      "погло": 6565,
      "вающая": 6566,
      "золу": 6567,
      "финалу": 6568,
      "оценивать": 6569,
      "лям": 6570,
      "возвращение": 6571,
      "улыбка": 6572,
      "зависит": 6573,
      "красавица": 6574,
      "предполо": 6575,
      "прида": 6576,
      "интеллиген": 6577,
      "битва": 6578,
      "парочка": 6579,
      "замени": 6580,
      "дружбе": 6581,
      "превосходно": 6582,
      "льда": 6583,
      "щиися": 6584,
      "подобраны": 6585,
      "развязка": 6586,
      "клин": 6587,
      "предпочита": 6588,
      "основные": 6589,
      "co": 6590,
      "ации": 6591,
      "пересе": 6592,
      "коэ": 6593,
      "завое": 6594,
      "слад": 6595,
      "тным": 6596,
      "лесу": 6597,
      "печально": 6598,
      "повторюсь": 6599,
      "расши": 6600,
      "лови": 6601,
      "даром": 6602,
      "такому": 6603,
      "картинах": 6604,
      "доказать": 6605,
      "главе": 6606,
      "отличии": 6607,
      "улыбкои": 6608,
      "плакать": 6609,
      "роб": 6610,
      "серо": 6611,
      "никах": 6612,
      "сняты": 6613,
      "бросается": 6614,
      "ровали": 6615,
      "описание": 6616,
      "уа": 6617,
      "юри": 6618,
      "стрии": 6619,
      "создают": 6620,
      "сериалу": 6621,
      "американская": 6622,
      "изобраз": 6623,
      "отвле": 6624,
      "финальная": 6625,
      "воспринимается": 6626,
      "заворажива": 6627,
      "итого": 6628,
      "безжало": 6629,
      "яркая": 6630,
      "тения": 6631,
      "полная": 6632,
      "кинотеатре": 6633,
      "ленности": 6634,
      "братья": 6635,
      "хватит": 6636,
      "успел": 6637,
      "шедевром": 6638,
      "гигант": 6639,
      "сном": 6640,
      "фанатов": 6641,
      "огонь": 6642,
      "ристи": 6643,
      "боле": 6644,
      "использовать": 6645,
      "умеют": 6646,
      "компьютернои": 6647,
      "ждали": 6648,
      "идео": 6649,
      "рение": 6650,
      "спект": 6651,
      "мотивам": 6652,
      "повлия": 6653,
      "комиксов": 6654,
      "робин": 6655,
      "уважение": 6656,
      "днем": 6657,
      "опы": 6658,
      "ознакоми": 6659,
      "ффи": 6660,
      "кинг": 6661,
      "добавляет": 6662,
      "дьяво": 6663,
      "веселыи": 6664,
      "сложилось": 6665,
      "be": 6666,
      "пото": 6667,
      "монстров": 6668,
      "представление": 6669,
      "восторг": 6670,
      "ъя": 6671,
      "ющееся": 6672,
      "помеша": 6673,
      "завязка": 6674,
      "сравнить": 6675,
      "противостояние": 6676,
      "покои": 6677,
      "шенныи": 6678,
      "конкретно": 6679,
      "стная": 6680,
      "интереса": 6681,
      "se": 6682,
      "серьезные": 6683,
      "боре": 6684,
      "чах": 6685,
      "справилась": 6686,
      "зал": 6687,
      "решить": 6688,
      "количеством": 6689,
      "нагля": 6690,
      "взрослым": 6691,
      "несправедливо": 6692,
      "исполнение": 6693,
      "цах": 6694,
      "незамыслова": 6695,
      "оформ": 6696,
      "нисколько": 6697,
      "зает": 6698,
      "передает": 6699,
      "мл": 6700,
      "водить": 6701,
      "повезло": 6702,
      "неординар": 6703,
      "настоящих": 6704,
      "оригинал": 6705,
      "знакомые": 6706,
      "композиции": 6707,
      "второстепенных": 6708,
      "манера": 6709,
      "дубля": 6710,
      "сильное": 6711,
      "беи": 6712,
      "преимуще": 6713,
      "дополня": 6714,
      "выделяется": 6715,
      "злодеев": 6716,
      "толи": 6717,
      "контек": 6718,
      "предназна": 6719,
      "21": 6720,
      "вначале": 6721,
      "представитель": 6722,
      "блондин": 6723,
      "кори": 6724,
      "заканчивая": 6725,
      "зат": 6726,
      "сосре": 6727,
      "гана": 6728,
      "взгляды": 6729,
      "голова": 6730,
      "принято": 6731,
      "сидеть": 6732,
      "одноименно": 6733,
      "мультфильме": 6734,
      "редкость": 6735,
      "роме": 6736,
      "коем": 6737,
      "преки": 6738,
      "вирту": 6739,
      "звуко": 6740,
      "значительно": 6741,
      "жертву": 6742,
      "подобие": 6743,
      "мирового": 6744,
      "зало": 6745,
      "мали": 6746,
      "детскии": 6747,
      "собственных": 6748,
      "близко": 6749,
      "собирается": 6750,
      "запомнился": 6751,
      "эппи": 6752,
      "телевизион": 6753,
      "условно": 6754,
      "переста": 6755,
      "верши": 6756,
      "присутствие": 6757,
      "разными": 6758,
      "бата": 6759,
      "умере": 6760,
      "маленьких": 6761,
      "преступления": 6762,
      "современные": 6763,
      "ано": 6764,
      "делу": 6765,
      "виды": 6766,
      "грим": 6767,
      "месть": 6768,
      "страшное": 6769,
      "паци": 6770,
      "несен": 6771,
      "кинга": 6772,
      "борьбе": 6773,
      "тива": 6774,
      "зами": 6775,
      "вердикт": 6776,
      "разговоры": 6777,
      "стным": 6778,
      "ваем": 6779,
      "провал": 6780,
      "196": 6781,
      "хладно": 6782,
      "век": 6783,
      "ассоци": 6784,
      "вшем": 6785,
      "тку": 6786,
      "посла": 6787,
      "драмои": 6788,
      "коллек": 6789,
      "восприятие": 6790,
      "17": 6791,
      "почувствовать": 6792,
      "вающие": 6793,
      "бара": 6794,
      "ion": 6795,
      "сильных": 6796,
      "смогут": 6797,
      "знала": 6798,
      "тридца": 6799,
      "внутреннии": 6800,
      "человеческие": 6801,
      "позиции": 6802,
      "хруп": 6803,
      "нету": 6804,
      "подои": 6805,
      "прибы": 6806,
      "гранди": 6807,
      "тельностью": 6808,
      "любовная": 6809,
      "альность": 6810,
      "руками": 6811,
      "прикры": 6812,
      "самыми": 6813,
      "трое": 6814,
      "гот": 6815,
      "шении": 6816,
      "куро": 6817,
      "великолепен": 6818,
      "перестрелки": 6819,
      "сканда": 6820,
      "ктивно": 6821,
      "хули": 6822,
      "акаде": 6823,
      "финансо": 6824,
      "дэнни": 6825,
      "леты": 6826,
      "данные": 6827,
      "рекомендовать": 6828,
      "безнаде": 6829,
      "шок": 6830,
      "соответствует": 6831,
      "раздражает": 6832,
      "вшимся": 6833,
      "ложи": 6834,
      "буты": 6835,
      "гроте": 6836,
      "пародия": 6837,
      "создание": 6838,
      "крю": 6839,
      "сценарием": 6840,
      "версию": 6841,
      "нестандарт": 6842,
      "--": 6843,
      "тира": 6844,
      "парадо": 6845,
      "донести": 6846,
      "суд": 6847,
      "американские": 6848,
      "второстепенные": 6849,
      "идее": 6850,
      "звук": 6851,
      "дили": 6852,
      "школу": 6853,
      "экранизацию": 6854,
      "сознания": 6855,
      "тную": 6856,
      "планет": 6857,
      "ассо": 6858,
      "брэ": 6859,
      "сило": 6860,
      "понравиться": 6861,
      "ответа": 6862,
      "урод": 6863,
      "открове": 6864,
      "грандиоз": 6865,
      "приеха": 6866,
      "and": 6867,
      "кня": 6868,
      "наслед": 6869,
      "драться": 6870,
      "думаешь": 6871,
      "пат": 6872,
      "полную": 6873,
      "нашим": 6874,
      "бегает": 6875,
      "летнеи": 6876,
      "выигры": 6877,
      "успехом": 6878,
      "замуж": 6879,
      "голоса": 6880,
      "лоне": 6881,
      "рывается": 6882,
      "агресси": 6883,
      "героях": 6884,
      "взял": 6885,
      "вспы": 6886,
      "бэи": 6887,
      "мам": 6888,
      "простить": 6889,
      "встав": 6890,
      "рича": 6891,
      "странное": 6892,
      "окажется": 6893,
      "прит": 6894,
      "фера": 6895,
      "отличи": 6896,
      "явление": 6897,
      "веро": 6898,
      "придумы": 6899,
      "скажешь": 6900,
      "настроения": 6901,
      "хватало": 6902,
      "това": 6903,
      "забавныи": 6904,
      "насыщен": 6905,
      "река": 6906,
      "солне": 6907,
      "инстру": 6908,
      "альтер": 6909,
      "черта": 6910,
      "приятные": 6911,
      "эпоху": 6912,
      "уильям": 6913,
      "ваши": 6914,
      "грубо": 6915,
      "франции": 6916,
      "париж": 6917,
      "карика": 6918,
      "тянуть": 6919,
      "повороты": 6920,
      "ственном": 6921,
      "сняется": 6922,
      "желая": 6923,
      "определенныи": 6924,
      "бирает": 6925,
      "авантю": 6926,
      "воскре": 6927,
      "армии": 6928,
      "внои": 6929,
      "стря": 6930,
      "несли": 6931,
      "проблему": 6932,
      "удивить": 6933,
      "делю": 6934,
      "важные": 6935,
      "поля": 6936,
      "мила": 6937,
      "друже": 6938,
      "мечтает": 6939,
      "поступков": 6940,
      "рили": 6941,
      "оригинального": 6942,
      "джун": 6943,
      "называют": 6944,
      "пошли": 6945,
      "бах": 6946,
      "глядеть": 6947,
      "исполнил": 6948,
      "работали": 6949,
      "сезоне": 6950,
      "неважно": 6951,
      "поиски": 6952,
      "ошиба": 6953,
      "ценность": 6954,
      "потенциал": 6955,
      "материала": 6956,
      "похвал": 6957,
      "мисси": 6958,
      "повод": 6959,
      "прон": 6960,
      "характеров": 6961,
      "вича": 6962,
      "рассчи": 6963,
      "едино": 6964,
      "находят": 6965,
      "неодно": 6966,
      "доль": 6967,
      "любимая": 6968,
      "количества": 6969,
      "влюбляется": 6970,
      "мить": 6971,
      "нюан": 6972,
      "порадовало": 6973,
      "комплек": 6974,
      "бума": 6975,
      "дружбы": 6976,
      "хэ": 6977,
      "покажется": 6978,
      "дение": 6979,
      "подобнои": 6980,
      "реальные": 6981,
      "жел": 6982,
      "летнего": 6983,
      "необычныи": 6984,
      "утопи": 6985,
      "вье": 6986,
      "гил": 6987,
      "сюжеты": 6988,
      "снята": 6989,
      "поколение": 6990,
      "азиат": 6991,
      "полного": 6992,
      "хам": 6993,
      "скучным": 6994,
      "учителя": 6995,
      "гениальныи": 6996,
      "фло": 6997,
      "отцов": 6998,
      "раскрывается": 6999,
      "системы": 7000,
      "видения": 7001,
      "попадают": 7002,
      "носить": 7003,
      "персонажам": 7004,
      "гражда": 7005,
      "удивляет": 7006,
      "дороге": 7007,
      "бюджета": 7008,
      "тных": 7009,
      "дорогу": 7010,
      "огромным": 7011,
      "сара": 7012,
      "случается": 7013,
      "решают": 7014,
      "принадле": 7015,
      "сино": 7016,
      "интересны": 7017,
      "игр": 7018,
      "начнем": 7019,
      "размышления": 7020,
      "элиза": 7021,
      "стили": 7022,
      "шат": 7023,
      "крово": 7024,
      "взяли": 7025,
      "эмоционально": 7026,
      "сохранить": 7027,
      "обезья": 7028,
      "of": 7029,
      "отчет": 7030,
      "отдыха": 7031,
      "отдельныи": 7032,
      "карьеру": 7033,
      "клуб": 7034,
      "жего": 7035,
      "появилась": 7036,
      "рассматривать": 7037,
      "сооб": 7038,
      "минима": 7039,
      "танцу": 7040,
      "предельно": 7041,
      "прото": 7042,
      "спецэффектами": 7043,
      "хэппи": 7044,
      "лению": 7045,
      "одиночество": 7046,
      "миллион": 7047,
      "голово": 7048,
      "известен": 7049,
      "исполнитель": 7050,
      "нашла": 7051,
      "выве": 7052,
      "разбор": 7053,
      "героинь": 7054,
      "влияние": 7055,
      "хои": 7056,
      "уряд": 7057,
      "иске": 7058,
      "вампиров": 7059,
      "ждением": 7060,
      "инсти": 7061,
      "ричард": 7062,
      "пошла": 7063,
      "встрети": 7064,
      "корпора": 7065,
      "отдельные": 7066,
      "планете": 7067,
      "актрису": 7068,
      "принимать": 7069,
      "разом": 7070,
      "удался": 7071,
      "идиот": 7072,
      "вечерин": 7073,
      "трэш": 7074,
      "причин": 7075,
      "рассказывать": 7076,
      "надцати": 7077,
      "ремеик": 7078,
      "кари": 7079,
      "прису": 7080,
      "остальным": 7081,
      "смеи": 7082,
      "образу": 7083,
      "портре": 7084,
      "полицеиского": 7085,
      "четырех": 7086,
      "рядо": 7087,
      "переди": 7088,
      "неитра": 7089,
      "команду": 7090,
      "отличным": 7091,
      "сотни": 7092,
      "провинци": 7093,
      "иству": 7094,
      "иван": 7095,
      "опе": 7096,
      "уступает": 7097,
      "недостаточно": 7098,
      "любителя": 7099,
      "происхо": 7100,
      "важнее": 7101,
      "аспек": 7102,
      "массу": 7103,
      "далеком": 7104,
      "рения": 7105,
      "мою": 7106,
      "альное": 7107,
      "ждут": 7108,
      "стремя": 7109,
      "смертью": 7110,
      "кость": 7111,
      "пафоса": 7112,
      "построе": 7113,
      "ченная": 7114,
      "чарль": 7115,
      "продолжать": 7116,
      "симпатии": 7117,
      "хую": 7118,
      "важное": 7119,
      "забыли": 7120,
      "кевин": 7121,
      "чрезвы": 7122,
      "вырос": 7123,
      "мужем": 7124,
      "пали": 7125,
      "встречаются": 7126,
      "характером": 7127,
      "заставил": 7128,
      "христиан": 7129,
      "харри": 7130,
      "мелодрамы": 7131,
      "джека": 7132,
      "классическии": 7133,
      "вернулся": 7134,
      "вающих": 7135,
      "перео": 7136,
      "серде": 7137,
      "отличное": 7138,
      "штампов": 7139,
      "поменя": 7140,
      "жии": 7141,
      "героинеи": 7142,
      "хими": 7143,
      "основан": 7144,
      "жом": 7145,
      "винов": 7146,
      "чут": 7147,
      "уверенностью": 7148,
      "чертовски": 7149,
      "сель": 7150,
      "гим": 7151,
      "поиске": 7152,
      "дности": 7153,
      "легкая": 7154,
      "вопреки": 7155,
      "сидит": 7156,
      "открывает": 7157,
      "духом": 7158,
      "бат": 7159,
      "комедиеи": 7160,
      "предупре": 7161,
      "ава": 7162,
      "непо": 7163,
      "руши": 7164,
      "оборо": 7165,
      "художника": 7166,
      "некую": 7167,
      "беда": 7168,
      "детскои": 7169,
      "вязы": 7170,
      "стандар": 7171,
      "кита": 7172,
      "производит": 7173,
      "отзывов": 7174,
      "лах": 7175,
      "вуль": 7176,
      "машина": 7177,
      "сказо": 7178,
      "непро": 7179,
      "чих": 7180,
      "манере": 7181,
      "господа": 7182,
      "новыми": 7183,
      "ярким": 7184,
      "избра": 7185,
      "оставит": 7186,
      "благополу": 7187,
      "молодежи": 7188,
      "цвето": 7189,
      "маски": 7190,
      "подводя": 7191,
      "ap": 7192,
      "смена": 7193,
      "фантастическии": 7194,
      "находятся": 7195,
      "песню": 7196,
      "дохнуть": 7197,
      "риге": 7198,
      "выпуска": 7199,
      "няется": 7200,
      "боюсь": 7201,
      "подда": 7202,
      "голливудских": 7203,
      "камер": 7204,
      "пользо": 7205,
      "занимается": 7206,
      "отом": 7207,
      "бления": 7208,
      "шутками": 7209,
      "сея": 7210,
      "пад": 7211,
      "значение": 7212,
      "создании": 7213,
      "плохим": 7214,
      "мото": 7215,
      "убивают": 7216,
      "обратить": 7217,
      "личное": 7218,
      "элизабет": 7219,
      "!).": 7220,
      "im": 7221,
      "просле": 7222,
      "проща": 7223,
      "эффектно": 7224,
      "половины": 7225,
      "кит": 7226,
      "послевку": 7227,
      "мертвецов": 7228,
      "центри": 7229,
      "класса": 7230,
      "управля": 7231,
      "женного": 7232,
      "клы": 7233,
      "красоту": 7234,
      "отличнои": 7235,
      "желать": 7236,
      "уверена": 7237,
      "тение": 7238,
      "задеиство": 7239,
      "музыке": 7240,
      "формирова": 7241,
      "дальнеишем": 7242,
      "упомянуть": 7243,
      "нетерпе": 7244,
      "интересу": 7245,
      "кир": 7246,
      "кина": 7247,
      "удивил": 7248,
      "уил": 7249,
      "no": 7250,
      "кардина": 7251,
      "среднего": 7252,
      "супергерои": 7253,
      "представления": 7254,
      "проститут": 7255,
      "лизм": 7256,
      "общая": 7257,
      "новому": 7258,
      "mar": 7259,
      "ватель": 7260,
      "приба": 7261,
      "жир": 7262,
      "джонс": 7263,
      "менныи": 7264,
      "пустил": 7265,
      "апло": 7266,
      "спря": 7267,
      "красивую": 7268,
      "порт": 7269,
      "гости": 7270,
      "зиеи": 7271,
      "долю": 7272,
      "шир": 7273,
      "гения": 7274,
      "насладиться": 7275,
      "оставаться": 7276,
      "семеиства": 7277,
      "хоррора": 7278,
      "злом": 7279,
      "риск": 7280,
      "мифо": 7281,
      "активно": 7282,
      "последнюю": 7283,
      "етесь": 7284,
      "капитана": 7285,
      "сторонои": 7286,
      "сложнее": 7287,
      "языке": 7288,
      "быстре": 7289,
      "способность": 7290,
      "полицеиских": 7291,
      "ющимися": 7292,
      "производства": 7293,
      "ложь": 7294,
      "некои": 7295,
      "дворе": 7296,
      "апо": 7297,
      "капли": 7298,
      "запутан": 7299,
      "хронометража": 7300,
      "поверьте": 7301,
      "логики": 7302,
      "ближаи": 7303,
      "дэи": 7304,
      "кать": 7305,
      "реф": 7306,
      "сятся": 7307,
      "лени": 7308,
      "судьбе": 7309,
      "забро": 7310,
      "высоком": 7311,
      "беспоща": 7312,
      "25": 7313,
      "лето": 7314,
      "спектак": 7315,
      "рыми": 7316,
      "ровки": 7317,
      "падения": 7318,
      "удоб": 7319,
      "рису": 7320,
      "обошлось": 7321,
      "сложныи": 7322,
      "падение": 7323,
      "рьез": 7324,
      "невин": 7325,
      "динамичныи": 7326,
      "насилие": 7327,
      "стка": 7328,
      "смесь": 7329,
      "оскара": 7330,
      "недав": 7331,
      "небе": 7332,
      "нелоги": 7333,
      "приезжает": 7334,
      "циям": 7335,
      "прекрасное": 7336,
      "выражение": 7337,
      "секун": 7338,
      "матерью": 7339,
      "оттого": 7340,
      "пишу": 7341,
      "доброе": 7342,
      "любые": 7343,
      "скре": 7344,
      "валь": 7345,
      "чением": 7346,
      "прогу": 7347,
      "стых": 7348,
      "масса": 7349,
      "очередного": 7350,
      "рокки": 7351,
      "яс": 7352,
      "сильным": 7353,
      "категори": 7354,
      "сыном": 7355,
      "смысли": 7356,
      "произвел": 7357,
      "обилие": 7358,
      "ассоции": 7359,
      "неподража": 7360,
      "подруга": 7361,
      "напряжения": 7362,
      "упра": 7363,
      "лив": 7364,
      "выходят": 7365,
      "ставил": 7366,
      "чье": 7367,
      "актерским": 7368,
      "бессмерт": 7369,
      "старше": 7370,
      "диалогами": 7371,
      "сравнении": 7372,
      "зажи": 7373,
      "персонажу": 7374,
      "личного": 7375,
      "эпизоди": 7376,
      "приходилось": 7377,
      "тке": 7378,
      "нала": 7379,
      "леса": 7380,
      "занимает": 7381,
      ".)": 7382,
      "дря": 7383,
      "тень": 7384,
      "привлекает": 7385,
      "ненависти": 7386,
      "годами": 7387,
      "нашли": 7388,
      "заез": 7389,
      "хаи": 7390,
      "неиших": 7391,
      "недостаток": 7392,
      "фантастика": 7393,
      "джеисон": 7394,
      "столк": 7395,
      "городок": 7396,
      "повер": 7397,
      "долгие": 7398,
      "американцев": 7399,
      "желанием": 7400,
      "маленькие": 7401,
      "скепти": 7402,
      "тысячи": 7403,
      "мнения": 7404,
      "важныи": 7405,
      "расследование": 7406,
      "всерьез": 7407,
      "правды": 7408,
      "архи": 7409,
      "фото": 7410,
      "девочек": 7411,
      "демонстра": 7412,
      "шля": 7413,
      "кос": 7414,
      "мекси": 7415,
      "ренныи": 7416,
      "гит": 7417,
      "прекрасна": 7418,
      "жители": 7419,
      "обратно": 7420,
      "позд": 7421,
      "римеи": 7422,
      "машину": 7423,
      "новогод": 7424,
      "гол": 7425,
      "рут": 7426,
      "исследо": 7427,
      "линча": 7428,
      "узнаем": 7429,
      "внешностью": 7430,
      "живое": 7431,
      "обраща": 7432,
      "диалог": 7433,
      "максимум": 7434,
      "тысяч": 7435,
      "тщательно": 7436,
      "воли": 7437,
      "пасса": 7438,
      "материа": 7439,
      "фанат": 7440,
      "силами": 7441,
      "исключение": 7442,
      "вдохно": 7443,
      "правильныи": 7444,
      "странным": 7445,
      "отобра": 7446,
      "поимет": 7447,
      "магази": 7448,
      "опу": 7449,
      "неспе": 7450,
      "представителеи": 7451,
      "следствие": 7452,
      "стремится": 7453,
      "ввиду": 7454,
      "пун": 7455,
      "леди": 7456,
      "пустои": 7457,
      "'-": 7458,
      "аккура": 7459,
      "величаи": 7460,
      "операторскои": 7461,
      "уверенно": 7462,
      "расстрои": 7463,
      "влению": 7464,
      "обыкновен": 7465,
      "актерах": 7466,
      "сии": 7467,
      "стив": 7468,
      "добрым": 7469,
      "данных": 7470,
      "процессе": 7471,
      "наблюдаем": 7472,
      "малеи": 7473,
      "употре": 7474,
      "иное": 7475,
      "актив": 7476,
      "стрель": 7477,
      "вость": 7478,
      "меры": 7479,
      "вости": 7480,
      "тация": 7481,
      "нутся": 7482,
      "функ": 7483,
      "ролями": 7484,
      "пада": 7485,
      "брюса": 7486,
      "аристо": 7487,
      "тату": 7488,
      "стые": 7489,
      "евреи": 7490,
      "природе": 7491,
      "третьего": 7492,
      "заниматься": 7493,
      "многочисленные": 7494,
      "филип": 7495,
      "работают": 7496,
      "заслуженно": 7497,
      "непод": 7498,
      "танец": 7499,
      "совести": 7500,
      "полным": 7501,
      "статисти": 7502,
      "впереди": 7503,
      "фено": 7504,
      "однообраз": 7505,
      "стиля": 7506,
      "заслуга": 7507,
      "помните": 7508,
      "000": 7509,
      "плавно": 7510,
      "некоторым": 7511,
      "север": 7512,
      "стыдно": 7513,
      "титрах": 7514,
      "пациен": 7515,
      "швар": 7516,
      "бает": 7517,
      "врагов": 7518,
      "тости": 7519,
      "живается": 7520,
      "советских": 7521,
      "глупости": 7522,
      "направ": 7523,
      "кост": 7524,
      "чистои": 7525,
      "чивыи": 7526,
      "жестокии": 7527,
      "камерои": 7528,
      "чков": 7529,
      "живая": 7530,
      "льному": 7531,
      "ллера": 7532,
      "актрис": 7533,
      "пожертво": 7534,
      "вкусом": 7535,
      "ваешься": 7536,
      "скан": 7537,
      "деталь": 7538,
      "кинотеатр": 7539,
      "ваюсь": 7540,
      "притяга": 7541,
      "менным": 7542,
      "молодым": 7543,
      "мартин": 7544,
      "дную": 7545,
      "прочее": 7546,
      "разница": 7547,
      "инду": 7548,
      "триви": 7549,
      "шенного": 7550,
      "внешности": 7551,
      "сущность": 7552,
      "предмет": 7553,
      "обыгра": 7554,
      "торже": 7555,
      "отвращение": 7556,
      "порядо": 7557,
      "приемы": 7558,
      "очередную": 7559,
      "мелочи": 7560,
      "эдди": 7561,
      "гги": 7562,
      "доброго": 7563,
      "изменения": 7564,
      "опыта": 7565,
      "интересными": 7566,
      "движение": 7567,
      "готови": 7568,
      "романтическая": 7569,
      "интерье": 7570,
      "захватывающии": 7571,
      "дика": 7572,
      "любую": 7573,
      "прекрасен": 7574,
      "манипу": 7575,
      "иорк": 7576,
      "лке": 7577,
      "беззабо": 7578,
      "отношусь": 7579,
      "существуют": 7580,
      "мужик": 7581,
      "риф": 7582,
      "безуми": 7583,
      "вампир": 7584,
      "блокбастер": 7585,
      "решать": 7586,
      "сергеи": 7587,
      ":-": 7588,
      "ушел": 7589,
      "пережить": 7590,
      "красотои": 7591,
      "незаметно": 7592,
      "фле": 7593,
      "умереть": 7594,
      "ответить": 7595,
      "увидим": 7596,
      "вано": 7597,
      "заблу": 7598,
      "киану": 7599,
      "лишнии": 7600,
      "lu": 7601,
      "избежать": 7602,
      "лишнего": 7603,
      "информации": 7604,
      "нагруз": 7605,
      "зате": 7606,
      "отпу": 7607,
      "желает": 7608,
      "пришла": 7609,
      "нько": 7610,
      "элли": 7611,
      "зар": 7612,
      "выводы": 7613,
      "собственную": 7614,
      "фильмографи": 7615,
      "ответственность": 7616,
      "анимация": 7617,
      "мужчинои": 7618,
      "оставляя": 7619,
      "наслаждаться": 7620,
      "равнове": 7621,
      "концовку": 7622,
      "меж": 7623,
      "щена": 7624,
      "жная": 7625,
      "бег": 7626,
      "факты": 7627,
      "изуми": 7628,
      "чернои": 7629,
      "плюсом": 7630,
      "возьми": 7631,
      "глупыи": 7632,
      "сочетание": 7633,
      "метро": 7634,
      "удалась": 7635,
      "линч": 7636,
      "джули": 7637,
      "отвечает": 7638,
      "оружия": 7639,
      "статус": 7640,
      "фраг": 7641,
      "ама": 7642,
      "творить": 7643,
      "важных": 7644,
      "неот": 7645,
      "сочи": 7646,
      "преувели": 7647,
      "щиков": 7648,
      "происходило": 7649,
      "известным": 7650,
      "ненных": 7651,
      "машине": 7652,
      "сущности": 7653,
      "галакти": 7654,
      "нили": 7655,
      "заря": 7656,
      "кровью": 7657,
      "!'.": 7658,
      "знали": 7659,
      "моментами": 7660,
      "ште": 7661,
      "выби": 7662,
      "общую": 7663,
      "ливает": 7664,
      "вышли": 7665,
      "мутан": 7666,
      "пунк": 7667,
      "советскои": 7668,
      "отдельных": 7669,
      "комнате": 7670,
      "иного": 7671,
      "сарка": 7672,
      "черная": 7673,
      "достоиное": 7674,
      "причинои": 7675,
      "чудеса": 7676,
      "волосы": 7677,
      "чужих": 7678,
      "олд": 7679,
      "преслову": 7680,
      "импера": 7681,
      "пустили": 7682,
      "скорсе": 7683,
      "вшуюся": 7684,
      "дико": 7685,
      "любое": 7686,
      "схе": 7687,
      "шесть": 7688,
      "кинош": 7689,
      "городка": 7690,
      "семи": 7691,
      "исторических": 7692,
      "разнообрази": 7693,
      "оскор": 7694,
      "роко": 7695,
      "еты": 7696,
      "считается": 7697,
      "комедииныи": 7698,
      "заставляя": 7699,
      "поворотов": 7700,
      "пронзи": 7701,
      "перевопло": 7702,
      "бытия": 7703,
      "родителями": 7704,
      "бесспор": 7705,
      "лишних": 7706,
      "заставит": 7707,
      "дурац": 7708,
      "являет": 7709,
      "пытаться": 7710,
      "предыдущие": 7711,
      "достижения": 7712,
      "дном": 7713,
      "дире": 7714,
      "плохое": 7715,
      "запоминается": 7716,
      "немногих": 7717,
      "нила": 7718,
      "крепкии": 7719,
      "броси": 7720,
      "покупа": 7721,
      "прочувствовать": 7722,
      "справедливость": 7723,
      "слабыи": 7724,
      "зану": 7725,
      "чению": 7726,
      "даст": 7727,
      "делая": 7728,
      "творя": 7729,
      "будьте": 7730,
      "встречается": 7731,
      "раиан": 7732,
      "изу": 7733,
      "альности": 7734,
      "брасы": 7735,
      "фредди": 7736,
      "жным": 7737,
      "будешь": 7738,
      "пети": 7739,
      "фла": 7740,
      "стару": 7741,
      "грань": 7742,
      "реальныи": 7743,
      "называть": 7744,
      "тяго": 7745,
      "гур": 7746,
      "началось": 7747,
      "порадовали": 7748,
      "впечатлил": 7749,
      "предшествен": 7750,
      "моим": 7751,
      "тывал": 7752,
      "понимая": 7753,
      "классикои": 7754,
      "сверхъ": 7755,
      "дик": 7756,
      "пель": 7757,
      "примере": 7758,
      "убииц": 7759,
      "продюсеры": 7760,
      "лова": 7761,
      "сово": 7762,
      "недоумение": 7763,
      "чрезвычаино": 7764,
      "вплоть": 7765,
      "ллы": 7766,
      "настрои": 7767,
      "питера": 7768,
      "дерз": 7769,
      "ванного": 7770,
      "боги": 7771,
      "сидя": 7772,
      "легче": 7773,
      "девочку": 7774,
      "спут": 7775,
      "ллиан": 7776,
      "злои": 7777,
      "странная": 7778,
      "нужда": 7779,
      "актерские": 7780,
      "солнце": 7781,
      "скорсезе": 7782,
      "родных": 7783,
      "взаимоотношении": 7784,
      "ed": 7785,
      "ствовал": 7786,
      "забавные": 7787,
      "страшные": 7788,
      "истины": 7789,
      "агента": 7790,
      "иден": 7791,
      "неприя": 7792,
      "тана": 7793,
      "паца": 7794,
      "одних": 7795,
      "наивно": 7796,
      "приятная": 7797,
      "шекспи": 7798,
      "параллельно": 7799,
      "альтерна": 7800,
      "ig": 7801,
      "юр": 7802,
      "драк": 7803,
      "нье": 7804,
      "голливуде": 7805,
      "середины": 7806,
      "тематику": 7807,
      "стремление": 7808,
      "ффа": 7809,
      "всяком": 7810,
      "радовать": 7811,
      "битвы": 7812,
      "достоинство": 7813,
      "пут": 7814,
      "идем": 7815,
      "молодости": 7816,
      "представляют": 7817,
      "прелесть": 7818,
      "bo": 7819,
      "понимании": 7820,
      "энди": 7821,
      "нормаль": 7822,
      "основных": 7823,
      "приходят": 7824,
      "японии": 7825,
      "уголь": 7826,
      "неприятно": 7827,
      "берется": 7828,
      "обман": 7829,
      "труда": 7830,
      "адам": 7831,
      "французского": 7832,
      "пространство": 7833,
      "касс": 7834,
      "бовать": 7835,
      "восста": 7836,
      "безумия": 7837,
      "держаться": 7838,
      "надеяться": 7839,
      "охва": 7840,
      "фразу": 7841,
      "чному": 7842,
      "женскои": 7843,
      "годзи": 7844,
      "бьет": 7845,
      "согласитесь": 7846,
      "поступок": 7847,
      "шин": 7848,
      "голосом": 7849,
      "власте": 7850,
      "вкусу": 7851,
      "рада": 7852,
      "пропитан": 7853,
      "фее": 7854,
      "событиями": 7855,
      "относиться": 7856,
      "уничтожить": 7857,
      "франко": 7858,
      "еже": 7859,
      "нулся": 7860,
      "чемпи": 7861,
      "многогра": 7862,
      "зрение": 7863,
      "карьеры": 7864,
      "увидели": 7865,
      "вающего": 7866,
      "мыми": 7867,
      "препят": 7868,
      "детские": 7869,
      "мастерство": 7870,
      "заби": 7871,
      "выдержа": 7872,
      "мясо": 7873,
      "ходила": 7874,
      "альна": 7875,
      "двор": 7876,
      "недостатков": 7877,
      "14": 7878,
      "шве": 7879,
      "статься": 7880,
      "средневе": 7881,
      "др": 7882,
      "мужчину": 7883,
      "гос": 7884,
      "чил": 7885,
      "гипер": 7886,
      "абстра": 7887,
      "завораживает": 7888,
      "некое": 7889,
      "рио": 7890,
      "заки": 7891,
      "легенда": 7892,
      "сбор": 7893,
      "непросто": 7894,
      "сорт": 7895,
      "выглядеть": 7896,
      "мара": 7897,
      "шеннои": 7898,
      "недосказа": 7899,
      "абсурда": 7900,
      "справляется": 7901,
      "тился": 7902,
      "дишь": 7903,
      "высокии": 7904,
      "предысто": 7905,
      "неоднократно": 7906,
      "ею": 7907,
      "эмили": 7908,
      "глупые": 7909,
      "прочим": 7910,
      "ver": 7911,
      "пласти": 7912,
      "интересную": 7913,
      "спар": 7914,
      "яркои": 7915,
      "графики": 7916,
      "торопли": 7917,
      "горы": 7918,
      "призы": 7919,
      "эксцен": 7920,
      "!..": 7921,
      "создали": 7922,
      "переживает": 7923,
      "ступать": 7924,
      "использует": 7925,
      "вд": 7926,
      "зли": 7927,
      "нахо": 7928,
      "вав": 7929,
      "мерфи": 7930,
      "емую": 7931,
      "лео": 7932,
      "драме": 7933,
      "выидет": 7934,
      "триллеров": 7935,
      "испытыва": 7936,
      "вечером": 7937,
      "преследо": 7938,
      "краснои": 7939,
      "эксцентри": 7940,
      "ворот": 7941,
      "отвлека": 7942,
      "знакомства": 7943,
      "связаны": 7944,
      "силах": 7945,
      "содержание": 7946,
      "живопи": 7947,
      "серьезных": 7948,
      "знакомится": 7949,
      "номинации": 7950,
      "популярность": 7951,
      "наем": 7952,
      "лил": 7953,
      "написано": 7954,
      "материал": 7955,
      "догады": 7956,
      "прошел": 7957,
      "просматри": 7958,
      "убил": 7959,
      "потерять": 7960,
      "потреб": 7961,
      "нении": 7962,
      "старался": 7963,
      "молодец": 7964,
      "анимации": 7965,
      "воору": 7966,
      "рина": 7967,
      "гадать": 7968,
      "библи": 7969,
      "ами": 7970,
      "жко": 7971,
      "поми": 7972,
      "предполага": 7973,
      "наркотики": 7974,
      "альными": 7975,
      "черепа": 7976,
      "улицы": 7977,
      "сопроти": 7978,
      "митри": 7979,
      "чувствовал": 7980,
      "прямолинеи": 7981,
      "гармони": 7982,
      "хен": 7983,
      "семеиного": 7984,
      "водится": 7985,
      "отчаянно": 7986,
      "жизненные": 7987,
      "число": 7988,
      "встречу": 7989,
      "нигде": 7990,
      "монстр": 7991,
      "двери": 7992,
      "любая": 7993,
      "начинаются": 7994,
      "тяжелыи": 7995,
      "бояться": 7996,
      "подруги": 7997,
      "похвалить": 7998,
      "озе": 7999,
      "тельству": 8000,
      "поднимает": 8001,
      "одинаково": 8002,
      "нис": 8003,
      "лицу": 8004,
      "бывшего": 8005,
      "дикта": 8006,
      "балла": 8007,
      "сложные": 8008,
      "соби": 8009,
      "рекоменду": 8010,
      "иронии": 8011,
      "экономи": 8012,
      "констан": 8013,
      "особня": 8014,
      "скет": 8015,
      "произошед": 8016,
      "непринуж": 8017,
      "союз": 8018,
      "меша": 8019,
      "видя": 8020,
      "собственные": 8021,
      "продюсер": 8022,
      "тика": 8023,
      "воспи": 8024,
      "сделаны": 8025,
      "многими": 8026,
      "скрывается": 8027,
      "носится": 8028,
      "спорить": 8029,
      "россииских": 8030,
      "грязь": 8031,
      "нетерпением": 8032,
      "зин": 8033,
      "стет": 8034,
      "мистера": 8035,
      "вуд": 8036,
      "инс": 8037,
      "родриге": 8038,
      "продолжа": 8039,
      "подростка": 8040,
      "связано": 8041,
      "сига": 8042,
      "щихся": 8043,
      "сплы": 8044,
      "подумал": 8045,
      "ощуща": 8046,
      "взаим": 8047,
      "именем": 8048,
      "спасения": 8049,
      "ага": 8050,
      "нке": 8051,
      "точка": 8052,
      "выреза": 8053,
      "сюжетную": 8054,
      "дорога": 8055,
      "кадро": 8056,
      "воображение": 8057,
      "бами": 8058,
      "жь": 8059,
      "терпеть": 8060,
      "постарались": 8061,
      "такова": 8062,
      "поможет": 8063,
      "актеру": 8064,
      "последним": 8065,
      "спать": 8066,
      "показывали": 8067,
      "исключения": 8068,
      "михал": 8069,
      "сугубо": 8070,
      "врага": 8071,
      "рассказыва": 8072,
      "мозга": 8073,
      "пошлости": 8074,
      "поход": 8075,
      "неесте": 8076,
      "событие": 8077,
      "стараются": 8078,
      "композитора": 8079,
      "повседнев": 8080,
      "услыша": 8081,
      "небес": 8082,
      "теха": 8083,
      "анны": 8084,
      "определенные": 8085,
      "особыи": 8086,
      "пень": 8087,
      "ричар": 8088,
      "боев": 8089,
      "праве": 8090,
      "всплы": 8091,
      "пки": 8092,
      "коре": 8093,
      "выразить": 8094,
      "приори": 8095,
      "исход": 8096,
      "единственнои": 8097,
      "лога": 8098,
      "лову": 8099,
      "бек": 8100,
      "появились": 8101,
      "лос": 8102,
      "трин": 8103,
      "подобным": 8104,
      "остановить": 8105,
      "живым": 8106,
      "целых": 8107,
      "перебор": 8108,
      "славы": 8109,
      "помогают": 8110,
      "поклонники": 8111,
      "эпизода": 8112,
      "умирает": 8113,
      "свидетель": 8114,
      "дверь": 8115,
      "надума": 8116,
      "неудивительно": 8117,
      "нув": 8118,
      "джоб": 8119,
      "впечатлении": 8120,
      "ренс": 8121,
      "негодя": 8122,
      "переживании": 8123,
      "смит": 8124,
      "слэше": 8125,
      "мария": 8126,
      "списке": 8127,
      "попутно": 8128,
      "сосредото": 8129,
      "нори": 8130,
      "рациона": 8131,
      "ват": 8132,
      "тельнее": 8133,
      "щаясь": 8134,
      "труп": 8135,
      "грехи": 8136,
      "семеиных": 8137,
      "одиночестве": 8138,
      "отличаются": 8139,
      "яма": 8140,
      "незнаком": 8141,
      "роу": 8142,
      "лест": 8143,
      "ждено": 8144,
      "происходящему": 8145,
      "одиночества": 8146,
      "прошлым": 8147,
      "дмитри": 8148,
      "тр": 8149,
      "уха": 8150,
      "сокрови": 8151,
      "деиствует": 8152,
      "фаши": 8153,
      "низко": 8154,
      "изыска": 8155,
      "всякого": 8156,
      "страшного": 8157,
      "необыкнов": 8158,
      "жертва": 8159,
      "ie": 8160,
      "спер": 8161,
      "росси": 8162,
      "вины": 8163,
      "рукои": 8164,
      "шены": 8165,
      "россиискии": 8166,
      "отрицательных": 8167,
      "стремительно": 8168,
      "костюм": 8169,
      "выте": 8170,
      "долги": 8171,
      "логика": 8172,
      "финальных": 8173,
      "еру": 8174,
      "леона": 8175,
      "чивая": 8176,
      "моск": 8177,
      "бродя": 8178,
      "сравнение": 8179,
      "мотив": 8180,
      "хичко": 8181,
      "ступление": 8182,
      "шенных": 8183,
      "романтики": 8184,
      "банальныи": 8185,
      "справедли": 8186,
      "высмеи": 8187,
      "кризис": 8188,
      "пальца": 8189,
      "бары": 8190,
      "экстра": 8191,
      "неплохие": 8192,
      "посвящен": 8193,
      "уделя": 8194,
      "превзо": 8195,
      "велико": 8196,
      "невыноси": 8197,
      "глянуть": 8198,
      "сталлоне": 8199,
      "реальностью": 8200,
      "премии": 8201,
      "ступления": 8202,
      "боевых": 8203,
      "раскрыты": 8204,
      "открыть": 8205,
      "разному": 8206,
      "ценностеи": 8207,
      "андреи": 8208,
      "аналоги": 8209,
      "процентов": 8210,
      "гротеск": 8211,
      "ватыи": 8212,
      "шести": 8213,
      "великолепнои": 8214,
      "неуклю": 8215,
      "спасение": 8216,
      "механи": 8217,
      "немножко": 8218,
      "заново": 8219,
      "приятным": 8220,
      "считал": 8221,
      "художник": 8222,
      "творчеством": 8223,
      "ряды": 8224,
      "инопланет": 8225,
      "оль": 8226,
      "слуши": 8227,
      "парнем": 8228,
      "воздуш": 8229,
      "зиру": 8230,
      "любому": 8231,
      "антураж": 8232,
      "?'.": 8233,
      "зме": 8234,
      "стану": 8235,
      "марша": 8236,
      "194": 8237,
      "старались": 8238,
      "восторга": 8239,
      "пишет": 8240,
      "смеши": 8241,
      "ставили": 8242,
      "сопровожда": 8243,
      "джордж": 8244,
      "жке": 8245,
      "привести": 8246,
      "летает": 8247,
      "означает": 8248,
      "сбе": 8249,
      "регу": 8250,
      "ждем": 8251,
      "бесполез": 8252,
      "зали": 8253,
      "читала": 8254,
      "нку": 8255,
      "враг": 8256,
      "звуки": 8257,
      "стрит": 8258,
      "лэн": 8259,
      "нагнета": 8260,
      "льет": 8261,
      "чам": 8262,
      "шением": 8263,
      "доброи": 8264,
      "мужскои": 8265,
      "радио": 8266,
      "превратился": 8267,
      "услышать": 8268,
      "предпоч": 8269,
      "отсутствия": 8270,
      "натали": 8271,
      "эволю": 8272,
      "билли": 8273,
      "авторам": 8274,
      "фантазия": 8275,
      "нерв": 8276,
      "чувствами": 8277,
      "любимые": 8278,
      "зь": 8279,
      "несут": 8280,
      "пота": 8281,
      "выдели": 8282,
      "данным": 8283,
      "прекрасную": 8284,
      "семеинои": 8285,
      "поиск": 8286,
      "подкупа": 8287,
      "энн": 8288,
      "ситуациях": 8289,
      "гомосексу": 8290,
      "верныи": 8291,
      "герое": 8292,
      "знакомыи": 8293,
      "похвастаться": 8294,
      "кэме": 8295,
      "махи": 8296,
      "богом": 8297,
      "подростки": 8298,
      "проекте": 8299,
      "джексон": 8300,
      "принц": 8301,
      "отдельная": 8302,
      "жизненныи": 8303,
      "тюрьмы": 8304,
      "принципи": 8305,
      "борьбу": 8306,
      "ждои": 8307,
      "фбр": 8308,
      "посовето": 8309,
      "оригинальным": 8310,
      "ощущается": 8311,
      "трудности": 8312,
      "ответов": 8313,
      "кристофер": 8314,
      "иных": 8315,
      "изну": 8316,
      "краски": 8317,
      "представляется": 8318,
      "go": 8319,
      "взор": 8320,
      "показалась": 8321,
      "аку": 8322,
      "модель": 8323,
      "отста": 8324,
      "любители": 8325,
      "словах": 8326,
      "сплуа": 8327,
      "неадеква": 8328,
      "досмотреть": 8329,
      "погружа": 8330,
      "способа": 8331,
      "яркими": 8332,
      "оставив": 8333,
      "тюрьме": 8334,
      "препода": 8335,
      "прекрасного": 8336,
      "съемка": 8337,
      "мультфильмы": 8338,
      "знаменитого": 8339,
      "моги": 8340,
      "темои": 8341,
      "крути": 8342,
      "стреля": 8343,
      "всякие": 8344,
      "узнала": 8345,
      "ir": 8346,
      "зараба": 8347,
      "вее": 8348,
      "кривля": 8349,
      "публики": 8350,
      "аре": 8351,
      "эксплуа": 8352,
      "ent": 8353,
      "провиса": 8354,
      "мультфильмов": 8355,
      "интернет": 8356,
      "элис": 8357,
      "':": 8358,
      "устра": 8359,
      "рока": 8360,
      "соблю": 8361,
      "реннои": 8362,
      "строится": 8363,
      "шаи": 8364,
      "внимательно": 8365,
      "марка": 8366,
      "хер": 8367,
      "сэнд": 8368,
      "приста": 8369,
      "тывается": 8370,
      "помнить": 8371,
      "периода": 8372,
      "психологическии": 8373,
      "военных": 8374,
      "ур": 8375,
      "френ": 8376,
      "льны": 8377,
      "заработать": 8378,
      "соном": 8379,
      "рованныи": 8380,
      "сходить": 8381,
      "шутка": 8382,
      "шенные": 8383,
      "дорогои": 8384,
      "крати": 8385,
      "снимался": 8386,
      "сезонов": 8387,
      "огор": 8388,
      "нелов": 8389,
      "редкии": 8390,
      "режиссерская": 8391,
      "современности": 8392,
      "опасность": 8393,
      "сны": 8394,
      "како": 8395,
      "мил": 8396,
      "провер": 8397,
      "певи": 8398,
      "однокласс": 8399,
      "воспоминании": 8400,
      "обожаю": 8401,
      "чивать": 8402,
      "губ": 8403,
      "авторит": 8404,
      "границы": 8405,
      "сумбур": 8406,
      "язви": 8407,
      "владе": 8408,
      "лжи": 8409,
      "стоять": 8410,
      "служит": 8411,
      "серьезным": 8412,
      "мимика": 8413,
      "способом": 8414,
      "люси": 8415,
      "рассе": 8416,
      "чувствах": 8417,
      "динамики": 8418,
      "фанати": 8419,
      "!.": 8420,
      "картер": 8421,
      "пропита": 8422,
      "втор": 8423,
      "ванным": 8424,
      "еле": 8425,
      "усилия": 8426,
      "давая": 8427,
      "заяв": 8428,
      "больнои": 8429,
      "показывая": 8430,
      "послевкусие": 8431,
      "яи": 8432,
      "почер": 8433,
      "ковать": 8434,
      "миг": 8435,
      "лишним": 8436,
      "изло": 8437,
      "бир": 8438,
      "легким": 8439,
      "высшем": 8440,
      "требуется": 8441,
      "выпи": 8442,
      "показала": 8443,
      "кроется": 8444,
      "особое": 8445,
      "огромнои": 8446,
      "своеобразныи": 8447,
      "предположить": 8448,
      "бонда": 8449,
      "бина": 8450,
      "трепет": 8451,
      "экранах": 8452,
      "всюду": 8453,
      "привлечь": 8454,
      "la": 8455,
      "финальныи": 8456,
      "известная": 8457,
      "многочисленных": 8458,
      "контексте": 8459,
      "але": 8460,
      "деду": 8461,
      "слух": 8462,
      "всячески": 8463,
      "извините": 8464,
      "стки": 8465,
      "собственныи": 8466,
      "2000": 8467,
      "эпизоде": 8468,
      "шикарно": 8469,
      "рожда": 8470,
      "белого": 8471,
      "заключи": 8472,
      "прило": 8473,
      "люк": 8474,
      "лло": 8475,
      "наступает": 8476,
      "добави": 8477,
      "неба": 8478,
      "драку": 8479,
      "джерри": 8480,
      "полон": 8481,
      "профессии": 8482,
      "социальнои": 8483,
      "напоминают": 8484,
      "взрослыи": 8485,
      "вающеи": 8486,
      "ставят": 8487,
      "преступление": 8488,
      "разочаровал": 8489,
      "сфе": 8490,
      "соло": 8491,
      "высказы": 8492,
      "придет": 8493,
      "считая": 8494,
      "ппи": 8495,
      "кафе": 8496,
      "веке": 8497,
      "выдает": 8498,
      "случаев": 8499,
      "тенден": 8500,
      "символ": 8501,
      "назове": 8502,
      "шныи": 8503,
      "понятен": 8504,
      "симпатию": 8505,
      "уте": 8506,
      "подряд": 8507,
      "меняют": 8508,
      "создан": 8509,
      "эмоциями": 8510,
      "мировоз": 8511,
      "преступников": 8512,
      "пространстве": 8513,
      "хорошими": 8514,
      "рисовка": 8515,
      "зависимости": 8516,
      "трак": 8517,
      "цивилизации": 8518,
      "небре": 8519,
      "такси": 8520,
      "меть": 8521,
      "съе": 8522,
      "трогательныи": 8523,
      "оставляют": 8524,
      "берут": 8525,
      "стам": 8526,
      "чься": 8527,
      "макса": 8528,
      "проектов": 8529,
      "элемент": 8530,
      "умудри": 8531,
      "расслабиться": 8532,
      "жкои": 8533,
      "вита": 8534,
      "положительныи": 8535,
      "таковои": 8536,
      "вста": 8537,
      "лиши": 8538,
      "чино": 8539,
      "цер": 8540,
      "контак": 8541,
      "эпоха": 8542,
      "ъем": 8543,
      "понен": 8544,
      "фици": 8545,
      "цензу": 8546,
      "студия": 8547,
      "прямом": 8548,
      "бюдже": 8549,
      "намек": 8550,
      "семеиные": 8551,
      "щеннои": 8552,
      "целую": 8553,
      "личностеи": 8554,
      "советскии": 8555,
      "повзросле": 8556,
      "правил": 8557,
      "попытаться": 8558,
      "самостоятельно": 8559,
      "флэ": 8560,
      "тору": 8561,
      "порта": 8562,
      "мелодрамати": 8563,
      "неторопли": 8564,
      "рачивается": 8565,
      "бам": 8566,
      "тратить": 8567,
      "встретить": 8568,
      "согласен": 8569,
      "выру": 8570,
      "показ": 8571,
      "законы": 8572,
      "риско": 8573,
      "населения": 8574,
      "дарит": 8575,
      "доказывает": 8576,
      "получаем": 8577,
      "классныи": 8578,
      "харизматичныи": 8579,
      "лят": 8580,
      "придраться": 8581,
      "стым": 8582,
      "форд": 8583,
      "скотта": 8584,
      "vel": 8585,
      "заодно": 8586,
      "зирует": 8587,
      "напугать": 8588,
      "долеи": 8589,
      "отре": 8590,
      "бега": 8591,
      "плохая": 8592,
      "недоуме": 8593,
      "упре": 8594,
      "нашему": 8595,
      "дочер": 8596,
      "аф": 8597,
      "тиши": 8598,
      "ошибок": 8599,
      "выбраться": 8600,
      "праздник": 8601,
      "быстрее": 8602,
      "сения": 8603,
      "легкое": 8604,
      "молодежь": 8605,
      "обоитись": 8606,
      "рва": 8607,
      "наидется": 8608,
      "происходящим": 8609,
      "2012": 8610,
      "закрыть": 8611,
      "исправить": 8612,
      "иные": 8613,
      "первонача": 8614,
      "ата": 8615,
      "муви": 8616,
      "треуголь": 8617,
      "призрак": 8618,
      "представьте": 8619,
      "реплики": 8620,
      "вак": 8621,
      "сье": 8622,
      "терза": 8623,
      "способныи": 8624,
      "объем": 8625,
      "запла": 8626,
      "аля": 8627,
      "группе": 8628,
      "композитор": 8629,
      "лизма": 8630,
      "давать": 8631,
      "частях": 8632,
      "общения": 8633,
      "жую": 8634,
      "маик": 8635,
      "тима": 8636,
      "миллиар": 8637,
      "лучшем": 8638,
      "внуши": 8639,
      "динозав": 8640,
      "едет": 8641,
      "рос": 8642,
      "кури": 8643,
      "безразли": 8644,
      "важную": 8645,
      "законам": 8646,
      "дана": 8647,
      "жите": 8648,
      "роваться": 8649,
      "аллен": 8650,
      "реклам": 8651,
      "тэ": 8652,
      "мака": 8653,
      "софи": 8654,
      "женную": 8655,
      "светлое": 8656,
      "развитием": 8657,
      "нормальныи": 8658,
      "фанаты": 8659,
      "неожиданныи": 8660,
      "оттуда": 8661,
      "гибели": 8662,
      "няют": 8663,
      "школа": 8664,
      "динамика": 8665,
      "взрыв": 8666,
      "хова": 8667,
      "кули": 8668,
      "разума": 8669,
      "шикарныи": 8670,
      "рядно": 8671,
      "полна": 8672,
      "эгоисти": 8673,
      "кается": 8674,
      "киноленты": 8675,
      "трогательная": 8676,
      "невз": 8677,
      "покры": 8678,
      "кисло": 8679,
      "истинныи": 8680,
      "миллионы": 8681,
      "ора": 8682,
      "удачныи": 8683,
      "смешным": 8684,
      "забавных": 8685,
      "деиствующих": 8686,
      "любопы": 8687,
      "игнори": 8688,
      "свети": 8689,
      "надежде": 8690,
      "городке": 8691,
      "художественныи": 8692,
      "наполнен": 8693,
      "проникнов": 8694,
      "включи": 8695,
      "милые": 8696,
      "гип": 8697,
      "становиться": 8698,
      "великолепна": 8699,
      "подросток": 8700,
      "жертвои": 8701,
      "изменилось": 8702,
      "двоих": 8703,
      "перспекти": 8704,
      "боевики": 8705,
      "эффекта": 8706,
      "деиствовать": 8707,
      "младшии": 8708,
      "неплохим": 8709,
      "вовремя": 8710,
      "испуга": 8711,
      "изощ": 8712,
      "болезни": 8713,
      "зации": 8714,
      "стером": 8715,
      "сыгравшии": 8716,
      "млн": 8717,
      "несла": 8718,
      "выходе": 8719,
      "ух": 8720,
      "уор": 8721,
      "целая": 8722,
      "крик": 8723,
      "энтони": 8724,
      "умные": 8725,
      "просыпа": 8726,
      "пришли": 8727,
      "оригинальное": 8728,
      "мертвых": 8729,
      "томас": 8730,
      "закадро": 8731,
      "жар": 8732,
      "цио": 8733,
      "остав": 8734,
      "напомнил": 8735,
      "ur": 8736,
      "граду": 8737,
      "....": 8738,
      "доволен": 8739,
      "195": 8740,
      "отрицательные": 8741,
      "рассказывают": 8742,
      "кося": 8743,
      "контро": 8744,
      "выглядел": 8745,
      "очередное": 8746,
      "фанатам": 8747,
      "коллег": 8748,
      "брод": 8749,
      "лако": 8750,
      "территории": 8751,
      "ллен": 8752,
      "раскрыта": 8753,
      "компанию": 8754,
      "размышлении": 8755,
      "заим": 8756,
      "делено": 8757,
      "страшных": 8758,
      "составом": 8759,
      "суждено": 8760,
      "близо": 8761,
      "случая": 8762,
      "судьбои": 8763,
      "мозги": 8764,
      "снимается": 8765,
      "джима": 8766,
      "колори": 8767,
      "адапти": 8768,
      "растеря": 8769,
      "уэи": 8770,
      "гори": 8771,
      "задор": 8772,
      "довал": 8773,
      "рован": 8774,
      "аттрак": 8775,
      "замечательные": 8776,
      "возникают": 8777,
      "живем": 8778,
      "умом": 8779,
      "стся": 8780,
      "отдохнуть": 8781,
      "области": 8782,
      "блан": 8783,
      "неев": 8784,
      "положено": 8785,
      "трюки": 8786,
      "восьми": 8787,
      "синопси": 8788,
      "безграни": 8789,
      "насило": 8790,
      "реми": 8791,
      "проходят": 8792,
      "человеческое": 8793,
      "смотрибе": 8794,
      "реальная": 8795,
      "жизненных": 8796,
      "'!": 8797,
      "сжи": 8798,
      "таков": 8799,
      "добрых": 8800,
      "телефон": 8801,
      "деятельности": 8802,
      "ix": 8803,
      "дными": 8804,
      "топ": 8805,
      "тани": 8806,
      "целое": 8807,
      "исполняет": 8808,
      "ману": 8809,
      "доказы": 8810,
      "жек": 8811,
      "детских": 8812,
      "биографии": 8813,
      "австра": 8814,
      "карикатур": 8815,
      "ек": 8816,
      "рождение": 8817,
      "просит": 8818,
      "ющуюся": 8819,
      "цепля": 8820,
      "кью": 8821,
      "дат": 8822,
      "чили": 8823,
      "гин": 8824,
      "искую": 8825,
      "теряется": 8826,
      "проекты": 8827,
      "легенды": 8828,
      "выясняется": 8829,
      "преодоле": 8830,
      "одол": 8831,
      "чала": 8832,
      "беспокои": 8833,
      "прести": 8834,
      "современным": 8835,
      "остановиться": 8836,
      "мелан": 8837,
      "сках": 8838,
      "создавая": 8839,
      "смешная": 8840,
      "учеб": 8841,
      "запомнилась": 8842,
      "оружием": 8843,
      "безумныи": 8844,
      "?.": 8845,
      "sh": 8846,
      "иным": 8847,
      "готи": 8848,
      "выли": 8849,
      "смотрелись": 8850,
      "переживаешь": 8851,
      "корабль": 8852,
      "мистики": 8853,
      "россия": 8854,
      "выну": 8855,
      "нях": 8856,
      "писали": 8857,
      "собственное": 8858,
      "визуальныи": 8859,
      "мастерства": 8860,
      "президента": 8861,
      "силе": 8862,
      "большими": 8863,
      "заслуживают": 8864,
      "деревя": 8865,
      "кази": 8866,
      "думают": 8867,
      "догадаться": 8868,
      "et": 8869,
      "охра": 8870,
      "прошед": 8871,
      "хорошему": 8872,
      "убиицу": 8873,
      "победы": 8874,
      "оставили": 8875,
      "испытывает": 8876,
      "нче": 8877,
      "кота": 8878,
      "стность": 8879,
      "щиеся": 8880,
      "беспомощ": 8881,
      "избавиться": 8882,
      "руга": 8883,
      "красок": 8884,
      "претендует": 8885,
      "профессионально": 8886,
      "участников": 8887,
      "виноват": 8888,
      "дир": 8889,
      "бена": 8890,
      "совме": 8891,
      "колец": 8892,
      "меланхо": 8893,
      "побу": 8894,
      "рожден": 8895,
      "допусти": 8896,
      "числи": 8897,
      "финальнои": 8898,
      "документальныи": 8899,
      "коммуни": 8900,
      "чали": 8901,
      "разры": 8902,
      "ценить": 8903,
      "вспоминать": 8904,
      "нга": 8905,
      "пропустить": 8906,
      "белых": 8907,
      "чьеи": 8908,
      "случаях": 8909,
      "интриго": 8910,
      "примером": 8911,
      "глупость": 8912,
      "зерца": 8913,
      "ране": 8914,
      "бус": 8915,
      "значения": 8916,
      "казаться": 8917,
      "перестрелок": 8918,
      "шизо": 8919,
      "мели": 8920,
      "таина": 8921,
      "непривы": 8922,
      "зовать": 8923,
      "каби": 8924,
      "иденти": 8925,
      "испа": 8926,
      "праву": 8927,
      "правде": 8928,
      "формы": 8929,
      "восполь": 8930,
      "направлении": 8931,
      "государства": 8932,
      "океан": 8933,
      "электро": 8934,
      "безумие": 8935,
      "бесспорно": 8936,
      "рекомендуется": 8937,
      "ричи": 8938,
      "лар": 8939,
      "гад": 8940,
      "спас": 8941,
      "вспомните": 8942,
      "дерев": 8943,
      "защит": 8944,
      "безысходности": 8945,
      "эля": 8946,
      "сокра": 8947,
      "созерца": 8948,
      "вик": 8949,
      "положения": 8950,
      "понимаем": 8951,
      "мотоци": 8952,
      "жется": 8953,
      "мелочеи": 8954,
      "джар": 8955,
      "эмоциональныи": 8956,
      "водитель": 8957,
      "разочаро": 8958,
      "очи": 8959,
      "нынче": 8960,
      "зара": 8961,
      "чиком": 8962,
      "тузи": 8963,
      "развиваются": 8964,
      "достоиным": 8965,
      "брита": 8966,
      "чком": 8967,
      "викто": 8968,
      "билл": 8969,
      "сделает": 8970,
      "понимал": 8971,
      "команде": 8972,
      "амбициоз": 8973,
      "доля": 8974,
      "выдума": 8975,
      "произоидет": 8976,
      "ужастиков": 8977,
      "прикве": 8978,
      "полет": 8979,
      "широко": 8980,
      "ченное": 8981,
      "пачино": 8982,
      "смотрелась": 8983,
      "антони": 8984,
      "мечту": 8985,
      "стены": 8986,
      "схожи": 8987,
      "рождествен": 8988,
      "вве": 8989,
      "утом": 8990,
      "теили": 8991,
      "пев": 8992,
      "посреди": 8993,
      "милои": 8994,
      "жаются": 8995,
      "чкам": 8996,
      "вписывается": 8997,
      "выходя": 8998,
      "кинофестива": 8999,
      "всякии": 9000,
      "необычно": 9001,
      "путешествия": 9002,
      "мэи": 9003,
      "прочего": 9004,
      "виль": 9005,
      "суль": 9006,
      "деиствием": 9007,
      "уверенность": 9008,
      "повы": 9009,
      "чиваться": 9010,
      "являюсь": 9011,
      "верится": 9012,
      "переплета": 9013,
      "бюджетом": 9014,
      "миров": 9015,
      "исходя": 9016,
      "прекрасным": 9017,
      "радуют": 9018,
      "дополне": 9019,
      "вызывать": 9020,
      "излишне": 9021,
      "обстоятельствах": 9022,
      "революции": 9023,
      "эдвард": 9024,
      "изме": 9025,
      "дугла": 9026,
      "продолжают": 9027,
      "полагает": 9028,
      "all": 9029,
      "проникнуться": 9030,
      "спортив": 9031,
      "возвы": 9032,
      "многого": 9033,
      "обычным": 9034,
      "лот": 9035,
      "меров": 9036,
      "приносит": 9037,
      "бегу": 9038,
      "ценои": 9039,
      "слаб": 9040,
      "кал": 9041,
      "матри": 9042,
      "ходов": 9043,
      "привне": 9044,
      "падают": 9045,
      "назвал": 9046,
      "подачи": 9047,
      "тел": 9048,
      "сопли": 9049,
      "рующии": 9050,
      "стаби": 9051,
      "ковского": 9052,
      "множества": 9053,
      "сборы": 9054,
      "do": 9055,
      "узнав": 9056,
      "ларри": 9057,
      "веж": 9058,
      "пришло": 9059,
      "мян": 9060,
      "радоваться": 9061,
      "глубоким": 9062,
      "неизменно": 9063,
      "оу": 9064,
      "признание": 9065,
      "увиденного": 9066,
      "ляпов": 9067,
      "гуд": 9068,
      "восхища": 9069,
      "эван": 9070,
      "нереально": 9071,
      "классическои": 9072,
      "рыба": 9073,
      "баш": 9074,
      "свали": 9075,
      "хеи": 9076,
      "делается": 9077,
      "операции": 9078,
      "грязи": 9079,
      "проме": 9080,
      "реализма": 9081,
      "космос": 9082,
      "жор": 9083,
      "создавать": 9084,
      "врач": 9085,
      "идеали": 9086,
      "болезнь": 9087,
      "ридли": 9088,
      "отпускает": 9089,
      "безо": 9090,
      "десятки": 9091,
      "романтика": 9092,
      "религии": 9093,
      "мому": 9094,
      "вино": 9095,
      "слом": 9096,
      "двум": 9097,
      "талантом": 9098,
      "корру": 9099,
      "стное": 9100,
      "ваш": 9101,
      "понимаете": 9102,
      "средств": 9103,
      "среднестатисти": 9104,
      "контроли": 9105,
      "бки": 9106,
      "устрем": 9107,
      "сериалом": 9108,
      "картон": 9109,
      "динамично": 9110,
      "влюбля": 9111,
      "адрес": 9112,
      "ографи": 9113,
      "пете": 9114,
      "кух": 9115,
      "морально": 9116,
      "натяну": 9117,
      "риску": 9118,
      "манов": 9119,
      "тирует": 9120,
      "полиция": 9121,
      "раска": 9122,
      "мелодии": 9123,
      "странных": 9124,
      "счастлив": 9125,
      "катери": 9126,
      "тупои": 9127,
      "отличную": 9128,
      "фабу": 9129,
      "закономер": 9130,
      "тошно": 9131,
      "рено": 9132,
      "исторические": 9133,
      "оригинальная": 9134,
      "звездных": 9135,
      "эксперимент": 9136,
      "секунды": 9137,
      "скар": 9138,
      "подтек": 9139,
      "черту": 9140,
      "ризон": 9141,
      "вшееся": 9142,
      "лует": 9143,
      "работами": 9144,
      "блин": 9145,
      "закона": 9146,
      "элементар": 9147,
      "фотографи": 9148,
      "льва": 9149,
      "дожда": 9150,
      "французскии": 9151,
      "чужие": 9152,
      "делки": 9153,
      "эпизодах": 9154,
      "фигура": 9155,
      "дьявола": 9156,
      "хивает": 9157,
      "проявления": 9158,
      "клет": 9159,
      "бление": 9160,
      "правилам": 9161,
      "сознании": 9162,
      "дочерью": 9163,
      "жное": 9164,
      "оле": 9165,
      "русском": 9166,
      "выбрал": 9167,
      "оправдывает": 9168,
      "расти": 9169,
      "бодро": 9170,
      "изрядно": 9171,
      "подвод": 9172,
      "блещет": 9173,
      "десяток": 9174,
      "регуляр": 9175,
      "тузиа": 9176,
      "гнев": 9177,
      "яна": 9178,
      "сели": 9179,
      "зашка": 9180,
      "джонсон": 9181,
      "отомстить": 9182,
      "денныи": 9183,
      "поимут": 9184,
      "иза": 9185,
      "гламур": 9186,
      "годах": 9187,
      "красивое": 9188,
      "тонкии": 9189,
      "вкупе": 9190,
      "состояния": 9191,
      "европе": 9192,
      "тва": 9193,
      "неким": 9194,
      "позволяют": 9195,
      "охотно": 9196,
      "искром": 9197,
      "последок": 9198,
      "энтузиа": 9199,
      "марга": 9200,
      "отдельного": 9201,
      "счастливым": 9202,
      "улыбки": 9203,
      "решении": 9204,
      "англииского": 9205,
      "бессмысленно": 9206,
      "сочувствие": 9207,
      "вину": 9208,
      "фоном": 9209,
      "вниманием": 9210,
      "учить": 9211,
      "емом": 9212,
[...]
