#version: 0.2
т о
н о
н а
с т
н е
р а
п о
р о
к о
н и
л ь
к а
р е
г о
е т
в о
л и
р и
е н
н ы
в а
м о
т е
т ь
л о
д а
л а
с е
з а
т а
с я
д е
м а
к и
с о
л е
м и
д о
в е
м е
ч е
ж е
т и
п ро
в и
ф и
б о
ч то
д и
э то
б ы
п е
и з
с то
х о
в ы
фи ль
р у
м у
ст а
в се
л я
о т
с а
ч а
п ри
р ы
н у
с ь
л ю
ч и
ш е
щ е
с и
о б
ж и
ра з
д у
ль но
б е
ст и
к у
л у
ко то
ны и
ка к
ст ь
ни е
п а
м ы
ет ся
ш и
ен но
с ко
п ре
ж а
с во
ни я
филь м
ю т
г а
с мо
ч но
о н
г е
г и
ц и
щ и
ц е
с ки
ны е
но го
ны х
смо т
р я
е го
с ка
т ы
та к
м ен
т у
пе р
н я
б и
но и
в у
с у
на я
ен ь
п и
кото ры
мо ж
б у
г ра
д ет
ль ко
к ра
ро и
г ла
с ле
б а
з на
о д
. .
ны м
и н
а к
пе ре
ть ся
г да
по д
и с
з ы
ни и
ве р
е и
п у
д ру
ко и
ш а
о ч
п ра
д ля
те ль
ст в
оч ень
с ли
т ся
ко м
филь ма
д ы
ст во
в но
ч у
в ре
те льно
р ти
по л
о на
ст е
с ю
в ля
ш ь
и м
ро в
бо ль
л ся
мож но
ва ть
де и
х а
ни ма
и х
т я
с ло
смот ре
1 0
е м
ст ра
про сто
л ы
то м
ж ет
ж из
ак те
ко н
д ь
то лько
ю щи
л ен
к е
ц а
во з
че м
м не
с но
с ы
ло сь
да же
бе з
ну ю
ки но
ст ви
ра с
ва ет
щ а
г у
по сле
з и
ло ве
и сто
ка рти
е ще
ко гда
де ла
ф е
са мо
т ри
е сли
и ли
ка за
ка ж
к то
че ски
сю жет
н ь
п ы
исто ри
в ет
я т
н но
не т
со б
о ни
ро м
у же
че лове
ин те
в то
о ста
м ного
гла в
во и
м я
бы ло
с по
хо ро
е е
это т
а н
до л
ци и
мен я
сто я
та ки
хо ди
об ще
ж ен
ге рои
ге ро
не е
с ме
е сть
ст ва
пре д
со на
в з
по лу
с лу
во т
.. .
се ри
л ет
до б
се р
которы и
п ло
че го
ра бо
т ре
ц ен
б я
ст у
инте ре
ре жи
филь ме
режи с
ют ся
з о
но е
ко в
которы е
ны ми
пер сона
ш о
з ри
ла сь
то го
не и
ф о
ди н
ств енно
д ра
это м
мож ет
смотре ть
г ля
го во
но м
хо д
сто и
в ле
ко не
ни ка
т ра
с пе
н ра
ко го
те м
и гра
з да
ли сь
на ча
ва я
с це
ж но
ска за
ско и
это го
об раз
з де
х и
в я
лю би
в ши
все м
п ла
к ры
лу ч
э ти
ро ва
ле е
е в
ст ву
лю бо
ду ма
' ,
вре мя
ю ще
со зда
те ля
сть ю
ле и
ш у
г де
сце на
зде сь
вы и
ме р
то му
се бя
деи стви
т но
е му
ско го
боль ше
с ла
с си
что бы
к ру
ств ен
жиз ни
к ла
а льно
не го
ние м
ра я
ре д
хо тя
сери а
ва ется
' .
де р
по ня
бы л
чу в
бо лее
сво и
полу чи
но в
ме ни
ст ре
а ль
с ку
м но
к лю
в ра
) ,
ч ет
з у
са мы
бы ть
ж у
м ет
с ня
я вля
то в
д но
да н
им енно
ни х
) .
ве дь
коне чно
од на
про смот
кото ро
ма н
мо мен
от ли
мо и
нра ви
г ру
по каза
жиз нь
б ра
ту т
ло ги
ни ю
э кра
р т
ми на
сво еи
все го
те р
ко е
лю б
о дин
чи та
пол не
до во
из ве
ж да
ь е
у да
ло м
ски и
вы х
бу дет
к ри
пра в
интере с
к ре
ве ли
б ле
ли шь
ка н
ст ро
ве сь
сказа ть
г лу
ж де
акте р
о бы
д же
ка я
во с
ф а
от но
по ло
ска я
ходи т
воз можно
та м
пи са
че р
чи на
ско лько
стои т
е шь
бо и
х ва
щ у
ва ют
с дела
д ж
дру го
в ь
филь мо
ци я
од но
кото рая
со в
по ка
вы е
до м
к ти
ща я
во обще
ющи и
по тому
сцена ри
пе ча
ста вля
ки х
ро ль
раз у
ки и
ч ь
л ле
ни к
пра ви
не м
это му
все гда
и де
ц о
ст ы
то чно
л ли
геро я
се бе
рабо та
ста ви
д я
на стоя
по доб
к ро
ви де
ни чего
и ме
все х
на м
ч ныи
б ли
по нрави
у би
че му
с мы
го да
ра н
а т
то и
сто ро
после д
бу ду
му зы
ро д
пы та
ми ну
во го
это и
то же
ни м
ме ди
про ис
ше го
ле г
о жи
у ди
истори я
до ста
гово ри
режис се
по ве
т во
слу ча
ки е
мо гу
мо ло
бы ла
и г
лю деи
по нима
та кои
режис сер
п ря
ц ы
дру ги
у жа
о соб
геро ев
са м
ла н
ме ри
че ре
ди т
на и
ва л
ч ен
со вер
л енно
на д
те ли
ча сти
ко меди
кра си
ро ли
об ра
те леи
мно ги
вз гля
ка ми
просмот ра
печа т
пре кра
с па
с цен
да ет
в не
смот ри
т ру
ва н
э та
э к
ст но
фо р
явля ется
со бы
э н
да ть
на чина
ли чно
пло хо
бы ли
мо с
ка р
а вто
деистви тельно
в печат
сво ю
луч ше
которы х
каж ды
ж ду
и но
про ти
ми р
го ло
а мери
так же
ста в
о сно
а ли
о ри
х у
де ву
карти ны
смот ря
на с
ко ле
б ла
особ енно
д ен
отно ше
но ви
на ми
сы гра
ре н
ски х
на до
о бо
истори и
ст я
ша я
фильмо в
дет ь
лю ди
ча сть
ш енно
пере д
сто лько
ход я
ма ло
при ят
челове к
ше и
хоро шо
по чему
ти я
на з
со всем
бо р
акте ров
з е
то р
ши и
та н
ль ныи
э мо
о р
филь мы
мос фе
ат мосфе
зри теля
ц у
те х
ши х
у ж
жен щи
зы вает
деву ш
ва ли
ки м
а б
в ме
ст ве
одна ко
му ль
во про
челове ка
м ни
т ро
любо вь
с вя
кото рои
ва м
кажды и
ш ло
з ло
су т
мо н
в нима
про бле
ч ется
ка че
о со
се м
сво его
се и
же ла
без у
дру г
ви ди
по этому
дово льно
же ние
по смотреть
ро ди
з ре
ка кои
то т
д ва
с чита
ра к
во е
му ж
ю мо
по ч
ф фе
ва ния
ющи е
хо чется
ва ние
сво е
ну ть
ги на
жа н
ь ю
ну жно
вре мени
ма ти
каж ется
которо го
сту п
н ю
боль шо
ющи х
хо те
м енно
фи на
по мо
до и
хо ть
с вет
и то
же и
ро т
э ффе
з я
ре ши
д ень
р ю
ори гина
к ло
те ле
спо соб
п си
ме жду
о че
за ме
ру ю
от вет
у ме
акте ры
совер шенно
сериа л
ста л
карти на
ва ться
амери кан
ро де
ски е
я р
к т
сво их
ль ные
жи ть
ле ние
с с
су ще
ь я
вы м
музы ка
у чи
с нима
по р
не много
ожи да
об ъ
гла за
са ми
вы гля
бе с
ш ком
в ся
пре де
сте р
п я
не с
од нои
не сколько
а р
ку ю
н ныи
ча ст
со м
щи и
ка х
про дол
ку да
и ть
у спе
по ли
по хо
сли шком
2 0
к ни
ра до
клю че
чно и
по и
ря д
в полне
с разу
ско м
ю щая
ту а
ву ю
д ву
вши и
ч ные
вно е
ч ная
ше л
та кое
взгля д
льно и
де ло
па р
ф ан
о каза
т ен
доста точно
ш ен
ха рак
ча с
ству ет
г ре
по з
бо е
таки е
ль ных
то гра
ш но
при мер
интере сно
тель ныи
же ния
до ро
изве ст
н д
ч ки
уби и
ма с
по мина
ста нови
бе р
б ро
тя же
ди а
из о
ви деть
са ма
люб ви
ре ально
ф ран
ску ю
е дин
ко му
само го
персона жеи
на столько
во м
ве ри
на де
ти и
ка д
поч ти
само м
не ма
в стре
сло вно
весь ма
режиссе ра
ми ра
ме и
льно е
да ль
о щу
че скои
стви е
во д
боль ши
кон це
на вер
цо в
ма р
ще го
е мы
пере жи
ли н
то н
со лю
с лы
ско ре
пер ь
аб солю
ци ю
те перь
с к
прекра с
г ли
обще м
1 9
ч ных
ни ков
э ту
ма л
до в
ще ние
ни ть
е мо
по том
со вре
прав да
го д
пе ра
во л
де ле
ло в
гово ря
да ле
с ред
чув ство
бу дь
ско е
вы со
к ва
муль т
ра вно
ч ка
о м
юще и
сюжет а
чески и
те ря
ье з
ли бо
заме ча
по ль
по ста
сеи час
т ки
си туа
си м
нема тогра
зна ко
со н
не ве
момен т
о г
з ву
с ра
уди ви
рас кры
по па
ки нематогра
само е
те ри
не н
э п
глав ныи
ра ди
ет е
нача ла
вме сте
друго и
но сти
о преде
да вно
п лю
вели коле
ме нее
з ве
пол но
ма к
ну ж
вле ка
сло ва
ва ются
пер выи
в ну
чески х
не смотря
ви д
раз ви
со вет
б лю
не ль
ч ным
юще го
при н
сторо ны
эмо ции
льно го
фан та
ль ная
великоле п
ре ди
та лан
ка зы
чере з
каж до
мен та
сери и
сво им
истори ю
экра не
со бои
у зна
станови тся
кото рую
по жа
сер ьез
э и
коне ц
ре али
эти м
пра кти
соб ственно
сси и
ф ак
дер жа
х е
с ъ
к ров
че ство
ни ки
д ли
ва ла
ро ман
таки м
о ди
нель зя
це лом
би ра
ты и
ри и
ста ти
рас ска
от де
дол ж
у ров
многи е
абсолю тно
полу ча
о ча
таки х
по я
п ле
дол го
дву х
в роде
от кры
мал ень
то гда
дру га
с ма
н г
ме ста
ме ре
оче ред
самы и
бу д
ре и
мет ить
филь му
сцен ы
ку с
персона жа
в сю
ро да
б ен
вто рои
сценари и
в ла
ру с
ще е
об е
нно е
зна чи
н ные
ст еи
сле ду
про изве
которо е
дер жи
ни когда
и те
комеди и
к ли
у бе
ва ри
да р
ро ят
ти в
пла не
иг ры
ме ч
гла вное
од ного
у ве
о но
з ем
скоре е
акте ра
ле ния
бла года
о пера
карти н
лы и
дет е
сериа ла
ма ль
по т
жа ет
практи чески
смы с
отноше ния
персона ж
та кого
же сто
сдела ть
мину т
и дет
чу ть
ито ге
го р
ю сь
под ро
ставля ет
пер вых
щу ю
ствен ныи
по смотре
вз ро
вз я
ку ль
де ли
е ди
су дь
то к
персона жи
на блю
кра и
ст рои
чески е
ак три
де в
но сть
сер д
ко р
с пи
ще и
не р
ли я
зри тель
поня тно
ющи м
по стоя
за слу
щи х
но р
пер вои
в спо
глав ного
про е
ш ка
дру з
бое ви
лу и
проис ходя
проти во
стави ть
га ет
ду ше
кро ме
по мни
по зи
пы т
отли чно
случа е
у и
при зна
ско ль
у м
други х
ог ром
ва ж
шу ю
самы х
до стои
па ра
ти ть
си льно
карти не
на пря
ме ло
при нима
ре з
че ского
ле к
по до
сме ш
три лле
не за
собы тия
мо г
вы ше
об я
б ри
л л
зи и
щи е
ль ным
ви н
кра со
га н
ро вать
кла сси
пре вра
впечат ление
се к
ст ри
ски м
ди ть
игра ет
д ви
могу т
щ ен
чно го
ме сто
го род
кон ца
внима ние
спе ц
обя за
та и
глав ных
эффе к
оча рова
те лю
с ен
а на
мо м
поня ть
кото ром
дово ль
а л
по да
про во
ска з
об и
пси хо
ко ли
проис ходит
жа нра
не до
к стати
пя ть
кон цов
ш ла
ми ре
ш ки
чув ства
не плохо
говори ть
пока зы
дума ю
ф у
тво р
га р
проти в
хоте лось
ле з
буд то
де ся
ни будь
ши е
глу бо
даль ше
об ре
гра фи
ни за
ро ссии
пу сть
лег ко
си т
ста ть
ство м
э т
бо га
це и
ис полне
с ни
на пример
та ми
при сут
б ю
гра ни
ка м
в шего
тель ная
навер ное
со мне
выгля дит
ди и
о казы
ш ко
х ра
дж он
все и
сту па
не которые
то л
осо бо
ши м
ма и
б ло
о те
го то
за да
г ен
от метить
стра н
ни кто
ля ет
пот ря
г ро
за ба
созда тели
п ен
мо ра
де во
те ра
д жи
понрави лся
по во
поло жи
ци она
эти х
вто ро
роман ти
сно ва
у видеть
и на
се меи
тель ные
объ я
дра ма
по бе
стра ш
ка кие
карти ну
доб ро
ве се
вле ние
че ская
талан т
произве де
получи лся
клю чи
ти е
л ки
большо и
ино гда
само и
неве роят
при вы
ко ро
маль чи
в ен
го ду
я х
же м
вши х
ту р
ин три
д ре
прин ци
тя ну
пол ни
ри т
глав нои
нно м
дет еи
пу ска
ру ет
сво ем
ху до
о цен
об ла
до сто
сем ь
виде л
дол жен
ва с
поз во
на писа
сме р
о па
ход ят
дан ныи
у лы
зна ю
ше м
ве сти
ма тери
ты х
то ра
лли ву
от сут
оста ется
ч ку
благода ря
п ли
тельно и
осно в
но к
ет ра
за чем
це в
ка са
ло и
ко ва
пу сти
не обы
пожа луи
ри ть
та ет
на р
образ ом
вопро с
сло жно
и сти
зри телю
ни ми
та кая
раз и
од ним
по вто
име ет
н да
ви ть
че стно
по пу
д ве
про шло
жа ле
полно стью
го в
зве з
не на
ко ми
юще е
чи е
сво бо
ри з
стро е
момен ты
ли ца
герои ня
дале ко
до ба
сто ль
го лливу
те бя
сма три
ше е
про фе
ра м
вля ет
с реди
ко ло
дела ет
тель ных
до ма
ро к
ш ли
е сте
раз ве
которы м
прекра сно
буду т
дра мати
мо е
ци он
ж ды
кру г
ни ца
пове ство
тре ть
ис кус
дж о
наи ти
деистви я
да ют
нача ле
пер вые
потря са
сле до
ча сто
с ве
бли з
я вно
люби мы
та я
вя з
п ет
смотри тся
ба на
че и
ша ет
при чем
ще ния
ко мен
лен ты
свои ми
мо р
ми ро
да я
жа ть
дела ть
фанта сти
за хва
по теря
ста ра
ис кре
прият но
ча я
девуш ка
юмо р
получи лось
пол ня
ре комен
сло ж
вре ме
н ного
кри ти
р ь
у доволь
сто в
ко ман
со ци
бе ре
хоро шии
ми ни
мен ь
и гру
стви я
л ла
же рт
гру п
енно го
не возможно
хо чет
дете кти
комеди я
же нии
ля р
ко ра
ди нами
я сь
фильма х
со л
мы сли
и бо
собы тии
к ну
ры и
каждо го
ли ш
иде я
при ме
енно и
ходи тся
мы с
н ных
ис поль
ли це
е з
вши сь
пыта ется
за кон
ба н
пе и
за и
жде ние
больши н
во все
муж чи
ма на
ска жу
ры х
не в
с са
многи х
ре цен
ки ми
на помина
н с
д ю
вле ния
щи м
воз ра
ситуа ции
не у
вер ну
ты е
с пра
тяже нии
д э
о кру
лю дя
про тяжении
по ра
ль я
за д
экра низа
г ло
ви дно
зы ва
показа ть
кло н
чно е
вы зывает
дет и
теля м
фильмо м
при з
встре ча
ду ю
от кров
с не
каза лось
ре аль
види м
из мени
од ном
поня т
мо л
оди но
ч ную
во ра
в ни
самы м
други е
у ни
та х
совре менно
спо кои
ше к
по ла
во сто
со гла
об а
зре ли
уда лось
в ку
при ня
со жале
со стоя
хо чу
сме рти
жде ния
д жет
одно зна
пре ступ
си ль
ми мо
ду т
д жа
про из
н ная
вы ми
о ши
мо ти
за нима
но ве
лет а
э ле
глав ная
су пер
пред ста
за бы
те ма
ни как
лы е
по рои
зо м
спа си
ше дев
т вер
э м
поста нов
на х
оказы вается
ма ши
при чи
са у
ста ло
зри телеи
о це
наз вать
по м
ша ть
вши е
ва жно
тель ным
вер х
ощу щение
сло в
ли цо
зна ет
част ли
серд це
па ре
и л
говори т
бра ть
ста ла
ка ме
инте р
дума ть
пе ри
за мет
о к
про чем
фор ма
ста ли
во круг
рабо ты
сожале нию
тру дно
постоя нно
фо не
сво ему
пер вую
не му
ща ется
о чере
ви зу
с пу
не об
во пло
ц вет
с кры
жи вает
ра и
про смотре
ту ра
совре мен
но вого
сыгра л
смыс л
начина ет
ще му
луч ших
г ри
тельно го
ка ким
ма я
за то
ты ва
поло ви
подро ст
з ма
с частли
ш та
н нои
отно си
деистви е
пи та
у че
ге ни
за га
пробле мы
смотри те
лы х
атмосфе ра
в прочем
с прави
герои ни
люб лю
рабо ту
о пять
воз вра
мно же
сау нд
з м
па ру
на конец
сим па
ст ю
коли чество
тре н
ком па
20 0
вы ра
ше д
ужа с
ственно е
ла я
у ва
пу га
тво ре
бю джет
по клон
а лек
п ти
при ключе
улы б
пре ды
нно сть
к с
о з
о ру
пробле ма
сту пи
искре н
ду ши
ина че
с со
ча са
очере дь
но выи
нор ма
ра ду
уров не
съ ем
обо рот
ма ть
необ ходи
ленно и
ни ком
на ли
но ва
тельно е
смотре л
по радо
внима ния
и деи
пред ска
до сти
эп изо
зна ком
до к
талант ли
безу словно
ре ше
за ду
ми лли
в люб
самы е
ду ш
ре бен
очеред нои
но во
спаси бо
че ства
ме сте
к ве
ме ст
свя за
д жу
раз но
бу ква
те му
саунд тре
раз ли
не ра
ци еи
лен ы
види мо
обяза тельно
фа на
раз очарова
дан нои
пер вого
те к
в шая
по в
суще ство
са н
предска зу
мы ш
ор га
в до
на строе
де мон
ты м
си ли
в шеи
м ра
су ти
не что
профе сси
се з
вос хи
ге р
опера тор
друз ья
ис полни
попу ляр
бы вает
пря мо
есте ственно
ти т
исполне нии
с чет
ужа сов
ста р
етра ж
ка кая
пло х
ня я
де я
атмосфе ру
за па
тра ги
не сти
лен ные
х ро
e r
убе ди
места ми
помо щ
со ответ
логи и
ль та
пре тен
м э
поя ви
за ко
жда ть
льно м
юмо ра
ст ру
в ныи
по сте
д во
р э
плю с
взро слы
д ро
че скую
ча ется
харак тер
я по
ло со
у го
сня ть
женщи на
ка те
за бо
вну трен
чно сть
че ское
ешь ся
т ю
по го
понрави лось
t h
ва нием
день ги
теле м
хоте л
ц енно
пер вая
за ставляет
ния ми
чув ству
од ну
нно сти
ет и
дру ж
ка та
краи не
вспо мни
пере да
оста ви
а ни
со став
го м
про изо
и ле
лен ныи
начина ется
мульт фильм
люби т
ма стер
фран цу
i n
ю щую
каса ется
ще м
р д
по ступ
у части
значи т
ве дли
спец эффек
я зы
те бе
с часть
пу ти
диа ло
г ря
при я
ко рот
б ре
ти пи
смер ть
же на
те а
от ца
лен ных
актер скии
сама я
реали сти
бла го
мо з
вме сто
фи лосо
реши л
досто ин
чи вается
эмо циона
чески м
любо и
ва ло
авто р
на ру
жа л
де ре
вы з
ба р
вно м
ха риз
ри ца
бо я
про сти
интерес ныи
понрави лась
ре зу
под ру
то ч
кто в
диа логи
раз до
семь и
тра ди
все му
би т
жу т
раз ных
чи с
ща ет
голливу д
ко лле
ча ть
преды ду
сме я
резу льта
паре нь
жа ль
с ми
о писа
д ется
ан гли
за ви
вы зы
лы м
ми сти
го тов
прое к
нрави тся
пра вля
про сты
вре менно
обы чно
ни цы
спе ци
мер т
ти па
ва лся
па мя
а м
глав ные
со ставля
вос принима
буква льно
че ние
р ка
га ми
кла ды
нь я
о ска
наблю дать
аль ныи
женщи ны
хо ло
професси она
за помина
смы сле
стра нно
игра ть
кре п
отноше нии
стра да
фе р
ва нии
жела ние
счита ю
долж ны
бе спо
ито г
со прово
хо м
а да
жи ву
вои ны
которо му
пред ставля
сня т
ст ен
людя м
лег ен
на зад
ви дела
д ят
фина л
зре ния
го ды
поли цеи
э по
се год
за дума
т ка
ро н
не г
сегод ня
вне ш
психо логи
не уда
трилле р
ли за
ч ными
не ле
на сколько
ству ют
моло ды
ль ную
да нном
глу по
дол жно
не доста
го раздо
ки н
ходи ть
дру гу
тя ги
кри мина
харак те
ко стю
п ью
момен тов
пока зывает
девуш ки
ника ких
на ме
смо г
! !
и ска
ку р
глу би
со зна
случа ино
сколь ку
стви и
х уже
ча ет
си ла
хва тает
де ля
чно сти
пред стави
из од
тро га
смы сла
эп изод
явля ются
то чки
закон чи
по гру
снима ть
знако мы
пи сы
ственно и
друго м
ющи ми
муль ти
осо зна
случа и
ра ми
нача ло
и ти
. '
симпа ти
просмот ру
кро ви
пове де
a n
бор ь
с начала
поли ти
ред ко
все ми
любо в
a r
д ня
ствен ная
не которых
по ро
иде ально
мо ему
от вра
му ю
по скольку
бе ско
вер си
принци пе
ви да
оте ц
ствен ным
о хо
настоя щему
меч та
воз ника
ча и
моло де
зна мени
кар ье
че ния
чи сто
во дит
в заи
нь ше
у по
чу до
сю же
на ши
фак т
пла н
р ро
актри са
на оборот
жи л
це ль
чи т
бы стро
оста льные
жи т
ка ких
изве стно
по сред
восто р
сторо ну
ком пью
сериа ле
пу те
ли ть
уве ре
при влека
де л
ско му
хо да
наз вание
ре чь
на ш
раз ные
кинематогра фа
получа ется
оказа лся
окру жа
худо же
пу ть
вы да
ви ду
от рица
и так
я м
за щи
хо в
жи вет
актер ская
кла сс
р ри
ис ключи
каче стве
со бира
к л
мо го
глав ным
от ве
па н
си ть
знако ми
ти н
опреде ленно
ра ньше
o n
де кора
ли нии
на сла
на зы
по про
дан ного
соб ра
авто ры
сек су
о кон
удиви тельно
за ставля
ря дом
гла з
похо жи
ни ко
ев ро
вы шел
моло дои
звез д
пер во
вно вь
следу ет
мак си
жан р
с ке
дра мы
ры е
вя тся
уве рен
ствен ные
челове ком
лен та
ри я
н ным
невероят но
но вои
дже им
в друг
настоя щии
хоро ш
демон стри
ис ключе
ла д
пре жде
спу стя
мне ние
ло ж
про па
говоря т
голо ву
бо м
героя ми
за помни
откров енно
ли к
ги и
тру д
друз еи
ком пози
жесто ко
не ожида
мыс ль
ж о
раз дра
но вые
просмот р
зо ло
прави льно
го и
сло во
о стро
беско не
ды ха
ди я
чу де
мень ше
множе ство
за ня
ля х
эффе кт
не тся
вопро сы
взаи мо
друго го
в ряд
францу з
съ емо
ри со
ты вает
каж дои
е р
от ра
то на
про ш
не ожи
во спо
пра во
к еи
мо щ
ведли во
це ли
ступа ет
ет ь
просто и
сказа л
и мени
стя ми
по хва
си л
по пыт
разу ме
ру ки
оши б
ни з
че к
отли чныи
до ку
тель ства
со ба
посмотре л
ствен ных
у вы
ба л
дже и
ве ка
ме л
понима ю
спа са
кад ре
кра са
шедев р
ющии ся
сра вне
игра ют
раз ру
ста н
ши кар
кон ф
и ро
пре да
им я
о ли
ш ку
тель ную
раз гово
9 0
к рова
га ть
заба в
нар ко
де ль
за тяну
по является
во ди
исполь зо
з доро
о ти
ра за
ва р
до кто
воз ь
сле д
ственно го
ка кое
бу р
у ю
жи вот
от да
ма нья
про дю
от зы
ани ме
жизнь ю
20 1
0 0
до н
мет а
напомина ет
сра вни
воз мож
рекомен дую
ми и
за кан
сто м
иг рои
други м
иг ре
одно временно
япо н
ста но
показы вают
фи зи
дь ми
я сно
ли ния
смотре ла
емы и
по став
ре чи
и д
по коле
ча стью
сем ья
енно е
продол жение
зрели щ
се реди
ше му
возможно сть
ски ми
слу чи
ло го
за тем
со хра
англи и
исключи тельно
сте ра
лю дьми
вто рая
зом би
путе ше
ра нее
е ха
у влека
оба я
о фи
рабо т
ника кои
па фо
стра и
мо я
по рти
актер скои
у ма
те и
от чая
стви ем
краси во
ф он
к лу
а нима
а уди
га м
при ходится
рас су
вая сь
ве щи
сюже том
по ряд
пре вос
похо же
ш лось
вол ше
э л
луч шии
г ры
за стави
саундтре к
ду шу
кни ги
ми н
ста ри
волше б
друго е
детекти в
г не
по ме
ция х
ребен ка
зло деи
ф ри
спецэффек ты
чет ы
ли т
един ственныи
ва ми
виде о
сня л
те сь
ви дит
вы бра
s t
боеви к
го рода
ско ро
захва тыва
гря з
долж на
во лю
на ч
кра с
де нег
мас шта
удоволь ствие
вы бор
сдела л
сти ле
об стоя
же нием
си х
отде льно
хо рро
на шеи
сту ю
по мимо
вам пи
де м
б ля
ма не
пере сматри
вери ть
ка кого
из обра
за клю
к са
жиз нен
вшии ся
п ят
та кую
муж чина
не при
ни чно
па роди
шо у
пар ня
к э
вы с
r e
кре т
ми ру
тра ге
отсут ствие
впечат ления
бро са
и ди
ли и
сме ло
та ком
шу тки
заслу живает
теа тра
однозна чно
нь ю
вре мен
кру п
компью тер
вши м
ально и
жа ют
сла бо
жен ы
концов ка
ста нда
глаза ми
чувство вать
да ли
окон ча
ла дно
получи лась
доку мента
му м
? !
совет ую
в лия
мо гла
го лове
присут ствует
сло ви
про це
пе ни
боль шая
ан ти
много е
с ви
се ку
сто л
станда рт
со пережи
ри н
во в
ша р
су ть
да в
да лее
люби ть
на у
но сит
ме д
виде ли
де б
чи и
ном етраж
e n
и т
ме не
происходя щего
с се
би о
мо гли
стра не
чет вер
не во
послед ние
дж она
ауди то
за кры
ва лись
но чь
аб су
д ца
ло е
момен та
слы ша
бли же
раз ы
ти те
настрое ние
вз ры
чет а
послед нии
си лу
ет а
ра х
ш из
моло до
к ем
одна жды
и та
пу сты
ка т
си кве
жда ет
ску чно
эк ш
со се
ча р
оста вляет
геро ем
необходи мо
расска зы
га ют
лу ю
зи я
дже к
ужа сти
про ду
каж дая
стре ми
большин ство
сюжет е
тре х
б рю
та ин
ти л
ста нет
ну ться
дума л
воспо мина
глу пы
един ственное
жан ре
повество вания
ка кую
жа ло
реально сти
те мати
ле нии
th e
худо ж
не из
хо зя
а ген
в первые
со держа
рабо те
ш там
дела ют
посте п
неожида нно
до би
ак цен
си сте
це п
вну три
же ст
сол да
мы и
пол нои
тре иле
хоро шего
сме шно
больши м
образ о
ору жи
поня л
с п
ры м
подоб ных
краси вая
д ныи
о ст
оказа лось
ника кого
э пи
расска зывает
ва ешь
ту да
да л
ми я
раду ет
режис су
глав ную
пу та
не пло
бле стя
убии ства
во ро
па ль
ре ша
че ском
ду х
сторо н
из нача
при дется
сы на
ши ть
дели ть
ни ку
ис пы
сте пени
работа ть
пеи за
получи л
образ е
та ко
ре ли
кате го
му д
опа сно
ло к
же ли
прав до
созда ть
на много
шу т
8 0
то е
я в
ту ю
но вых
па три
таки ми
во к
безу м
прое кт
хоро шая
вто рых
обще ства
хоро шее
пыта ются
вспо мина
у видел
нена ви
в ли
у н
до каза
сценари я
з ря
глаза х
постеп енно
чи ть
сим во
понима ет
па ри
второ сте
сдела ли
ши ро
спо р
коро ле
по шло
куль то
судь ба
дет ства
дево чка
бе рт
писа ть
милли о
на род
лен ная
оце ни
ме на
э ль
стра х
но вое
со ве
зага до
интри гу
образ и
объ е
у о
съем ки
нача лу
ре бе
не сколь
пробле м
подоб ного
ющие ся
н к
задума ться
ч ке
ре кла
мон та
ру ко
ль ными
вы жи
пред ставляет
отли чие
ющих ся
про я
хоро шие
смо жет
вари ан
смея ться
си лы
чен ы
рецен зии
неплохо и
вои на
вы ходит
за п
которы ми
превос ход
ко л
цо м
о грани
бо ро
ско р
те мы
смотри шь
подро б
ты вая
вне шно
при ро
сыгра ла
ис пыта
пси хи
ри л
ти рова
у ста
наз ванием
происходя щее
ту ры
кинематогра фи
от куда
послед нее
с на
ста я
заду м
ма ни
реши ли
каж дом
оте че
у ника
зо в
отноше ние
о де
пу бли
со чета
пово ро
т ныи
бо к
ты ся
свое образ
ла м
п ру
ж енно
же шь
по ги
памя ти
ны не
ню ю
каждо му
вдо х
филосо ф
ва и
фран шиз
с ша
прошло го
ца ми
не понятно
теле ви
ме ль
стя х
сы н
пе сни
ну л
ж дет
эле мен
на полне
получи ть
не мало
ста ро
большо е
вспомни ть
оста льных
на ше
дан ная
д неи
но му
вос прия
спра ведливо
не понят
декора ции
со к
за вер
на пра
ка на
до чь
произведе ния
го н
ве че
приключе ния
a l
ди на
сло ву
бо л
челове ку
аль ная
деи ство
д ки
образ ы
картин ка
бес смыс
хо ду
оцен ка
судь бы
компа нии
оста лось
щ ет
ля ть
лично сти
интере со
узна ть
ля ми
при ходит
су мас
о собы
краи неи
теля ми
стра шно
ру ют
да бы
на шего
ди с
мя г
з ла
ва лась
фи гу
точ нее
ве дет
тре бу
понима ешь
мо еи
доб рыи
повество вание
ст ныи
д нои
д нев
каж у
га х
у э
ко ш
гар мо
превра ти
способ ен
хариз мати
o r
исполь зу
по тра
не чего
ха н
у слови
ре за
ли сти
противо стоя
осно вном
правдо подоб
зна ете
даль неи
по смотрите
зна ть
тельно сть
уни что
упо мя
го ро
к ле
л э
у кра
выгля дят
чи сле
любимы х
не о
пи ть
тельно сти
держи т
жиз не
бо лез
лет е
у ли
работа ет
понрави тся
изнача льно
чув ств
д жен
про ник
ника ми
вя за
чи к
успе ш
не сомне
наблю да
второсте пен
счасть е
у ча
ща ть
взя ть
бра т
подоб ра
ре бя
ри ю
о ку
опа с
разуме ется
сю да
ке р
но стью
ни чем
чер но
ха р
м нои
э д
мон ст
ти ло
сез она
ва лось
мо но
те лен
со ста
да м
ально го
вне зап
вы бо
от правля
лен те
великолеп но
време на
до ме
o u
к ен
во ен
мо в
ше ль
сыгра ли
раз мыш
льно сти
живу т
аль ных
оста нови
ро бо
возника ет
ро леи
сценари сты
женщи н
смы сло
от ы
мужчи ны
ни кому
стра ны
произведе ние
счита ть
по стави
пом ню
пре ж
п раз
б из
жи ли
19 9
о то
ленно го
тех ни
на ших
сюжет у
пер вое
ду хе
то ни
бло к
но си
режиссе ру
стро ен
второ го
вы ход
само му
по сы
! '
многи м
героя м
под нима
жу р
оска р
сце не
четы ре
я ми
ве л
при шлось
музы ку
пу сто
жи ва
по ставить
п ры
б ру
льно сть
пусти ть
ви л
по ко
дет а
во ло
не пре
боль шую
н ную
за м
сло жи
ствен ную
б ь
чески ми
приз ра
мальчи к
оста вля
хотя т
дра му
поль зу
га я
кни гу
пово ду
вле нии
. -
яр ко
та р
экраниза ции
похо ж
ха я
эк спе
мы м
ак ту
у с
на чи
пер вом
ция ми
сня то
посмотре ла
про чи
лет и
д ни
па де
го ря
при чина
аль ные
ве чно
сте ре
под чер
де ше
созда телеи
пи тан
ф ф
не жели
пред ло
пред ставить
к ля
не ц
геро ю
продю се
мы е
ста ет
ре шает
сти ль
ми ли
меня ется
у ны
искрен не
де мо
ме сти
стре м
впечат ли
девуш ку
ты ми
друго му
у мира
ника м
тер пе
режиссе ром
плохо и
душе в
начина ют
раз вяз
про ст
много м
краси вые
по ле
а де
исто ч
по ря
мину с
больше и
го спо
нес част
гра н
ск ром
за в
эффе ктов
по свя
му жи
па ро
тель ство
прекрас ныи
буду щее
ужа са
жела ния
гра м
ша бло
спа сти
сез он
до га
на ходится
над ца
дет стве
показа ли
су б
на ко
г на
согла си
пере дать
при ко
ро мана
ч о
пара лле
ребе нок
го ре
вы хода
роди телеи
зву ча
но ся
щи ми
пред ла
во ды
т нои
у част
ро ма
ч на
экш н
смот рю
о правда
интерес ным
сем ье
вы шло
о пыт
ма ри
под ра
био графи
ни цу
по рази
макси ма
на ро
це м
чудо ви
в клю
вопро сов
я н
м лад
зе р
сказ ка
3 0
ком на
обра за
ме ц
стно сти
под ня
ш пи
тю рь
поступ ки
вших ся
маи кл
по се
показа л
помощ ью
та ть
би ть
ид ти
зи рова
пере стре
сле г
поз же
подоб ные
эн д
ва ите
ис ку
пои ска
а д
а ла
настоя щая
каче ства
слег ка
мини мум
с ре
здоро во
стра ха
5 0
ну т
с ход
юмо ром
молоде ж
зри тели
! )
про стран
б ет
жи во
до ра
кон цу
ща ться
кон тра
вер ь
на сы
ис че
емы х
ше ние
мо их
оста лся
безу мно
серьез но
роль ю
и о
бо ли
отвра ти
подоб ное
хо тели
ля ют
кад ры
блок ба
си лия
л ка
сти н
вы я
по ки
дет ям
на ходя
свет а
под ходит
фа р
емы е
пи ра
чу жи
люб ят
на гра
с верх
се зо
серд ца
про чита
вы деля
од ни
люби телям
в кус
ли тера
ло г
поста ра
дж ор
хо тите
пре ду
пола га
мора ль
шу ток
голо с
х ри
помо чь
a t
искус ства
нес ет
творе ние
ше на
середи не
по пы
ти ем
р эн
раз вора
му жа
сло вом
заду мы
жа я
ни кого
любо м
реально сть
о прав
сценари ста
ло н
харак тера
о зву
кни ге
игра л
суще ствует
ня ка
чуде с
ч кои
ва на
да ми
при ми
свя з
глубо ко
кад ров
лен ным
деистви и
экспе ри
е два
чи во
бе ль
т рои
коми к
хоро шим
повто ря
от прави
уда ется
го ни
ша н
су пру
бо г
разви тия
несколь ких
с пло
показа но
бе зы
ви ли
сыгра ть
бри тан
груп пы
мог ло
отли чается
з во
обе ща
те ат
аде ква
г ром
по верх
ми ло
чно м
ше де
интересно е
про дума
по тен
хи е
ил лю
к ту
э нер
би н
мне нию
ско т
зи ю
ми ха
мо ре
ду ра
доб ра
участи ем
истори еи
други ми
э ро
послед них
инте лле
на всегда
гра мо
несомне нно
за вора
интерес ная
экра на
буду чи
держа ть
ва ю
l e
н ду
рас сказа
эле мента
на ка
ч енно
вызы вают
зо р
извест ныи
а рт
пре под
любо го
дет али
мас со
то вари
с вер
зна ют
кти в
иде ю
о тор
огром ное
нарко ти
созда ет
персонажа ми
по тре
оператор ская
подо зре
равно душ
го су
по чита
сла бы
ро берт
фор ме
основ нои
при вле
учи тывая
д ка
слова ми
лично сть
но с
лу а
отли чная
ч ны
ц ве
с нить
позво ляет
краса ви
ж ки
посмотре в
вшего ся
свя зи
р эи
зрителя м
во дя
цвет а
сти ть
уров ень
сю р
ти хо
кра т
объ еди
ру ку
сти ва
ужа сно
атмосфе р
масшта б
реши ла
результа те
фи и
го роде
време нем
на тура
и нои
музы ки
ощу щения
собственно и
на н
оцен ку
ри ка
ан ге
но вая
ственно сти
произ вод
ли шен
б эт
от сы
тяже ло
за быть
при гла
любовь ю
вои не
с ва
о не
иска ть
сем ью
полня ет
за ча
деся ти
ин ди
тяги вает
и дут
не прият
до ве
настоя щее
комеди ю
мо би
за це
оче видно
за интересо
хоро ших
мо сти
что б
уме ет
больши е
му ра
от ме
ви на
пережи вания
ем ся
жда л
ти вно
малень кии
ка ет
жа ется
много чис
спе к
по люби
пер вым
мину ты
б лу
ч рез
ге и
режиссе ров
справи лся
д ного
ма ма
со еди
че стве
сумас шед
интерес ен
госу дар
п ье
ин форма
высо ко
сами м
кров ь
п лен
вы рази
неожи дан
закан чи
начина ешь
чет ко
го дов
ря да
д ных
тель ными
ча ще
су щ
не ния
ты вать
наи более
ни н
начи ная
л д
э ст
на ходит
за метить
вы нуж
са х
отношения х
ственно сть
произо шло
ду ша
ста ту
музыка льное
ба я
попа дает
уби ть
не га
оче вид
реально и
актри сы
ката стро
евро пеи
а и
показа ны
прав ду
1 5
лы ми
сту дии
по началу
ку па
ня ет
нно стью
пе с
аль ным
большо го
потен ци
при ем
лен ную
пла ка
тех но
ду р
бра та
фи н
жен ныи
ко смо
зву чит
вер но
свет е
ва то
тель на
претен зии
ва ющии
шеде вра
ма х
е мои
смо гли
пересматри вать
лю бя
силь нее
ве ду
из мене
мы х
га л
са нд
уда чно
пример но
ня т
с хо
ли во
дь я
су ро
ющего ся
до ва
разви тие
корот ком
ти ли
мен т
и ми
сопрово ждение
актера ми
замеча тельныи
ле с
прошло е
ста нов
надо е
чен ныи
бан ди
стано вятся
ка з
ше р
ожида л
молодо го
зло дея
раз влека
ве ра
краси выи
кажды м
сме рт
хва тило
н ными
са мую
юще м
ле на
с клады
не давно
ви ч
у то
у мер
и сте
по слу
навер няка
пе сня
си я
понрави лись
чувству ется
хо л
на та
e l
ти ться
хоро ши
спокои но
рас следо
ф аль
че ст
роди тели
коло рит
по пыта
к нов
но вую
ви жу
сол н
на учи
противо речи
чу р
то ма
нача ть
на зыва
ве с
нача л
т рэ
цен тра
помо щи
бер г
фу т
ко пи
ка дра
на се
су м
из ба
у ми
ду мы
исключе нием
спа се
измени ть
ве роят
успе х
возможно сти
пол ныи
интерес ные
послед него
ру ется
уди вля
насла жда
попыт ка
э р
па у
меч ты
ребя та
лю бы
ин дии
хоро шеи
в с
уи лья
ве и
джеим с
и ор
после ду
реше ние
6 0
пи сь
раз обра
помо гает
сцен у
относи тся
экраниза ция
ро жде
бу дем
вы вод
дево чки
д ные
бе жать
ху д
мерт ве
во обра
му т
ля ется
чу жо
мо ро
замеча тельно
фильма м
ре волю
вы шла
воз ник
не ж
наде юсь
ни т
показа на
рабо тои
че нии
ожида ния
ча сов
емо го
ги е
говори л
отли ча
ле р
тра нс
у видела
вы полне
ле м
10 0
ъ е
зем ле
по п
ше ния
ли з
обы чныи
наи в
экра н
зе рка
ситуа ция
вшие ся
име ют
оказа лась
достои но
вы делить
ф раза
ба бу
д вое
два дца
ш ке
под твер
американ ского
ква рти
ша нс
уров ня
зна л
взро сле
в шую
м ю
си н
не однозна
ка пита
меня ет
друга я
любо пыт
ма рти
i s
конце п
реаль ных
убии ство
сле зы
рели ги
со р
о х
бу н
э ли
до р
ну ли
пове рить
повто ри
молоды х
эк шен
сери я
до на
поведе ние
щи к
настоя щеи
каче ственно
к нуть
ры в
сценари ст
се л
при бли
ка ком
ще нии
уго дно
ста ль
удоволь ствием
по думать
в перед
сюжет ные
у гро
о го
п ья
съемо к
бере т
на зна
обще го
т ет
за пу
ша г
мульт фильма
лицо м
ме ся
па л
извест ных
на помни
а х
у твер
ря т
трилле ра
у строи
вери шь
ре б
се крет
неза ви
ши т
поня ла
получа ет
до вать
про ве
нно му
му р
мол ча
показа лось
1 2
та ции
успе ха
ти м
ри к
то чку
все леннои
о и
за ве
ж ден
вы бира
у ро
та гони
ме то
сериа лов
у вле
ни це
сла в
ма ги
об нару
ци та
современно го
спец эффектов
ван ныи
оста льное
кто р
незави си
т рю
созда телям
воспомина ния
ту по
диало гов
само стоя
настоя щего
из лиш
не посред
си льныи
на ходи
со т
хо де
но вым
вос пита
противо поло
леген дар
ру ках
яр кии
у з
ни ке
ре меи
пока ли
верну ться
вшеи ся
у пор
э го
большо м
фина ле
ющая ся
те ло
т ли
про ходит
сюжет ных
оди нако
превра щается
счасть я
ан на
под ви
сту ден
вы пу
костю мы
эк с
пре зи
сказ ки
режиссе ры
франшиз ы
но мина
дву мя
деи ству
ди ться
ми рова
в за
у помина
ита лья
ми ми
пет ь
до че
19 8
дол ла
говори тся
показа ться
вся ких
смеш нои
р к
на циона
послед неи
к си
не плох
охо т
су дя
дума ла
мальчи ка
за мы
за пре
об ви
герои ню
а с
ве чер
приня ть
ч ок
це ло
луч шая
написа ть
у тра
внезап но
ни ц
кинематогра фе
пре до
вынуж ден
лен ту
к та
б ред
гени ально
ну жен
си е
ф ре
при обре
американ ских
навер но
американ скии
в люби
об или
прекрас ная
про писа
характе ры
совер шен
неуда ч
с ет
ситуа цию
коротком етраж
с сы
кинематогра ф
чи ка
ни цеи
пи т
буду щего
ми ром
вно сть
? '
попы тки
за вяз
но сталь
пре сси
верси и
е ра
не мец
пол нометраж
от ню
де ра
за кру
сюжет ная
оце нить
жда ется
рас сматри
отню дь
слу ж
став лю
х ру
груп па
д ным
хоро ша
м ье
послед ствии
сво я
смо гла
оста лись
1 3
д не
ло у
кри сто
име ем
об станов
бу ю
тради цион
ве зде
оста нется
ли ц
ру я
п ля
про да
относи тельно
прош лом
ни что
приме ча
нико ла
от каза
приме ру
ро вно
шь ся
ко вои
ди тся
рова л
абсу р
тер ро
кад р
обстоя тельства
случи лось
ле жит
дре в
из ю
пре ле
прият ного
х ле
дви га
тре тии
миро вои
об ма
вле нием
высо те
ис к
настоя щим
во ль
ние и
понима ть
емы м
жен ные
бер та
( '
ш ет
вле на
людя х
доче ри
д вои
гово рю
возра ста
у муд
ска жем
рас сказать
гру ст
фанта зии
докто р
че л
вла сти
любимы и
италья н
заклю чается
то ро
з дра
обще ство
жи ла
по им
ка ли
челове ческои
нача ль
сле з
дэ вид
m e
зна ем
экра нного
м г
орга ни
взрослы х
цель ю
интерес нее
сами х
сдела но
предсказу емо
убеди тельно
пафо с
о ре
ал кого
откров ен
из обре
хоте ла
!! !
4 0
сек с
обла да
моз г
зача стую
ви т
ня ть
дже ки
нуж ны
ва ны
ла ми
ма т
язы к
маи кла
бла город
те пло
ш коле
раз вле
па па
улы ба
сценари стов
а рти
об су
сомне ния
эст ети
бо же
зве зда
пеиза жи
про ще
стал ки
зло де
i t
е мая
бы ва
расска з
твор чество
наде жды
мужчи н
люби тель
получи тся
монта ж
праз д
7 0
ча стности
ска зы
ран ти
сравни вать
a s
доба вить
до мои
че сть
у ра
вы ро
про кат
стра сти
при ходи
ро лях
одно му
не большои
тель ств
конф ли
са му
ющеи ся
по ш
интерес ных
безу пре
ве на
вер ю
авто ра
за я
наде я
же но
американ скои
ск возь
продол жения
способ но
памя ть
лучше е
возра ст
го вари
вер нуть
миллио нов
экра ны
смотри т
пои ти
у вели
не кии
буду щем
шко ль
да х
ка кими
го лу
джон ни
жал ко
уже ли
моти ва
н ки
у га
ка но
сто ят
поз дно
возра сте
б би
т ная
да ется
че ра
яр кие
сме х
мед ленно
пожа ле
гру з
поя вление
о ке
атмосфе ры
другу ю
тво ри
смотря тся
порадо вал
д енно
ти тся
це ни
пла на
реше ния
извест ного
оконча тельно
ти нг
заба вно
пол тора
r o
бе ру
... '
подрост ков
не ужели
лан д
в скоре
я ко
про работа
ди л
ша ют
на шел
эпизо дов
д ная
опера тора
фи р
недоста т
ду ха
лег кии
современ ных
убии ца
положи тельные
дви жения
ни же
вно му
стои ло
созда ния
атмосфе рои
цен тре
фо тогра
ж нои
пери од
обла дает
пред стоит
настоя щие
полови ну
раз би
ту ре
ди но
са и
тре бо
катего рии
взро сло
ре ак
эпизод ы
о до
деву шек
эн ни
не повтори
i l
д ное
ко сми
положи тельных
при дума
сви дете
о бои
харак тери
фе стива
ува жа
о писы
ста ре
гу т
состоя нии
жи вых
мо на
кру то
рус скии
чен ных
жен ных
кри сти
женщи ну
изю мин
э да
участи е
че рт
про грам
ки таи
про чь
б э
предыду щих
шо ки
не су
зрели ще
пози тив
хорро р
пред став
зи ровать
ценно сти
на мере
мо сть
ныне ш
голо вои
им еть
алек санд
со стоит
по е
зем ли
крити ки
понима ние
жур нали
му же
краси вои
уме ние
сопережи вать
разли чных
мину сы
долла ров
а в
максима льно
г ну
вно сти
проек та
види шь
дыха нии
е ва
у страи
деб ют
пре мье
пере ме
по хи
под ходя
три логии
ите сь
приключе нии
сюжет нои
созда л
сцена х
до х
тер ри
жде нии
приро ды
замет но
с про
про бу
мо жем
бо н
ез жает
объя снить
i c
п се
э ми
ф рэн
огром ныи
попро сту
l o
по жи
дан ную
ч енного
ло ка
гор ь
ш кои
следо ва
оста ться
пыта ясь
события х
челове ке
ща ют
ме ра
разно образ
ри сов
з ная
да и
сери ю
шо и
эпо хи
ч ле
види те
кла д
впечат ля
нево льно
каж дую
рас сла
оста льном
сти листи
сы па
нове ние
а дре
про кате
у сили
бо ра
с хва
неле пы
лет во
больше го
авто моби
м эт
сказа но
стара ется
заце пи
ро ско
пере чис
те ла
тон ко
ван ные
основ ная
со ю
же лез
жен у
актера м
ожи дать
мар к
подра жа
сосе д
зо к
пуска ет
о да
ти чески
на ша
чен ные
каче ство
причи не
нуж на
присут ствуют
с му
да ваите
ющим ся
оста вить
друж ба
гото вы
до ров
ду ет
зна ешь
ю но
люби мои
актер ского
эро ти
спо иле
при ве
су ет
фор му
и ва
э ко
кни га
деся ть
учи тель
боеви ка
про ва
т ного
сла ву
н ка
ф раз
да нное
слу ша
напря жении
деся т
норма льно
но мер
упомя ну
мульти к
обе спе
по сти
рецен зию
ду шои
дов летво
заставля ют
ста рыи
персона жем
внеш не
су ме
сравне нию
с эм
ф эн
стави т
хозя и
ку ла
зо ву
призна ть
оби та
кино теат
оста ются
оказа лись
луч шего
помощ ь
лен т
воспринима ть
ре м
ство вать
просмот ром
каме ра
бра во
остави л
бо льно
м с
дома ш
га ла
закан чивается
жи в
писа тель
фильма ми
хи т
особенно сти
продол жает
о гра
пол ное
луч шие
плю сы
ис порти
разу м
постанов ка
а ка
м сти
с пен
прав ди
пря м
голо вы
мен ы
шко лы
способ ны
тек ст
ме ру
ан дре
пла ны
подо би
близ ких
ли на
специ ально
вои ну
понима ния
друзья ми
ж ка
и р
со труд
ти на
ща ются
ре к
боеви ков
снима ет
по ст
осно ва
коман да
брать ев
ку п
сдела н
искус ство
лле р
по ез
ме ха
ге нии
жан ро
кли ше
ж ныи
та лки
пра ва
позво ли
боро ться
кажу тся
за ка
фи ли
тре во
зри телем
че но
па дает
луч шим
треиле р
ре т
вод ят
прин це
ви нова
коро че
со мни
1 8
уме ло
попа да
х ью
я ро
при над
оцен ки
аудито рии
и ла
ко реи
щи ка
пар ни
пя ти
путеше ствие
ве ща
прези ден
псе вдо
ре а
тя нет
ра ба
о держи
творе ния
ре пли
из м
хи тро
сня тыи
обе з
ца м
великолеп ныи
ни на
са ти
су дить
д лин
се стра
про цен
пе сен
це лыи
показы вать
ша х
мело драма
полови на
ленно е
оригина льныи
звез ды
мер з
сси я
вели кого
у вид
предста ет
особо го
a m
объя сня
тель ны
фина н
ма стера
ра в
жи вои
челове ческих
поги б
ль д
за траги
до вери
ха л
от нести
абсу рд
ле ра
ан дер
про ви
уди вление
с р
бо в
без дар
чув ствует
счита ет
хро нометраж
стере оти
а ну
при ли
деть ми
обще е
солда т
с бо
люби мого
ле нием
ль е
про ити
ба ла
же нои
побе ди
ге нера
рам ках
подчер ки
вероят но
но чи
чи вает
ж дан
созда ется
проис ходят
просты х
ма га
ступи л
яко бы
коман ды
ми к
до ж
е вре
мен у
ф разы
ми ю
джеим са
справи лись
зада чеи
на т
ствен ными
a d
момен тах
убии цы
з лове
маши ны
назы вается
жи вают
тя т
пыта лся
объя сне
по знакоми
сикве л
мяг ко
а гре
а три
мэ ри
не бо
ма фи
вла ди
у чены
си льная
ца р
осно ве
ти тра
обще и
ори ен
на шем
спра вля
' ?
не ние
че шь
ч ко
т в
пере смотреть
на силия
гля ды
во ин
выи ти
беспо доб
фаль ши
про вести
получи ла
ла з
от кро
доб рот
ско в
с кло
раз бира
мен ты
напря жение
конф лик
на вли
кон крет
логи чно
послед ствия
яр ких
спло ш
об на
жа т
би ться
ку ра
су мел
смотре ли
про стая
потряса юще
иг ро
ве щеи
п луа
вшая ся
ли неи
меня ть
позво ля
ла ге
от дать
прими тив
со и
кто ра
ба лан
раскры ть
ам плуа
разви вается
разобра ться
на пар
сле дить
па х
с су
спаса ет
де ви
люби телеи
ни л
уби вает
с частью
ис полня
n e
на пи
в жи
твор чества
ве дут
девуш кои
аль ную
ко п
ка ра
больше е
грамо тно
ди ю
сс ср
ожида ла
симво ли
справедливо сти
конфли кт
у мо
на рисо
ко ль
музы кои
за ставить
наде жда
ди ра
ния х
во да
графи ка
о с
ти ла
под держи
поло жение
режиссу ра
в ло
послед няя
пове ствует
подроб но
инди виду
про кля
чь я
част еи
зем ля
х эн
л ень
клю чен
хва та
ван ных
ва нию
вы зыва
работа л
отноше нию
по являются
мину ту
моти вы
сегодня ш
ам би
раз ить
у ло
не нуж
стра нныи
боль ших
эти ми
показа н
вариан т
род ствен
сред не
услови ях
по лез
ду эт
оста лась
специ фи
не ви
ри с
ве ру
дже р
теа тре
жестоко сти
з ет
ни рова
бы вают
интри ги
элемента ми
до мо
интри га
достоин ства
з ен
т ное
ве ре
интерес нои
снима ют
визу ально
ж ных
глу б
радо сть
потряса ющии
поиска х
ра кур
ми стер
ан тагони
га и
гра ждан
сле и
ке ра
ди те
челове чества
те п
ци ни
ра но
стру к
о коло
на шу
ходи ли
а ри
из ма
мо его
ча ми
сторо не
эк шена
ч он
религи оз
по все
про ход
сти вен
может е
де вя
лично и
а ван
оригина ла
из де
ком пле
авто ров
мора ли
дэ вида
докто ра
ме га
недоста тки
из би
ря ет
пи тер
моло дая
на сили
мо к
прави ло
об ли
задум ка
л ку
лен ными
жда ла
результа т
шу сь
хра ни
большин стве
преж нему
ру к
состоя ние
траге дии
ро ждения
кеи т
ги ган
един ственная
про вин
ра д
ф ро
кош мар
от цом
бана льно
пери оди
носталь ги
ужа сы
поклон ников
по зна
рез ко
сва дь
те зи
то ров
вто рую
оригина льно
реи тин
призна ться
ошиб ки
р ту
вла сть
жела нии
вери т
слы шать
сказ оч
телеви зо
a c
типи чныи
та ранти
ме сту
глуби ны
осо бои
крити ков
ги б
у г
на каза
хо дом
юще му
треть я
уо л
же ни
современно и
обще стве
орга нично
восхи ти
ра стя
сти не
бу к
после дова
выз вать
блестя ще
за ключе
жно сть
просты е
малень кого
акцен т
оправ ды
жда ют
радо сти
т вои
при ключен
сла ва
ч нее
зло б
строи ть
реалисти чно
3 d
пло ща
места х
джи м
семь еи
вы вает
сове то
19 7
написа л
раз о
объя сни
сня ли
спи сок
ка ссо
вы стре
жа и
под чи
борь ба
терро ри
ст ры
in g
мно ю
исте ри
ви ден
покали пси
за н
ти ю
треть еи
мо жешь
воз люб
прият ное
ко па
оказы ваются
шпи он
э лек
t o
у на
бло н
с чи
сцена р
каждо е
ро зо
реи тинг
перво источ
писа л
осно ву
большин ства
гло ба
и щет
хо чешь
от части
извест ные
каме ры
связ ь
о са
ф ы
га нг
пора жает
глуб же
подоб ран
ген ри
поверх но
ан тура
узна ет
из я
нали чие
по учи
пере игры
отправля ется
щен ныи
прочи х
весе ло
пои стине
па рти
реали за
пуска и
про явля
ду м
бе ло
неиз бе
пере п
появи лся
воз му
дела л
прекрас нои
ана ли
детекти ва
во ле
реали зо
ру ка
игра ли
куль мина
судь бу
пен си
зав тра
ходи л
картин ки
и и
не уме
ти п
ча т
пого ни
тем но
девуш ке
' )
смысло м
нра вятся
нега тив
склады вается
ло р
тя га
у па
да ла
вши ми
чита л
сказ ку
со чув
ня ми
бога т
спо рт
дра ки
зем лю
кон ку
ве щ
ном етра
луч шую
во сь
ми лая
гово р
доро ги
выше д
гар ри
ка зывает
опасно сти
подрост ко
чар ли
не вы
чита ть
суб ъе
на бор
те чение
чи я
сме ха
зе лены
пар неи
произведе нии
стра нные
обы кнов
тан це
молоды е
те ми
d e
счет у
по смеяться
ко на
мо ем
жен ная
з мом
се кре
раз ба
стя м
совет ского
фак тически
бру та
т ря
бра и
страда ния
нес пра
поведе ния
из ы
тно сти
ор ди
а лле
с э
не к
тит ров
чер ныи
и му
обо жа
кон т
каме ру
? -
ста рые
соответ ству
па м
плохо го
l i
живот ных
п лы
продол жи
в писы
в писа
ду хов
поколе ния
от ры
держи тся
ли нию
вь ю
взгля дом
поряд ке
по ру
пре дела
в шее
' ).
са спен
мы слеи
тно сть
благода р
нач ну
голливу да
вопло щение
вз о
' ...
п ь
при водит
б леи
то бои
з ви
на ве
слу шать
каче ственныи
ы х
сто ун
раз га
бе зна
лет ь
жестоко сть
а зи
щ енно
ви ться
сказа ла
учи т
нове ния
равнодуш ным
на рода
пережи вать
безы сход
ро на
за ле
смеш ные
ступи ть
би л
востор ге
ни ро
с лэ
сты и
женщи нои
офи ци
проду кт
орди нар
г ни
у ют
оружи е
нра в
у довлетво
красо ты
слыша л
о зна
жи телеи
малень кая
куль тур
а у
мо ря
ла и
1 1
но вом
успе шно
тер мина
а дво
плане ты
по шел
ста рых
жен ным
ло ма
род нои
неле по
а ж
интерес ного
ще нием
бо го
ры ца
тра в
амери ки
обо их
неза мет
д ке
на игра
ну ла
ходи ло
собственно го
мю зи
у каза
пуга ть
развора чивается
реб ят
попа л
снима ли
хро нометра
и в
ма лы
па ры
оби дно
време нами
с чур
на ход
возвра щается
улыб ку
сь ю
уни вер
иде а
чере счур
ту пы
теря ет
пропа ган
наз вания
вели кии
прави ла
фор м
убии ств
ко жи
ря ду
жан ру
зо и
по явля
ге ра
под готов
сериа лы
г но
про ч
бесконе чно
та щи
доб рая
писа теля
класси ка
иро ни
ч ками
ни фер
по ры
де бю
при е
жно сти
ча ино
достои ныи
со пер
бы то
рас ста
элемен ты
те ре
про чие
деиствительно сти
рус ского
су гу
у виде
у лице
ме две
то ром
бы т
жа ли
оказа ться
о свобо
ста ми
ф ред
пу ль
ван нои
де ния
един ственным
ни чуть
про игры
из ви
вы жить
от вер
от казы
показа лся
исче з
ци оз
фантасти ки
непло хая
го ня
ключи ть
описа ть
ж ные
п та
чь и
бои тся
рам ки
хоро шем
дет ство
ш ту
разгово р
ж еннои
по дума
снима л
ви зи
под бор
ли ли
ку ча
поли ции
взгля да
сцена ми
про ника
составля ющая
то ры
бо гу
будет е
особ ен
пуска ть
м ся
понима ют
музы кан
очеред ная
существо вание
ст нои
ре сто
ф она
ми т
лети я
г э
раз ме
гла вному
получи лись
ску чать
интер не
по к
великолеп ная
нося т
александ р
глав ными
ша ется
зам кну
чен ным
голо в
жерт в
бер га
на ра
вле но
во де
ува жения
с кри
си лои
карье ре
че на
вопро сом
взрослы е
ми сс
ку чу
созна ние
v e
ум ныи
ж ку
ти ровать
па я
ис пан
ко к
бе се
зе ле
таранти но
y ou
на зо
следу ющии
отсут ствует
чужо и
ком мер
ле в
герои не
алек сан
о су
ни куда
с да
ле том
бы вшии
бал лов
вы р
о све
ла на
узна л
выз вал
до полни
интерес на
зави си
знакомы х
энер ги
у ши
ф ра
на против
се стры
при шел
чрез мер
по це
се го
раз оча
гру стно
образо в
по ту
ис прави
хи щ
пла ть
у ходит
малень кои
патри оти
д кои
д ку
вещ ь
ши ми
акте ром
талантли выи
пи сто
пол нить
вол ну
руко вод
вто ром
сра в
пи к
c h
с ети
из вра
доро го
ча л
тельно м
актер скую
име я
сек са
плох их
ми лыи
порти т
оригина льнои
емо е
гер ма
но ги
де пресси
закончи тся
гля дя
под дер
краси вых
наде жду
о пти
за пи
про те
се на
ска ми
карти нои
от чего
фо м
настоя щую
соответ ственно
краса в
сте ров
суще ству
разли чные
проце сс
лет нии
логи я
способ на
уи лли
бе л
захва тывает
ль ю
про демонстри
хо ды
аудито рию
ба и
причи ны
чи ки
смотря т
во н
пыта лись
от талки
при дает
глубо кии
по сту
ка и
старо го
иму ще
г г
ря ть
сердце м
б ль
сти вена
бро сить
отме чу
уби вать
манья ка
а п
ужасти к
не которое
логи ю
от сюда
тру дом
любимы м
не предсказу
чер ты
тан цы
ть ю
во ду
ве стер
име ю
эффек ты
та ра
дета леи
терри то
но г
жи ве
при шель
интелле кту
зада ча
обстоя тельств
техно логии
про вали
са ди
па ла
страш ныи
встреча ет
1 6
ч еннои
чер тов
особенно го
те ме
пер спе
? ?
ди кт
хоро шую
име на
ван ная
мон стра
кад ром
к леи
ши л
под вер
внешно сть
кино театра
мину сов
окружа ющих
ки нои
гото ва
посы л
знаком ство
т ща
ме шает
ви с
му дро
амери ка
плю сов
красо та
существо вания
р с
э два
кош ма
биз не
г нуть
погру зи
золо тои
ж ного
при думать
счита ют
тради ции
доби ться
по строен
фина ла
поя вления
второ е
за хотелось
ста рои
лучше и
ст ные
ко сти
не известно
р та
подоб но
отзы вы
брю с
короле в
периоди чески
кон чи
вклю чая
отзы в
дже сси
чу да
смотри м
чувство м
профе ссо
жерт во
сто к
жа ться
соб лаз
мета фо
че е
секу нду
кон кре
пло хие
нача ли
способ ности
ми шель
чи ва
ци они
би ли
пред ше
восприя тия
ве ц
рус ских
кова р
составля ющеи
ву ди
интер пре
взаимо отношения
' ),
ко роль
раз говари
ку пи
получи ли
поря док
таи ны
а покалипси
филосо фи
потеря л
че скому
проблема ми
д реи
сов мести
биз нес
з ис
сомне нии
ст ного
за лож
долж ное
с ну
раз де
су деб
талан та
те ни
нас чет
оты гра
ш ками
спи л
а ра
по ва
ба лл
пере вод
пол ном
за был
рас про
то сть
ни те
долго е
ру бе
оригина ле
повто рю
х ло
де п
досто вер
ры ва
спо со
игра ла
з доров
ве ры
па рт
. ,
компа ния
прости те
сер ге
име л
правдоподоб но
ча ют
ступа ют
пароди и
эко но
за тро
ень ко
тол ком
траге дия
с ро
рас счита
люби м
ожида нии
принима ет
легко стью
про жи
люби л
куль туры
призна юсь
нат кну
мен тов
мак с
треть их
за ранее
рус ские
б рен
меня ются
просты м
лу ка
вь те
извест нои
коро ля
литера тур
во р
за пута
це ле
ска ть
кра тно
серьез ныи
гор до
ска жет
ответ ы
демонстри рует
про ста
сред ства
отор ваться
пор но
забы вать
в шему
большо му
цели ком
ночь ю
чувству ешь
го мо
ла в
пре одо
конечно м
экра ни
вы ступает
суще ств
до то
ри ться
пу тем
прият ныи
порадо вала
пои дет
разочарова ние
офи це
т ные
похо жа
жут ко
от мет
под ка
стро го
об у
гла ва
суще ства
тит ры
фэн тези
и щу
со ли
вид ят
зову т
ком мента
жде шь
смеш ных
ма ми
ты вают
фор са
бе лыи
пи ро
хри сти
конку рен
ду хо
дно сть
удоволь ствия
еха ть
ли хо
сто н
ча н
постави л
то та
те ори
му чи
лег кои
наи дет
манья к
пли ка
жерт вы
современно м
спо рти
ленно сть
взгля нуть
замеча тельная
ци ви
кри с
отде льное
поня тия
обы чных
просто го
e s
и ду
оста навли
сценари ю
прекрас ные
пово рот
стра ну
зи он
современ ныи
в последствии
ко т
ти та
ско н
замет ил
борь бы
ст ных
де шь
чно стью
гне та
m o
си рова
име ется
че сти
обы чная
иде еи
цеп ляет
не когда
ти мента
вели кои
встре чи
поклон никам
сме ша
неи шии
кру тои
дер жан
но ра
дога да
двадца ть
си льнои
сно е
виде ние
ро берта
сторо на
специ али
? ..
обы чнои
а фри
го ра
ри ла
до ступ
ся т
чи ков
собра ть
u n
ря ется
поряд ку
ка питан
впечат ляет
амери ке
мастер ски
аген т
ш он
жа ла
соста ва
в чера
ви дом
пло ть
у видите
моло д
верь те
пу гает
россии ского
ненави сть
скот т
де лом
ли выи
уи ти
вто ри
привы к
потряса ющая
чер ного
ди е
дже ра
спра ши
требу ет
га ли
дже ин
узна ва
предла гает
? )
ло ша
че ству
га ется
сдела ла
рецен зия
по больше
же не
американ цы
мульти плика
вер нее
полно цен
об щии
под ход
доба вля
се ан
па ми
неза быва
интер вью
верси я
ф рон
де на
пи ло
плане тя
орга низа
дела ли
дра м
картин ку
съемо чнои
сен тимента
ц ет
ри м
чи ваются
ж д
ф еи
полицеи скии
бли ста
ино планетя
жан ров
увиде в
от тен
изя щ
циви лиза
у т
раз ма
а а
ча со
при вет
смотре лся
на прочь
ва ле
за ла
бе ли
ку со
кла с
вяз чи
джи н
доб рые
обы чные
фа ми
уда р
i i
ту ру
иде альныи
по хоро
ха ус
до ми
полови не
дума ет
тради циях
непосред ственно
ост ров
б р
же нию
стра сть
сов мест
тя ж
женщи не
стра на
! ),
привы кли
выбо ра
си льные
поня ли
ску чныи
свобо ды
a y
челове ческого
алексан дра
проду к
о нов
ра сте
люби те
изобре та
на долго
вы ки
ста рая
говори ли
б л
лли ген
драма тур
лю д
кни г
непре менно
с би
стол кну
пле вать
постанов ки
джен нифер
у са
во му
жи вые
гармо нично
не мно
ли ри
про гре
вы полня
подоб ныи
надца ть
все возмож
уди в
10 p
обои ти
при рода
ка ют
тра н
по те
оли цет
особы х
олицет во
у жи
у лица
ль на
рас чет
свя щен
раскры вает
роско ш
по за
секу нд
ли ться
за вет
интере сом
отли чные
попа сть
рус скои
дев чон
свобо ду
ком му
сла ви
на ци
ан дже
при вяза
стра дает
неза мы
ма тер
челове чество
анима цион
h o
на ции
обы чного
чудови щ
не кая
хи и
атмосфе ре
ребен ком
причина м
по гло
ва ющая
зо лу
фина лу
оцени вать
ля м
возвра щение
улыб ка
зави сит
красави ца
пред поло
при да
инте ллиген
бит ва
паро чка
за мени
друж бе
превосход но
ль да
щии ся
подобра ны
развяз ка
к лин
пред почита
основ ные
c o
а ции
пере се
ко э
за вое
сла д
т ным
ле су
печа льно
повторю сь
рас ши
ло ви
да ром
та кому
картина х
доказа ть
гла ве
отли чии
улыб кои
плака ть
ро б
се ро
ника х
сня ты
броса ется
рова ли
описа ние
у а
ю ри
ст рии
созда ют
сериа лу
американ ская
из образ
от вле
фина льная
воспринима ется
завора жива
и того
без жало
яр кая
те ния
пол ная
кино театре
ленно сти
брать я
хва тит
успе л
шедев ром
гиган т
сно м
фана тов
ого нь
ри сти
бо ле
использо вать
уме ют
компьютер нои
жда ли
иде о
ре ние
спе кт
моти вам
пов лия
комик сов
ро бин
ува жение
д нем
о пы
о знакоми
ф фи
ки нг
доба вляет
дья во
весе лыи
сложи лось
b e
по то
монст ров
предста вление
востор г
ъ я
ющее ся
поме ша
завяз ка
срав нить
противостоя ние
по кои
шен ныи
конкре тно
ст ная
интере са
s e
серьез ные
бо ре
ча х
справи лась
за л
реши ть
количество м
на гля
взрослы м
неспра ведливо
исполне ние
ца х
незамы слова
о форм
ни сколько
за ет
пере дает
м л
во дить
пове зло
не ординар
настоя щих
оригина л
знакомы е
компози ции
второстепен ных
ма нера
ду бля
си льное
бе и
пре имуще
до полня
выделя ется
злоде ев
то ли
кон тек
пред назна
2 1
в начале
представи тель
блон дин
ко ри
заканчи вая
за т
со сре
га на
взгля ды
голо ва
приня то
си деть
однои менно
мульт фильме
редко сть
ро ме
ко ем
пре ки
ви рту
зву ко
значи тельно
жерт ву
подоби е
миро вого
за ло
ма ли
дет скии
соб ственных
близ ко
собира ется
запомни лся
эп пи
телеви зион
у словно
пере ста
вер ши
присут ствие
раз ными
ба та
уме ре
малень ких
преступ ления
современ ные
а но
де лу
ви ды
гри м
ме сть
страш ное
па ци
нес ен
кин га
борь бе
ти ва
за ми
вер дикт
разгово ры
ст ным
ва ем
про вал
19 6
х ладно
ве к
ас соци
в шем
т ку
по сла
дра мои
колле к
восприя тие
1 7
по чувствовать
ва ющие
ба ра
i on
си льных
смо гут
зна ла
три дца
внутрен нии
челове ческие
пози ции
хру п
не ту
по дои
при бы
гран ди
тельно стью
любов ная
ально сть
ру ками
при кры
самы ми
тро е
го т
ше нии
ку ро
великолеп ен
перестре лки
ска нда
кти вно
ху ли
ака де
финан со
д энни
лет ы
дан ные
рекомен довать
безна де
шо к
соответ ствует
раздра жает
вшим ся
ло жи
бу ты
гро те
пароди я
созда ние
к рю
сценари ем
верси ю
не стандарт
- -
ти ра
па радо
до нести
су д
американ ские
второстепен ные
иде е
зву к
ди ли
шко лу
экраниза цию
созна ния
т ную
пла нет
а ссо
б рэ
си ло
понрави ться
ответ а
у род
откро ве
гранди оз
при еха
an d
к ня
на след
дра ться
дума ешь
па т
пол ную
на шим
бе гает
лет неи
выи гры
успе хом
за муж
голо са
ло не
ры вается
агре сси
героя х
взя л
вс пы
б эи
ма м
прости ть
в став
ри ча
стра нное
о кажется
при т
фе ра
отли чи
я вление
ве ро
при думы
ска жешь
настрое ния
хвата ло
то ва
заба вныи
насы щен
ре ка
сол не
ин стру
аль тер
чер та
прият ные
эпо ху
уилья м
ва ши
гру бо
фран ции
пари ж
ка рика
тя нуть
поворо ты
ственно м
сня ется
жела я
опреде ленныи
бира ет
аван тю
вос кре
ар мии
в нои
ст ря
не сли
пробле му
удиви ть
де лю
важ ные
по ля
ми ла
дру же
меч тает
поступ ков
ри ли
оригина льного
джу н
назы вают
по шли
ба х
гля деть
исполни л
работа ли
сезо не
не важно
пои ски
оши ба
ценно сть
потенци ал
матери ала
похва л
ми сси
по вод
про н
характе ров
ви ча
рас счи
еди но
на ходят
не одно
до ль
люби мая
коли чества
влюб ляется
ми ть
ню ан
порадо вало
компле к
бу ма
друж бы
х э
по кажется
де ние
подоб нои
реаль ные
же л
лет него
необы чныи
уто пи
в ье
ги л
сюжет ы
сня та
поколе ние
ази ат
пол ного
ха м
ску чным
учи теля
гени альныи
ф ло
от цов
раскры вается
систе мы
виде ния
попа дают
но сить
персонажа м
гра жда
уди вляет
доро ге
бюджет а
т ных
доро гу
огром ным
са ра
случа ется
реша ют
принад ле
си но
интерес ны
иг р
нач нем
размыш ления
э лиза
сти ли
ша т
кро во
взя ли
эмоциона льно
сохра нить
обез ья
o f
от чет
от дыха
отде льныи
карье ру
клу б
же го
появи лась
рассматри вать
со об
ми нима
тан цу
преде льно
про то
спецэффек тами
х эппи
ле нию
одино чество
милли он
голо во
извест ен
исполни тель
на шла
вы ве
раз бор
герои нь
влия ние
хо и
у ряд
ис ке
вампи ров
жде нием
ин сти
рича рд
по шла
встре ти
кор пора
отде льные
плане те
актри су
принима ть
раз ом
уда лся
иди от
вече рин
трэ ш
причи н
рассказы вать
надца ти
ремеи к
ка ри
при су
оста льным
сме и
образ у
пор тре
полицеи ского
четыре х
ря до
пере ди
неи тра
коман ду
отли чным
сот ни
провин ци
и ству
и ван
о пе
у ступает
не достаточно
люби теля
проис хо
важ нее
а спек
мас су
дале ком
ре ния
мо ю
ально е
жду т
стре мя
смерть ю
ко сть
пафо са
по строе
чен ная
чар ль
продол жать
симпа тии
ху ю
важ ное
за были
ке вин
чрез вы
выро с
му жем
па ли
встреча ются
характе ром
застави л
христи ан
ха рри
мело драмы
дже ка
класси ческии
верну лся
ва ющих
пере о
сер де
отлично е
штам пов
по меня
жи и
герои неи
хи ми
осно ван
ж ом
ви нов
чу т
увере нностью
чертов ски
се ль
ги м
по иске
дно сти
лег кая
во преки
си дит
откры вает
ду хом
ба т
комеди еи
преду пре
а ва
не по
ру ши
обо ро
худож ника
не кую
бе да
дет скои
вя зы
стан дар
ки та
произ водит
отзы вов
ла х
ву ль
маши на
ска зо
не про
чи х
мане ре
госпо да
но выми
яр ким
из бра
остави т
благо полу
молоде жи
цве то
ма ски
под водя
a p
сме на
фантасти ческии
находя тся
пес ню
дох нуть
ри ге
вы пуска
ня ется
бо юсь
под да
голливуд ских
ка мер
поль зо
занима ется
о том
бле ния
шут ками
се я
па д
зна чение
созда нии
плох им
мо то
уби вают
обра тить
лично е
элиза бет
! ).
i m
про сле
про ща
эффек тно
полови ны
ки т
после вку
мертве цов
цен три
кла сса
у правля
ж енного
к лы
красо ту
отли чнои
жела ть
увере на
те ние
за деиство
музы ке
фор мирова
дальнеи шем
упомя нуть
не терпе
интере су
ки р
ки на
удиви л
уи л
n o
кар дина
сред него
супер герои
предста вления
прости тут
ли зм
об щая
ново му
m ar
ва тель
при ба
жи р
джон с
мен ныи
пусти л
а пло
с пря
краси вую
по рт
го сти
зи еи
до лю
ши р
ге ния
насла диться
оста ваться
семеи ства
хорро ра
з лом
ри ск
ми фо
ак тивно
послед нюю
ете сь
капита на
сторо нои
слож нее
язы ке
бы стре
способ ность
полицеи ских
ющими ся
производ ства
лож ь
не кои
дво ре
а по
ка пли
запу тан
хронометра жа
по верьте
логи ки
бли жаи
д эи
ка ть
ре ф
ся тся
ле ни
судь бе
за бро
высо ком
беспо ща
2 5
ле то
спек так
ры ми
ров ки
паде ния
у доб
ри су
обо шлось
слож ныи
паде ние
р ьез
не вин
динами чныи
насили е
ст ка
сме сь
оска ра
не дав
не бе
не логи
при езжает
ция м
прекрасно е
выра жение
секу н
матер ью
от того
пи шу
добро е
любы е
с кре
ва ль
че нием
про гу
сты х
мас са
очеред ного
рок ки
я с
си льным
катего ри
сы ном
смы сли
произве л
обили е
ассо ции
не подража
подру га
напря жения
у пра
ли в
вы ходят
стави л
ч ье
актер ским
бес смерт
стар ше
диало гами
сравне нии
за жи
персона жу
лично го
эпизо ди
приходи лось
т ке
на ла
ле са
занима ет
. )
д ря
т ень
привлека ет
ненави сти
года ми
на шли
за ез
ха и
неи ших
недоста ток
фантасти ка
джеи сон
стол к
горо док
по вер
дол гие
американ цев
жела нием
малень кие
ске пти
тыся чи
мне ния
важ ныи
расследо вание
все рьез
прав ды
ар хи
фо то
дево чек
демон стра
ш ля
ко с
ме кси
рен ныи
ги т
прекрас на
жи тели
обра тно
поз д
ри меи
маши ну
нового д
го л
ру т
ис следо
лин ча
узна ем
внешно стью
жи вое
обра ща
диало г
макси мум
тыся ч
тща тельно
во ли
па сса
матери а
фана т
сила ми
исключе ние
вдох но
прави льныи
стран ным
ото бра
поим ет
мага зи
о пу
не спе
представи телеи
след ствие
стреми тся
в виду
пу н
ле ди
пу стои
' -
ак кура
вели чаи
оператор скои
увере нно
рас строи
вле нию
обыкнов ен
актера х
си и
сти в
доб рым
дан ных
проце ссе
наблюда ем
ма леи
упо тре
и ное
ак тив
стре ль
во сть
ме ры
во сти
та ция
ну тся
фу нк
ро лями
па да
брю са
ари сто
та ту
сты е
евре и
при роде
треть его
занима ться
многочис ленные
фили п
работа ют
заслу женно
не под
та нец
со вести
пол ным
стати сти
в переди
фе но
одно образ
сти ля
заслу га
помни те
00 0
пла вно
не которым
се вер
сты дно
титра х
паци ен
ш вар
ба ет
вра гов
то сти
жи вается
совет ских
глупо сти
на прав
ко ст
чи стои
чи выи
жесто кии
каме рои
ч ков
жи вая
льно му
лле ра
актри с
по жертво
вку сом
ва ешься
ска н
дет аль
кинотеат р
ва юсь
при тяга
мен ным
молоды м
марти н
д ную
про чее
раз ница
ин ду
три ви
шенно го
внешно сти
сущ ность
пред мет
обы гра
тор же
отвра щение
поря до
при емы
очеред ную
мело чи
эд ди
г ги
добро го
измене ния
о пыта
интерес ными
дви жение
гото ви
романти ческая
интер ье
захватыва ющии
ди ка
лю бую
прекрас ен
мани пу
иор к
л ке
без забо
отно шусь
суще ствуют
мужи к
ри ф
безу ми
вампи р
блокба стер
ре шать
сер геи
: -
у шел
пере жить
красо тои
незамет но
ф ле
умере ть
ответ ить
у видим
ва но
за блу
ки ану
лиш нии
l u
из бежать
лиш него
информа ции
на груз
за те
от пу
жела ет
при шла
нь ко
э лли
за р
вы воды
соб ственную
фильмо графи
ответ ственность
анима ция
мужчи нои
оставля я
наслажда ться
равно ве
концов ку
ме ж
ще на
ж ная
бе г
фак ты
из уми
чер нои
плю сом
возь ми
глупы и
сочета ние
мет ро
уда лась
лин ч
джу ли
отве чает
оружи я
стату с
фра г
а ма
тво рить
важ ных
не от
со чи
пре увели
щи ков
проис ходило
извест ным
нен ных
маши не
сущ ности
гала кти
ни ли
за ря
кров ью
! '.
зна ли
момен тами
ш те
вы би
об щую
ли вает
вы шли
му тан
пу нк
совет скои
отде льных
комна те
и ного
са рка
чер ная
достои ное
причи нои
чуде са
воло сы
чужи х
о лд
пре слову
им пера
пусти ли
скор се
вшую ся
ди ко
любо е
с хе
ше сть
кино ш
город ка
се ми
истори ческих
разно образи
о скор
ро ко
ет ы
счита ется
комедии ныи
заставля я
поворо тов
прон зи
пере вопло
бы тия
роди телями
бес спор
лиш них
застави т
дура ц
явля ет
пыта ться
предыду щие
дости жения
д ном
ди ре
плохо е
запомина ется
не многих
ни ла
креп кии
бро си
по купа
про чувствовать
справедливо сть
слабы и
за ну
че нию
да ст
дела я
тво ря
будь те
встреча ется
раи ан
из у
ально сти
бра сы
фред ди
ж ным
бу дешь
пет и
ф ла
ста ру
гра нь
реаль ныи
назы вать
тя го
гу р
нача лось
порадо вали
впечатли л
предше ствен
мо им
ты вал
понима я
класси кои
сверх ъ
ди к
пе ль
при мере
убии ц
продюсе ры
ло ва
со во
недо умение
чрезвы чаино
в плоть
л лы
на строи
пи тера
дер з
ван ного
бо ги
си дя
лег че
дево чку
спу т
лли ан
зло и
стран ная
ну жда
актер ские
солн це
скорсе зе
род ных
взаимо отношении
e d
ство вал
забав ные
страш ные
исти ны
аген та
и ден
не прия
та на
па ца
од них
наи вно
прият ная
шек спи
паралле льно
альтер на
i g
ю р
дра к
нь е
голливу де
середи ны
темати ку
стрем ление
ф фа
вся ком
радо вать
бит вы
достоин ство
пу т
иде м
моло дости
представля ют
преле сть
b o
понима нии
эн ди
нор маль
основ ных
при ходят
япо нии
уго ль
не приятно
бере тся
об ман
тру да
ада м
француз ского
простран ство
ка сс
бо вать
вос ста
безу мия
держа ться
надея ться
о хва
ф разу
чно му
жен скои
год зи
бь ет
согласи тесь
посту пок
ши н
голо сом
вла сте
вку су
ра да
про питан
фе е
события ми
относи ться
уничто жить
фран ко
е же
ну лся
чем пи
много гра
зре ние
карье ры
у видели
ва ющего
мы ми
пре пят
дет ские
мастер ство
за би
вы держа
мя со
ходи ла
аль на
дво р
недостат ков
1 4
ш ве
ста ться
сред неве
д р
мужчи ну
го с
чи л
ги пер
аб стра
завора живает
не кое
ри о
за ки
леген да
с бор
не просто
со рт
выгля деть
ма ра
шенно и
недо сказа
абсур да
справля ется
ти лся
ди шь
высо кии
преды сто
неодно кратно
е ю
э мили
глупы е
прочи м
v er
пла сти
интерес ную
спа р
яр кои
графи ки
торо пли
го ры
при зы
эк сцен
! ..
созда ли
пережи вает
ступа ть
использу ет
в д
з ли
на хо
ва в
мер фи
ему ю
ле о
дра ме
выи дет
трилле ров
испы тыва
вече ром
пре следо
крас нои
эксцен три
во рот
от влека
знаком ства
связа ны
сила х
содержа ние
живо пи
серьез ных
знакоми тся
номина ции
популяр ность
на ем
ли л
написа но
матери ал
дога ды
про шел
про сматри
уби л
потеря ть
потре б
не нии
стара лся
молоде ц
анима ции
во ору
ри на
га дать
би бли
а ми
ж ко
по ми
пред полага
наркоти ки
аль ными
чере па
ули цы
со проти
ми три
чувство вал
прямо линеи
гармо ни
х ен
семеи ного
води тся
отчая нно
жизнен ные
чи сло
встре чу
ни где
монст р
д вери
лю бая
начина ются
тяже лыи
боя ться
подру ги
похва лить
о зе
тель ству
поднима ет
одинако во
ни с
ли цу
бы вшего
ди кта
ба лла
слож ные
со би
рекомен ду
иро нии
эконо ми
кон стан
особ ня
ск ет
произо шед
непри нуж
сою з
ме ша
ви дя
соб ственные
продю сер
ти ка
вос пи
сдела ны
многи ми
скры вается
носи тся
спо рить
россии ских
гряз ь
нетерпе нием
з ин
ст ет
ми стера
ву д
ин с
род риге
продол жа
подрост ка
связа но
си га
щих ся
сп лы
по думал
ощу ща
вза им
име нем
спасе ния
а га
н ке
то чка
вы реза
сюжет ную
доро га
кад ро
вообра жение
ба ми
ж ь
тер петь
постара лись
та кова
по может
акте ру
послед ним
спа ть
показы вали
исключе ния
миха л
сугу бо
вра га
расска зыва
моз га
пошло сти
по ход
нее сте
собы тие
стара ются
компози тора
повсе днев
у слыша
не бес
те ха
ан ны
опреде ленные
особы и
п ень
ри чар
бо ев
пра ве
в сплы
п ки
ко ре
вы разить
при ори
ис ход
един ственнои
ло га
ло ву
бе к
появи лись
ло с
три н
подоб ным
останови ть
жи вым
це лых
пере бор
сла вы
помо гают
поклон ники
эпизо да
умира ет
свидете ль
д верь
на дума
не удивительно
ну в
дж об
впечат лении
рен с
него дя
пережи вании
сми т
слэ ше
ма рия
спи ске
попу тно
сосре дото
но ри
ра циона
ва т
тель нее
щая сь
тру п
гре хи
семеи ных
одино честве
отлича ются
я ма
не знаком
ро у
ле ст
жде но
происходя щему
одино чества
прош лым
д митри
т р
у ха
со крови
деи ствует
фа ши
низ ко
изы ска
вся кого
страш ного
необы кнов
жерт ва
i e
с пер
ро сси
ви ны
ру кои
шен ы
россии скии
отрица тельных
стреми тельно
костю м
вы те
дол ги
логи ка
фина льных
е ру
ле она
чи вая
мос к
бро дя
сравне ние
мо тив
хи чко
ступ ление
шен ных
романти ки
бана льныи
спра ведли
вы смеи
кри зис
паль ца
ба ры
эк стра
непло хие
посвя щен
у деля
пре взо
вели ко
невы носи
гля нуть
стал лоне
реально стью
пре мии
ступ ления
бое вых
раскры ты
откры ть
разно му
ценно стеи
ан дреи
ана логи
процен тов
гроте ск
ва тыи
ше сти
великолеп нои
неу клю
спасе ние
меха ни
немно жко
за ново
прият ным
счита л
худож ник
творчество м
ря ды
ино планет
о ль
слу ши
пар нем
воз душ
зи ру
любо му
антура ж
? '.
з ме
ста ну
мар ша
19 4
стара лись
востор га
пи шет
сме ши
стави ли
сопрово жда
джор дж
ж ке
при вести
лета ет
озна чает
с бе
ре гу
жде м
беспо лез
за ли
чита ла
н ку
вра г
зву ки
стри т
л эн
на гнета
ль ет
ча м
ше нием
доб рои
муж скои
ради о
преврати лся
у слышать
пред поч
отсут ствия
ната ли
э волю
би лли
авто рам
фанта зия
нер в
чувства ми
любимы е
з ь
не сут
по та
вы дели
дан ным
прекрас ную
семеи нои
по иск
под купа
эн н
ситуа циях
гомо сексу
вер ныи
геро е
знакомы и
похва статься
кэ ме
ма хи
бо гом
подрост ки
проек те
джек сон
прин ц
отде льная
жизне нныи
тюрь мы
принци пи
борь бу
ж дои
ф бр
по совето
оригина льным
ощу щается
трудно сти
отве тов
кристо фер
и ных
из ну
кра ски
представля ется
g o
вз ор
показа лась
а ку
мо дель
от ста
люби тели
слова х
сп луа
не адеква
до смотреть
погру жа
спо соба
яр кими
остави в
тюрь ме
пре пода
прекрас ного
съем ка
мульт фильмы
знамени того
мо ги
те мои
кру ти
стре ля
вся кие
узна ла
i r
за раба
ве е
кри вля
публи ки
а ре
эк сплуа
en t
прови са
мульт фильмов
интер нет
эли с
' :
у стра
ро ка
соб лю
рен нои
строи тся
ша и
внима тельно
мар ка
хе р
с энд
при ста
ты вается
помни ть
пери ода
психологи ческии
воен ных
у р
ф рен
ль ны
за работать
со ном
рова нныи
с ходить
шу тка
шен ные
доро гои
кра ти
снима лся
сезо нов
о гор
не лов
ред кии
режиссер ская
современно сти
опасно сть
с ны
ка ко
ми л
про вер
пе ви
одно класс
воспомина нии
обожа ю
чи вать
гу б
авто рит
грани цы
сум бур
я зви
вла де
л жи
стоя ть
слу жит
серьез ным
мими ка
спосо бом
лю си
рас се
чувства х
динами ки
фана ти
! .
кар тер
про пита
вто р
ван ным
е ле
у силия
да вая
за яв
бо льнои
показы вая
послевку сие
я и
по чер
ко вать
ми г
лиш ним
из ло
би р
лег ким
выс шем
требу ется
вы пи
показа ла
кро ется
осо бое
огром нои
своеобраз ныи
предполо жить
бо нда
би на
тре пет
экра нах
всю ду
привле чь
l a
фина льныи
извест ная
многочис ленных
контек сте
а ле
де ду
слу х
вся чески
изви ните
ст ки
соб ственныи
200 0
эпизо де
шикар но
ро жда
бе лого
за ключи
при ло
лю к
л ло
на ступает
доба ви
не ба
дра ку
дже рри
поло н
профе ссии
соци альнои
напомина ют
взрослы и
ва ющеи
став ят
преступ ление
разочарова л
с фе
со ло
вы сказы
при дет
счита я
п пи
ка фе
ве ке
вы дает
случа ев
тен ден
сим вол
назо ве
ш ныи
поня тен
симпати ю
у те
под ряд
меня ют
созда н
эмо циями
миро воз
преступ ников
простран стве
хороши ми
рисов ка
зависи мости
тра к
цивилиза ции
не бре
так си
мет ь
съ е
трога тельныи
оставля ют
беру т
ста м
чь ся
мак са
прое ктов
элемен т
умуд ри
рассла биться
ж кои
ви та
положи тельныи
тако вои
в ста
ли ши
чи но
це р
кон так
эпо ха
ъ ем
по нен
фи ци
цен зу
сту дия
пря мом
бю дже
наме к
семеи ные
щ еннои
це лую
лично стеи
совет скии
по взросле
прави л
попыта ться
самостоя тельно
ф лэ
то ру
пор та
мело драмати
не торопли
ра чивается
ба м
тра тить
встре тить
согла сен
вы ру
пока з
зако ны
ри ско
насе ления
да рит
до казывает
получа ем
класс ныи
харизмати чныи
ля т
при драться
сты м
фор д
скот та
v el
за одно
зи рует
на пугать
до леи
от ре
бе га
пло хая
недо уме
у пре
на шему
до чер
а ф
ти ши
оши бок
выбра ться
празд ник
быстре е
се ния
лег кое
молодеж ь
обоити сь
р ва
наи дется
происходя щим
201 2
закры ть
исправи ть
и ные
перво нача
а та
му ви
тре уголь
приз рак
предста вьте
репли ки
ва к
сь е
тер за
способ ныи
объ ем
за пла
а ля
груп пе
компози тор
ли зма
да вать
ча стях
обще ния
жу ю
маи к
ти ма
милли ар
лучше м
вну ши
дино зав
е дет
ро с
ку ри
без разли
важ ную
зако нам
да на
жи те
рова ться
ал лен
рекла м
т э
ма ка
со фи
жен ную
свет лое
разви тием
норма льныи
фана ты
неожи данныи
от туда
ги бели
ня ют
шко ла
динами ка
взры в
хо ва
ку ли
разу ма
шикар ныи
ря дно
пол на
эго исти
ка ется
кино ленты
трога тельная
не вз
по кры
ки сло
исти нныи
миллио ны
о ра
уда чныи
смеш ным
забав ных
деиству ющих
любо пы
иг нори
свет и
наде жде
город ке
художе ственныи
наполне н
проник нов
в ключи
ми лые
ги п
станови ться
великолеп на
подро сток
жерт вои
измени лось
дво их
перспе кти
боеви ки
эффек та
деиство вать
млад шии
неплох им
во время
ис пуга
изо щ
болез ни
за ции
сте ром
сыгра вшии
мл н
не сла
вы ходе
у х
у ор
це лая
кри к
эн тони
ум ные
про сыпа
при шли
оригина льное
мерт вых
то мас
за кадро
жа р
ци о
оста в
напомни л
u r
гра ду
.. ..
дово лен
19 5
отрица тельные
рассказы вают
ко ся
кон тро
выгля дел
очеред ное
фана там
колле г
б род
ла ко
террито рии
л лен
раскры та
компа нию
размыш лении
за им
деле но
страш ных
соста вом
су ждено
бли зо
случа я
судь бои
моз ги
снима ется
джи ма
коло ри
ада пти
расте ря
у эи
го ри
за дор
до вал
рова н
ат трак
замеча тельные
возника ют
живе м
у мом
ст ся
от дохнуть
обла сти
б лан
нее в
поло жено
трю ки
вось ми
сино пси
без грани
на сило
ре ми
про ходят
челове ческое
смотри бе
реаль ная
жизнен ных
' !
с жи
та ков
доб рых
теле фон
дея тельности
i x
д ными
то п
та ни
це лое
ис полняет
ма ну
до казы
же к
дет ских
биографи и
ав стра
карика тур
е к
ро ждение
про сит
ющую ся
цеп ля
к ью
да т
чи ли
ги н
ис кую
теря ется
проек ты
леген ды
выя сняется
преодо ле
о дол
ча ла
бе спокои
пре сти
современ ным
останови ться
ме лан
ска х
созда вая
смеш ная
уче б
запомни лась
оружи ем
безум ныи
? .
s h
и ным
го ти
вы ли
смотре лись
пережи ваешь
кора бль
мисти ки
ро ссия
вы ну
ня х
писа ли
собственно е
визу альныи
мастер ства
президен та
си ле
больши ми
заслу живают
дере вя
ка зи
дума ют
догада ться
e t
о хра
про шед
хоро шему
убии цу
побе ды
остави ли
испы тывает
н че
ко та
стно сть
щие ся
беспо мощ
изба виться
ру га
красо к
претен дует
профессиона льно
участ ников
винова т
ди р
бе на
сов ме
коле ц
мелан хо
по бу
ро жден
до пусти
чи сли
фина льнои
документа льныи
комму ни
ча ли
раз ры
це нить
вспомина ть
н га
про пустить
бе лых
чь еи
случа ях
интри го
приме ром
глупо сть
зер ца
ра не
бу с
зна чения
каза ться
перестре лок
ш изо
ме ли
таи на
не привы
зо вать
ка би
иден ти
ис па
пра ву
прав де
фор мы
воспо ль
напра влении
государ ства
оке ан
элек тро
безуми е
бесспор но
рекоменду ется
ри чи
ла р
га д
спа с
вспомни те
дере в
защи т
безысход ности
э ля
со кра
со зерца
ви к
поло жения
понима ем
мото ци
ж ется
мело чеи
джа р
эмоциона льныи
води тель
разоча ро
о чи
ны нче
за ра
чи ком
ту зи
разви ваются
достои ным
бри та
ч ком
ви кто
би лл
сдела ет
понима л
коман де
амби циоз
до ля
вы дума
произо идет
ужасти ков
при кве
пол ет
широ ко
ч енное
па чино
смотре лась
ан тони
меч ту
стен ы
схо жи
рожде ствен
в ве
у том
те или
пе в
по среди
ми лои
жа ются
чка м
вписы вается
вы ходя
кино фестива
вся кии
необы чно
путеше ствия
м эи
про чего
ви ль
су ль
деистви ем
увере нность
по вы
чи ваться
явля юсь
вери тся
переп лета
бюдже том
ми ров
ис ходя
прекрас ным
раду ют
до полне
вызы вать
излиш не
обстоятельства х
револю ции
эдва рд
из ме
ду гла
продол жают
пола гает
al l
проник нуться
спорти в
воз вы
много го
обы чным
ло т
ме ров
при носит
бе гу
це нои
сла б
ка л
ма три
хо дов
при вне
па дают
наз вал
пода чи
те л
со пли
ру ющии
ста би
ков ского
множе ства
сбо ры
d o
узна в
ла рри
ве ж
при шло
мя н
радо ваться
глубо ким
неиз менно
о у
призна ние
увид енного
ля пов
гу д
восхи ща
э ван
не реально
класси ческои
ры ба
ба ш
с вали
х еи
дела ется
опера ции
гря зи
про ме
реали зма
космо с
ж ор
созда вать
вра ч
иде али
болез нь
ри дли
от пускает
без о
деся тки
романти ка
рели гии
мо му
ви но
сло м
дву м
талан том
кор ру
ст ное
ва ш
понима ете
сред ств
средне статисти
конт роли
б ки
у стрем
сериа лом
кар тон
динами чно
влюб ля
адре с
о графи
п ете
ку х
мора льно
на тяну
ри ску
ма нов
ти рует
поли ция
ра ска
мело дии
стран ных
счастли в
ка тери
ту пои
отли чную
фа бу
зако номер
то шно
ре но
истори ческие
оригина льная
звезд ных
экспери мент
секун ды
ска р
под тек
чер ту
риз он
вшее ся
лу ет
работа ми
бли н
зако на
элемента р
фотогра фи
ль ва
до жда
француз скии
чужи е
де лки
эпизо дах
фигу ра
дьяво ла
хи вает
проя вления
к лет
бле ние
прави лам
созна нии
дочер ью
ж ное
о ле
рус ском
выбра л
оправды вает
ра сти
бо дро
из рядно
под вод
бле щет
деся ток
регу ляр
тузи а
г нев
я на
се ли
за шка
джон сон
отом стить
ден ныи
пои мут
и за
гла мур
года х
краси вое
тон кии
вку пе
состоя ния
евро пе
т ва
не ким
позво ляют
охо тно
иск ром
после док
эн тузиа
мар га
отде льного
счастли вым
улыб ки
реше нии
англии ского
бессмыс ленно
сочув ствие
ви ну
фо ном
внима нием
учи ть
емо м
о п
распро стра
серге я
и ль
вы мыш
гро з
семеи ная
марти на
сэ ма
молод цы
ре пута
при ез
си льного
фе мини
осно вное
кли ен
типи чная
прош лых
а ки
при ити
па ть
два жды
персонажа х
огром ные
в верх
тан цев
щен ы
боя тся
систе ма
ст эн
ри вз
зи т
меди ци
испыта ния
ассоци ации
подои дет
( !)
интерес неи
бен зо
обре сти
шар м
п леи
под разуме
кои м
взя лся
визу альнои
проблема х
броса ет
телевизо ру
я дер
по тери
дыха ние
образе ц
шут ку
экспери мента
поез д
изобраз ить
вдохно вля
э ки
выгля дело
неза теили
смея лся
премье ры
поце луи
р эм
глубо кои
потряса ющие
штам пы
кра се
выра жения
друж бу
преда тельство
интерне те
з ра
ти вное
стра стеи
наз вании
подня ть
в ходит
по любить
под ве
возможно стеи
плане ту
mar vel
м м
се ре
ле д
монст ры
чудови ще
стереоти п
из оби
мик ки
си дел
появи тся
поло жении
вообще м
справи ться
боре тся
о сторо
п лин
по дели
про би
ди ла
тем ные
любо вни
одно разо
тол пы
алек с
мра чныи
определенно го
похва лы
подчерки вает
x x
не которои
не значи
бе лые
це рк
ень кии
психо лог
слож ная
подроб ности
чь ю
реали и
кора бля
поколе нии
лока ции
д ри
мо дер
лучше му
появи лось
дере вен
бэт мен
солн ца
затраги вает
з им
же ра
раз вра
ин деи
ще р
без ли
реали зм
обе р
план ку
посе му
цита ты
т ви
гре хов
рез ю
поим ете
бук вы
искром ет
ла би
ля ции
жа ми
краси выми
творе нии
дис неев
катастро фы
пожале ете
бе не
спо н
и стре
де гра
из и
бе жит
прибли зи
з он
стра хи
снима ться
коли честве
све жи
согла сно
пасса жи
m a
m an
я вления
ле ц
вы брать
пре бы
прово ка
алек сеи
к том
не делю
бе ри
гла вном
неи мо
мер кам
психо па
звез дои
ра ство
по един
ма ха
поня тие
предыду щеи
пере ходит
отсут ствием
популяр ности
впечатли ла
любопы тно
одол еть
r i
ку пить
люби ла
части чно
напря женно
побе дить
универ сит
удив лен
я тся
ва лен
за тягивает
чен ными
помо гать
опреде леннои
кур с
гна ть
непод де
ле кар
рас пла
сюжет ныи
шедев ры
связа нные
во льно
челове ческая
мет ра
зрителя ми
каче ственная
прекрас ных
соци альных
одино чку
наме ка
глуби не
разру ши
на гло
совер шает
весе лая
назове шь
лаби рин
сказа ли
безупре чно
влади мир
в ру
пере стает
мало бюджет
роди лся
обая тельныи
меся цев
о та
го ризон
обы гры
роди не
мел кие
техно логи
ки ло
ком пенси
пара нои
внутрен него
произо ити
товари ща
восполь зо
п р
пре ссии
воз гла
приключе ние
не ко
не объясни
да мы
концов ки
джар му
о характери
ма мы
картин кои
коми кса
реаль ным
мол чу
вопло тить
иро ния
смысло вои
про рисо
бо ло
пе рии
вы страи
га ло
ден ы
учи ться
стар шего
твори тся
а лен
нача лась
тер пи
слож ных
наро чи
v d
к ет
ло гов
ма ла
пи р
пере ход
им перии
истори ческии
уда стся
связа нных
ричар да
у ль
кру гу
краси вым
атри бу
форса ж
режиссер скои
выше упомяну
банди тов
площа дке
изну три
раз ного
жен ского
исполне ния
р да
дра го
име ли
продол жении
прин ца
нер вы
стю арт
восхи щение
стари к
лаге ря
r a
при ше
тво я
огром ную
важ ным
класси ки
201 1
продюсе ров
d vd
ле они
сти хи
сы ну
бра том
ар но
щего ся
фак тов
пода рок
друзья м
похожи и
джор джа
реа ги
алле на
у тон
то ре
ни ться
ке рри
вто рым
200 5
200 8
знамени тыи
сценариста м
ох ран
в пи
э ш
на жи
ре вно
мо де
от цу
вспо м
пара норма
сход ство
взросло го
уилли с
хо т
стра ши
ожи дает
девя но
не большая
ще но
ды р
зре ть
постанов щика
отсы лки
обма ны
намере нно
о мер
за хочется
служ бы
) ;
и кс
да но
про свет
дет ского
ке вина
соб ственным
буд ни
из бе
ту ман
тель ница
щая ся
мест ных
сюже тов
з вание
у мно
на последок
же р
ти к
ди зе
ги та
семеи ныи
хариз мои
услови я
церк ви
на став
кар то
мыс лями
форма те
темати ка
у делено
следо вало
преступ ника
достоин ств
креп ко
собра л
ознакоми ться
ц ру
ц кии
ка ре
ви ктор
истори ческои
виде нии
похожи х
контра ст
пое зда
з нь
мен ная
ту рои
кри зи
ребен ку
клас сно
но мини
вы зов
лю сь
раз глядеть
ба бо
роди телям
американ ском
высо кои
концов ке
по ет
ру гать
ду ху
нуж ныи
подо шел
художе ственнои
джеи сона
чудови ща
нагля дно
л ками
я бло
на в
фи г
от дает
ши ба
вели ких
отра жает
живот ные
предло жение
? ).
лю ци
ально м
сня тая
талантли вых
забо тли
филосо фии
конфлик та
жа жду
сло ве
ум ная
уста ре
юно ше
флэ ш
фи шка
сто го
при тяну
пер со
сте б
ха на
пла нов
отно сятся
проис ходить
деся тых
попро бовать
звезд ныи
оконча ния
вдох нови
ч ках
чи н
просто е
ответ ственности
серьез ное
наблю дая
использу я
мг нов
те ку
ру са
чер ну
равно ду
маи ер
драмати зма
глуби ну
робо т
андер сон
крово жа
за теря
осно вы
цион нои
звуча ло
реф лек
ру ются
фа бри
совер ша
20 10
постоя нные
осозна ние
любов нои
горо ду
у шед
не дале
оли м
ва ше
перво му
темати ки
солда ты
поверх ности
фут бол
зна ния
кэ трин
бэт мена
отчет ливо
пла ни
поя влением
сериала х
жесто кие
веща х
c k
н т
у брать
не возмож
ре тро
щи ны
мину те
нен ные
близ не
малень ком
малень ким
помни т
остро ве
и вана
ч ли
се но
ужас ныи
посред ством
отече ственного
совмести тельству
ж енное
до полняет
ха ми
удиви тельныи
взры вы
воен ные
госпо ди
анге л
кварти ре
на страи
до ли
му сор
пол часа
принци п
стандарт ныи
награ д
фотогра фии
ку чеи
бли ж
жела ю
еди ного
счастли вои
предсказу ем
отра жение
сегодняш нии
б ря
и е
ри ан
получи в
нико л
короле ва
ку са
рова ние
вся кои
цион ныи
д на
не правдоподоб
га ран
пи л
сло вам
воз духа
свобо да
постав лены
скан дина
под ы
рен ная
реально го
форма т
зага дкои
затро ну
го ль
ти ны
под ло
кан ди
бога ты
улыб нуться
т вин
бе ра
пи шут
класси ческого
сохра ни
у мы
х во
да нному
сти ну
гра би
краси в
россии скои
зага дка
объе ктив
призра ков
неожидан ные
чле нов
вы ступил
чи м
жало сть
? ),
п э
си с
обы денно
отчая ния
ко же
ли чные
кра сно
ан сам
млад шего
фрэн к
не ров
тру до
уи лл
колле ги
круп ных
но чнои
ри са
от ряд
мас сы
сан та
сове сть
г ети
ро мане
ру ба
актри сои
положи тельно
коми кс
постанов ке
приро ду
вы ле
па с
моро з
зелены и
да ни
да ло
за уряд
та цию
про шли
бы ст
чи ться
счастли вы
оку нуться
дож дь
о по
го дом
бо нд
эк зо
доро гие
десяти лети
и ся
ре ин
за скучать
ви ки
сдела в
отсут ствии
существо вать
уго л
бре до
окружа ющим
спаса ть
кажу т
неожидан ных
расследо вания
ж ном
са ги
тре ш
леи те
сла бе
емы ми
поки дает
с вида
т кои
по ни
теля х
романти ческои
выз вала
англии скии
уэ лл
транс форме
d i
у пу
ле оне
же сть
кри са
уби ли
наи вныи
следу ют
стар шии
простран ства
прочита ть
вынужден ы
те чении
ки д
ин вали
мне е
мест ного
прочита в
никола с
браи ан
им пери
лет няя
созда нныи
кар ты
забав ная
чужо го
изюмин ка
ви не
щи ки
ба к
ха ос
лег кого
совер шить
огром ная
пожалуи ста
герма нии
ли дер
про является
рабо тки
име ются
дви жении
рит м
физи чески
опти ми
категори чески
у видит
достои на
достои ная
внеш нии
обая ние
ганг стер
в стает
пере сказы
особенно сть
кардина льно
у до
раз ным
га ра
воз духе
кримина льныи
тюрь му
таки и
гру бы
страш ная
фут бо
бе лом
пого нь
э такии
на ле
ви а
ча сы
при чу
три ум
нача лом
дно му
мощ ныи
прописа ны
то ле
не правильно
ма му
ба ре
обы ва
част енько
поклон ником
сово куп
дин г
трога тельно
с ныи
но гами
из насило
гре ис
диа ны
пода ча
нару жу
устраи вает
цер ков
ва ющим
ство вали
сла бая
переда л
корот кии
рассу ждения
на бо
де лы
ди еи
пра вы
шо ко
эк зи
класси ческих
глубо кое
нев нят
пого ня
сопережи ваешь
теат р
ге не
амери ку
19 3
зада ние
знамени тои
энд рю
реак ция
ка мень
множе ством
оригинально стью
теха с
к вен
т ном
род ного
похоже е
траге дию
информа цию
у глу
ш она
ну ар
кра сками
пове сти
совет ские
моти ви
мюзи кл
теори и
ка рен
се дь
ма фии
ти ки
про шла
подоб ная
серьез ного
хра б
исти нное
талантли вого
джу льет
похожи е
рассказы вается
мг новение
ии су
ро я
режиссер скии
вое дино
оригина льность
каса тельно
съем ках
мечта ть
поко я
улыба ться
саспен с
с рок
рас стре
само бы
ред ка
огром ного
остави ла
отчая ние
элемен тов
особы м
пам ят
эк ше
рен ные
великолеп ные
получа ть
страш нее
внутрен неи
осозна ть
призра ки
наро дов
м ла
на би
деи ства
авто ром
тол кну
бан дит
отправля ются
роберт с
отказа ться
экзи стен
я ви
хо бби
ха х
кон струк
гу ля
доба в
язы ком
ченно сть
иор ка
е катери
у тро
па рои
бу л
ин тона
получи те
эк стре
приня л
составля ющую
ост рова
реша ется
подчер кну
реализа ции
поту сторон
о доб
вели ким
работа х
настоя щем
нове и
охо та
ли ка
со держит
фе ник
стри п
полицеи ские
попыт ку
ма те
хи лл
сня тые
гру сти
мину сом
выше перечис
таи ну
200 9
восхи щаться
диало гах
но ж
кру че
постанов ку
принад лежит
ю ности
го лд
во ров
мо ва
при о
дума ли
рен ных
бое вые
един ственно
нена вязчи
сикве ла
кок теи
дума ете
кру тых
успе ли
исти ну
описы вать
ищу т
ро зы
во леи
ма ет
ле жа
юмо ристи
вол к
глупы х
возник ло
в ступи
на ты
за вяза
за рубе
ки бер
про ка
сть я
пре мию
ха у
крити ку
маши н
энер гети
кристо фера
плать е
! ,
ж ю
пи ла
вет ер
получи ться
карье ра
вампи ры
доказа л
порази л
скон ча
по ступи
из да
ну ле
пи и
неи шая
обяза н
понят ное
литера туры
отправи ться
сюр при
упор но
зацепи л
с че
вол ны
попа ла
ум ных
развяз ки
рома нов
мекси кан
во еннои
су р
вос питан
менно и
важ на
коло сса
влюб ленных
популяр ных
хозя ина
мура шки
фее ри
и дя
да ма
про бе
все ленную
га зет
кре сле
вспомина ется
культо вого
саспен са
способа ми
не знако
ту ри
день гами
гени ального
вызы вал
дис неи
сотруд ни
м эн
бе лои
вно сит
зда ния
уда чным
ленно м
обо ло
груп пу
бан ды
крас ныи
награ ды
ченно м
из редка
ста нут
краси ва
попа ли
серд цу
вяз чиво
солн цем
до му
пыта лась
присут ствия
страш нои
визу альные
рассу ждать
ен ы
ва шего
вы го
чер ных
между народ
зада чу
бана лен
составля ющие
объеди няет
характери сти
g e
а фф
за вод
про ката
раз ряда
рас кру
дума я
принима ют
джон са
разгово ров
обстанов ка
кинои нду
! -
то ри
не види
полу ч
рова нные
щен ные
созна тельно
выбо ре
мотива ция
) :
у гла
се стер
сле зу
пред взя
дра и
вя ло
гре х
гро б
побе г
паро чку
ла ет
ши вается
теря ть
е ма
у держи
ме ла
са д
сдела на
обо сно
сказ ке
фу нда
спер ва
t u
б ры
де нии
ди сне
при том
раз ду
тво е
мас сов
круп ные
принце сса
гос под
h t
да нь
фи л
саундтре ки
исполни телеи
выс шии
получ ше
а не
чи вают
тво еи
обо зна
све том
выс шеи
атмосфер ныи
поп кор
с ные
оправ дать
журнали ст
пун кт
пете р
от кли
ку бри
полу тора
лет т
бра л
хариз ма
холо днои
поряд ка
поце лу
со страда
ди лись
дя дя
получа ют
необы чная
меся ц
не со
не шь
ка пу
ля пы
зо вет
дя тся
американ ским
бер то
драмати ческии
закончи ть
собира ются
любы х
апокалипси с
австра лии
д д
на ступи
ва жен
от тор
кру того
могу ще
укра ин
то нах
созда нию
доста лась
ра ть
ми кро
ме з
пере ве
оста нутся
яр кое
вла дель
погрузи ться
ре ст
высо кого
свобо де
эле ган
стру кту
стан ции
андре я
а нно
у бого
ро ждается
кино лента
откры тым
джи ллен
эм ма
нали чии
б эн
за к
за интриго
пол ков
много обеща
лет ит
высо кую
лета ют
иди оти
патри к
адво кат
кинотеатра х
со ну
при тор
ше ри
шу м
род ные
замеча ет
тако вым
дета лях
в ка
за тяги
фи ка
ги ль
обще ние
стара ния
поклон ник
точ кои
стари ка
фле ш
о зи
це нег
пере нести
колле кти
элек три
се строи
за дает
со ра
ве со
созда тель
серьез ная
участи я
2 2
ли чная
бои цов
сравне ния
хладно кров
по э
про ска
вер то
дер ь
фина лом
опреде ленных
щен ных
доба вок
и са
ст р
ла с
па рази
пре обра
жен скую
каче ственнои
рус ская
неу лови
гри н
уче сть
миха ил
уилья мс
ли вая
па ло
говори м
говори ла
бес сон
мело драму
соба ка
по говорить
во семь
бо ю
ня ться
чер ным
занима ются
полови нои
изобра жение
о существ
х нуть
по страда
важ ная
ли ст
ви са
ру б
чу точку
кар л
основ ным
необы чное
милли она
закончи лось
! ',
ю ныи
не чи
ко зы
ки ды
ча на
бе дня
дума ется
экра ну
послед нем
роди ну
смеш ного
не интересно
про зви
от те
интере сует
мет ров
явля ясь
яр че
душе вно
прово дит
запомни лись
сталки вается
ли ниеи
вы мы
си ро
ин фан
нем ся
обра щать
тру пов
выбира ет
хле б
изде ва
драматур ги
тридца ть
ж ную
ф ли
ф оби
оч ки
став ку
дэ ни
постанов щик
дости чь
следова тельно
боль ных
тем п
серьез нои
принци пы
лица ми
существо вании
соба ки
субъе кти
у шла
э ла
со ставляет
до чка
сто п
ска зок
дол г
подо зри
знакомы м
согласи ться
покали пти
ш лись
не простои
ста х
жи вого
шен ная
напря га
ошиб ка
культо выи
душев ные
замы сел
парадо кса
швар ценег
люби мую
поста ре
доба вили
нове лла
попро бу
противостоя ть
шоки ру
инсти нк
то чек
бе д
жда я
стран нои
джо ли
близ ким
анти утопи
сюр реалисти
п лет
не которыми
ли де
про жить
кан ни
лан дии
по еха
пере но
кон сер
сце нои
следу ющеи
натура льно
профессо р
гордо сть
оформ ление
ра стет
ла бора
сим п
позво лить
ада ма
низ кии
бабу шка
способно стями
ориен тирова
за ре
все ленная
ис пор
кор ре
гри ма
взросло и
х эл
ре ино
ну ждается
чи ны
дра ив
сня тых
эта ло
ог не
меч те
побе ждает
невероят нои
повто р
язы ка
дере вь
неизбе жно
до тягивает
ве рят
ца ря
сред нии
трилле ром
основ ную
преда тель
компьютер ная
выя сни
дове лось
ве ло
про тагони
кри ки
чувство вала
запомина ющиеся
запомина ющихся
хо тим
си ю
тем ныи
кру тые
наи тли
второ сорт
разочарова ния
же сти
ну лась
гра ф
ба ба
ша м
кри стен
раскры тие
ради ка
нова тор
жало сти
крат ко
о ско
ли х
ли чныи
бо та
бу дора
бра ли
ди тя
рова ния
тяже лои
уника льныи
противостоя ния
находя сь
деп п
ло па
про шу
ча ться
кор рек
выра жением
япон скои
у л
ю н
дет ально
жен ными
фак ту
события м
кази но
дет ская
кра ино
высо кие
понят ны
201 3
застави ли
сп лет
ми ллер
фор ми
ощу тить
треть е
звуча т
философи я
и мен
талантли вая
скром ныи
маги я
с нои
при дира
тя гу
клю ч
гру дь
откры то
постав лен
бь ют
отврати тельно
универ са
шту ка
долги х
ла га
се ра
бра к
прият ных
откры л
ченно сти
э х
ро джер
ма э
чи нов
вои стину
сери ях
ада пта
идео логи
не большие
ма ки
вы полняет
це леи
под ходят
опреде лить
убе дить
пози циони
похожи м
влюби ться
танце ва
организа ции
экзистен ци
ро за
во я
ха ть
люби ли
твер до
пье сы
k e
о дея
все мир
ше но
кре ст
каче ственное
оригина льности
невероят ное
оты гры
на сле
до г
вы держи
при держи
под лин
жале ю
товари щи
умо ри
ру р
карти нами
тре ни
уда чных
деиствительно сть
оби д
костю ме
непринуж денно
у меть
щ енного
до ско
пре одолеть
том ми
пове ству
осо знает
поли т
близ кие
кур се
четвер тыи
постара лся
вирту оз
се ме
об лож
пре достаточно
гру сть
посмотре ли
щеи ся
спор та
кол ду
дебю тан
и ными
на вязчи
ко жа
се стру
бе стол
гу мани
успе вает
фран ши
малень кую
кримина льного
представи тели
влия ет
штам по
поднима ется
у слов
по думала
раз или
рас поря
зи ть
роди тель
раскры тия
200 7
иллю зии
банди ты
придума ли
ма ном
смотре ться
логи ке
подоб ную
выгля дела
противо ре
мисти ческии
застави ла
джим ми
вы тащи
недо четы
мра чная
объе ктивно
ка кому
ти ль
енно м
само лет
кре сло
ана то
матери н
обстанов ку
толе ран
из нан
радо стью
замеча тельнои
хе ль
потряса ющеи
гон кон
техни ческои
рома ну
пересказы вать
о забо
со чувствовать
бо д
са ша
раз мы
ба ль
ника кие
ску ки
име ла
свет ла
превра тить
эки па
а за
воз дух
кино поиске
фо ку
име ющии
бер на
страш ным
приз му
спаса ют
ш нои
по н
по кажут
пу ю
пол ы
сра жения
бри ллиан
хро но
боя лся
фигу р
ль нее
ка ст
от зыва
мет и
ар гу
раскры вать
сек сом
ал лю
публи ку
полнометраж ныи
подкупа ет
в стать
на строен
ве га
ви и
при лично
си нд
ку ко
три кве
дево чке
оде жда
довери е
доброт ныи
авторит ет
пода рил
неплохо е
стран ного
переда на
бур жу
д еннои
ви ка
жи выми
ствен на
фина льные
вери л
затяну т
случи тся
в ки
ю ного
це лои
ис чер
мер но
смеш ными
скры вает
мест ныи
погру жает
француз скои
таин ственныи
мари о
по вели
де ка
про дви
хо п
ста вшии
ство вала
смотре лось
скоре и
джо зе
мысли ть
режиссу ры
любя щии
чрезмер но
хо лли
раз деля
кри тери
оригина льных
ощу щении
добро душ
приня ли
поведе нием
л кои
оста нов
впечат лением
каче ственного
развора чиваются
объясне ние
просле живается
маэ стро
с нуть
чи тся
чер ные
жан ром
тон кая
досто верно
отвра щения
рэи чел
спил берг
: '
q u
к возь
на бира
по дар
мо ни
вы дум
об лик
ба б
вер нется
рова ла
паралле ли
приобре тает
проигры вает
на по
момен те
нас квозь
лов ко
бюджет е
смысла х
закончи лся
гон ки
клад би
апло ди
альтерна тив
u s
х м
экраниза циеи
уче том
зажи га
за х
за гово
дет ски
получи т
тро гает
раскры ваются
мень шеи
замет ила
се реб
вы полни
при водят
раз вали
ника кая
свет лыи
продол жением
слож нои
систе му
лон дон
улица х
у ст
у сы
за стен
ма чо
фа и
понят ным
запомина ющиися
полити ки
соста ве
выпу ск
по эти
вы держан
чу шь
шен ным
бога тыи
жизне нно
концеп ция
х ре
со жа
дь е
тем нои
пробле мои
фак том
претен ду
испорти ть
к эти
у много
ч чи
ен ныи
пол ета
важ ны
деиствия ми
порадо вать
крова выи
мафи ози
от дела
гла д
доб ре
зрелищ ности
наркоти ков
п са
с бли
у стоя
ш ные
по бы
до спе
ве не
бо б
лю ка
сти нг
щи на
гово ро
пла ном
рова нных
жесто ких
треть ю
право су
отказы вается
та ться
удиви ло
досто ев
связа н
кен не
робо та
рассчита н
экрани зирова
ж он
с пя
актер ском
види тся
дли тся
оса док
ю ная
жа на
фа сс
твор честве
наблюда ется
бун та
президен т
титра ми
o l
про дела
ше ствии
кра ю
мон ро
выгля дели
ок на
мю р
экс пре
w h
ка п
ле тов
под текст
зу бы
удиви тельное
актри се
потеря ла
раи он
восхи щения
худож ников
легендар ного
нелепы е
преимуще ственно
d c
т ль
ма рии
без образи
чен ко
преду гадать
растя ну
бизне са
: )
ш тур
ре не
те рон
при суще
об еи
пере полне
им прови
продол жается
слы ши
шар лиз
реализа ция
ф ю
ва ющее
ве чнои
че в
бер тона
спи нои
заслу жил
легко мыс
последу ющие
выбира ть
влюби лась
нек до
в клады
не безы
ле ги
мне и
пла ги
пла нирова
рова ннои
уме стно
сомне ваюсь
джен тль
зерка ло
а некдо
на ряду
за ци
про стую
вы ключить
стра хов
кри чать
вели кое
рен ным
прият нои
глубо кие
зрели ща
днев ник
усили и
не куда
ста рым
пере воде
взгля дов
реи чел
прово дить
исче зает
мэт т
ре зи
за ция
ха рт
персона же
любо ваться
смеш ное
звезд ные
вы дать
па то
без опасности
вели кая
жде на
дже ф
рен ного
поя са
произ води
200 6
перечис лять
а эро
г ет
с ень
не заме
деи ствуют
наде жд
откры тыи
достоин ством
жест кии
задумы ваться
ви я
пре гра
сценари стом
пробле мати
постав лю
успеш ныи
роме ро
ю нои
се ле
пере вора
емо в
произведе нием
исти на
сне г
реаль ную
дости г
моно лог
ка ссу
ми ссия
понят на
пеиза жеи
фрэн ка
джесси ка
г воз
на стои
не нныи
ра чи
ти ну
му з
жа жда
це поч
жиз неи
закончи лась
отдельно сти
порази ла
хри ста
супру же
к эм
у от
ра б
ре ль
бо ге
ин спе
момен том
чен ную
обла дают
неожидан ным
заканчи ваются
дисне я
t a
с бежать
у бо
ц кого
че стныи
аль ны
ден ные
искре нность
экш на
необходимо сти
треиле ра
il l
проход нои
гип но
в след
ри те
при тягивает
раз дира
неи шеи
превра щает
хариз мы
широ кои
жизне радо
не те
ти но
бе лая
кре и
кни гои
ошиб ку
проце сса
началь ник
злоде ем
десят ков
f e
го нора
за ма
при думал
под ли
жен ских
пси х
пои мать
поста ново
нен нои
бога тои
принци пу
необы чным
следо вать
фено мена
у си
у рок
ра ско
от ва
ку кол
комеди ях
зло в
стара тельно
соци али
потра тить
двига ться
поверхно стно
на сти
мо ли
без оби
лет них
иде шь
легко сть
романти ческих
вызы вали
симпати чная
теи лор
не сло
во енного
про низа
при мени
ты вала
ба ио
ком фор
музыка льного
собственно м
жесто ким
повто рить
влюб лен
приро дои
мо дели
при соеди
си в
гру ди
чита ет
кри чит
пора жа
проек том
представля ю
компьютер ных
рекла ма
психи атри
предла гают
подозре ва
балан си
спил берга
w e
с ных
на ста
дра кона
вра ги
рую щая
суще стви
вид на
разви тии
откры вается
бри га
хра бро
шедев ров
разы гра
систе ме
объясня ет
брита нии
опреде ленную
мест нои
момента льно
преврати лась
кали фор
д эн
с мену
не доволь
та ют
пе л
вь ет
род ным
глубо кая
зага дки
джек сона
двадца ти
дополня ют
ли чных
ги бель
кои х
хи рур
мет е
психо логии
представ лен
ap p
во о
ди м
бе сси
жен ская
музыка льныи
стер ж
убии стве
замеча ть
счастли выи
нево образи
энер гии
о тои
у три
на зывает
до вер
об лег
ку клы
игра ющии
отли чает
класси ку
защи тить
мето ды
а фро
вы ступа
са л
вол не
сколь з
фигу ри
гром ко
ужасно е
а бра
у клады
не которую
по роди
ди вер
вы вать
вы вают
пу шки
кино картины
сла ща
пода вля
фантасти ческих
масшта ба
оты скать
мега поли
d is
о се
о пла
не предсказуемо
ма та
со рок
до бы
вы строен
пере верну
спо ри
вели ка
нуж ное
согла шусь
кримина льная
наме ки
выбо ром
попыта лся
происхо ждения
з вер
по ток
бо рода
чи стая
нь ку
жде нию
краси ть
кримина льнои
хозя ин
публи ке
стереоти пы
леите нан
с бы
ре ки
те лом
мя те
един ственного
долго ж
визу альная
современ ная
зрелищ ныи
несколь кими
сре де
сумасшед шии
ва ющиися
се стре
стра дать
сме шить
лично стью
весе лые
нове нии
чисто го
круп ным
десяти летия
удивля ться
устрои ть
познакоми ться
влади мира
танце вать
w or
на просто
про хо
бы вшеи
цен тр
точно сти
замеча тельного
показы вается
крити ка
талантли вые
евро пы
дья вол
профессо ра
бензо пи
экзо ти
не мысли
сто летия
при нес
пре следует
само лета
настоя щими
полно ц
гне ту
четвер тои
я вныи
на па
не вырази
ть мы
тя тся
сло и
ожида ние
кора бле
заня ться
выжи вание
со ль
хо хо
об щаться
пере до
ды м
сно ве
тра кто
сомне ваться
вку са
страда нии
испы тывать
ир ланд
ап пара
не большое
по кор
ки ра
би лла
очарова ние
соци альные
англи ча
горь ко
ко стеи
ни нг
без душ
оператор скую
слыша ла
цве тов
развле чения
ж дите
ма ска
ду тся
тем ных
чер ное
теле фо
класси ческая
гро ма
уверен ныи
непло хую
уста нов
воен ныи
комна ты
фильмографи и
пред вку
учи тся
необы чнои
напра вления
праз дни
слабы м
органи зо
амби ции
ка нику
пред стоя
ственно стью
сты ков
силь ную
визу али
бестол ко
с держан
по строи
ко фе
за тра
сло ган
фо кс
куль туре
голливуд ские
проя вить
размыш лять
прико снове
постара ться
ло б
за на
ти ви
фи лд
боль нице
кон не
похо ждения
высо ких
пле мян
положи тельное
ужас ные
защи щать
франшиз у
массо вого
зерка ла
с наи
не жно
мо да
му жу
дже реми
совер ши
фор да
помо г
гре и
замеча тельных
следу ющее
необы чного
нико ль
кид ман
ра ни
пред рассу
поло тно
бое вои
тол ку
нена видеть
голливуд скии
психологи ческои
on e
жест ко
зво нок
рожде ство
ракур сы
наткну лся
франши за
ю ных
чи в
жен ские
раскры т
200 3
подроб нее
слэ шер
б рез
в правду
ю рии
но т
му дре
дела ешь
гото выи
запомина ются
супру га
к нет
ди кии
жен скии
ску с
актер ских
наи дете
мор ган
запа да
бесконе чные
испыта ть
телеви зор
представ лены
предела ми
коммента рии
ди ск
воз мез
забы вая
любов ные
ужасти ка
концеп ции
шизо фре
си те
гру зо
красо тка
современно е
акцен ты
заключе ние
римеи к
канди да
чи сла
ня ются
пло ти
дово го
каче ственные
ар мия
красо те
мимо лет
наш лось
201 4
б рази
де но
ви га
чере ду
обра щается
ключе вых
тол ко
уче ния
подобра ть
неот ъем
бары ш
не дель
от реза
ча пли
ну ло
раз обла
пи ли
ин стин
пра вляет
хи ро
шу ма
глу пая
наи вность
пожа р
кеи дж
подчер кнуть
f or
п ку
те ром
про зра
хо ре
кли п
мело дия
приключения х
моно логи
на река
ма нер
ви з
са к
пере мен
доб рую
деистви ях
смея лась
ро ба
ко лли
ки вает
би шь
полити ка
увлека тельно
черно кожи
перспе ктив
ни ст
ис пе
шь яма
сно у
чита я
музыка льные
застави ло
тома са
пожале л
проявля ет
деп па
о кра
по чет
ки бор
при тяги
при емов
мен том
ван ными
япон ского
дав ным
блокба стеров
умуд ряется
пах нет
бело сне
возму ти
лука с
де неж
от печа
чи вого
кру тится
кар на
искус стве
измени лся
возвра ща
пароди ю
непонят ным
порази тельно
подтвер ждение
родствен ников
омер зи
сти на
сво дится
пи ани
кон цом
бра ться
алек сея
интригу ет
привле к
оке ана
парти и
порт ман
ра ста
ко злов
ми ная
ве чная
сво дит
челове ческии
ван ную
бре да
мотива ции
учены и
оборо ты
инфан ти
и ни
по дальше
дол гии
извест ны
с ходи
ско пи
фор миру
женщи нам
щен ная
бога тых
бана льная
мульти ка
испыта ние
кана ла
блокба сте
заинтересо вать
мертве цы
слабе е
не раз
не дели
за де
нача лся
ставля ют
держа т
сложно сти
измени л
согла шается
ценно е
пользу ется
назна чения
о смыс
по ку
ва шеи
де д
ви нои
ля я
ком про
лет у
иде альная
жестоко стью
неожи даннои
чудес ныи
наказа ние
тату и
коктеи ль
ко ры
ков скии
очарова тельная
пет ии
скажу т
предсказу емыи
сексу альнои
шикар ная
увлека тельныи
наро ду
у мни
ще нию
си пе
раз мере
ку сок
стра нах
ор ке
комедии ного
молодо сть
сати ра
не долго
по гре
ста лин
пре сто
вет е
иде альным
неве сты
побе да
согла сна
забы вает
пафо сно
мужи ка
неудач ник
з вери
ка ются
лен тои
лин г
разви ваться
прошло и
силь ве
культо вым
мага зин
хули га
' (
ко эн
ди лся
при прав
вет ера
подоб ном
фран кен
важ нои
крова вых
пира т
о дет
с кро
гла вы
стоя щии
убии цеи
вни з
раздра жа
жизнен нои
оправда л
фар с
ра сту
ли чную
чи стыи
кре а
став шего
ум ным
против ника
обре тает
кана л
возлюб леннои
у ин
х ак
по ляр
по зави
ко ма
ть е
ми ры
меня я
кру жи
одно тип
бро сил
напря женныи
джо ш
забо ле
мел ких
объясне ния
балан с
вестер н
шве д
синопси с
т ще
у щер
на полня
за хотел
та ли
вы ска
неи шим
род ни
нен ная
кли ши
душе вныи
наци ст
опы том
дубля ж
ш ных
ко лы
ли вого
ло на
од ри
ком понен
стра дают
гля н
искрен няя
шар лот
содержа ния
корпора ции
портре т
чарль з
изоби лует
w ar
х ем
за ют
три логию
кре по
счита ли
знамени тых
товари щ
лоу ренс
мэт тью
красав чик
v i
не ром
ре ме
ма ны
ве ря
ти хии
бе ды
су хо
вопро са
достои ных
спокои ныи
художе ственного
супру ги
сочув ствия
выр ваться
по тихо
до чки
про ро
ви ла
ди ст
рабо тка
рова ны
тан цо
мест ные
тупы е
аккура тно
вело сипе
неотъем ле
у сугу
ре да
пре старе
ска жите
смотре в
бли зок
преде л
вол ка
жесто кого
глубо кого
невероят ные
драмати зм
робо тов
отсы лок
блондин ка
ст ную
тре мя
пуска ют
демо нов
регуляр но
в клад
с сом
ка стинг
ен ные
раз ор
смо гу
ску чнои
вели че
настоя тельно
трилле ры
место м
голливуд ского
любов ных
зрелищ но
умира ют
тара ка
часо вои
вуль гар
проме жу
c e
ка пель
та ре
де би
до не
мен ные
гла зом
им пуль
американ скую
наткну лась
разбор ки
мла ден
и ско
ко шки
со ревно
сте ри
рова на
пока жет
ском кан
знако ма
подо пле
переда чи
писы вать
проч тения
экрани зировать
афри кан
скандина в
у про
у ходят
у шли
чи лся
це лого
гла ди
гру стныи
осно вои
оригина льные
супер героев
возвра щаться
счет е
оде жды
попы ток
неприят ности
пришель цев
спектак ль
а лан
фо в
позитив ныи
охарактери зовать
t i
ш лю
ти ру
чи ну
кинематогра фу
потеря ли
популяр нои
описа ния
наме кает
англии ском
носталь гии
суме ли
сеан с
како во
по тер
ло ра
гла зу
тем пера
женщи нами
продол жить
джо ан
реак ции
о существи
э ин
не котором
за ть
ве рои
ци ф
без ба
без защи
пар к
пар ню
достои ные
твор ческии
200 4
изба ло
последу ющих
зат ме
но мера
по сети
во до
бо бби
сто процен
игра я
ник чем
тан дем
нес часть
нен ным
мра чно
горо дов
постави ла
озву чка
охот ники
пь ет
кинои скус
к рэи
то ном
за се
ки о
про сь
пло ско
шу тить
серьез ность
невозможно сти
глупы м
характери зу
музыка льная
рус ским
мело драм
отсут ствуют
близ кого
крити ковать
публи ка
блокба стера
перео смысли
киноинду стрии
ст эт
де прессии
ле ка
рас стоя
еди не
бана льным
внеш него
психологи ческая
причу дли
у ходя
по смотрю
де пар
при мет
дра кула
рая сь
лег кую
снима я
19 90
звез ду
большин ству
пом нят
201 5
случи ться
выжи вания
гал люци
всевозмож ных
о сле
об ща
бе лое
ке лли
челове ческую
поло вин
прави тель
происходя щие
дево чкои
преступ ник
типи чно
выда ющегося
выс шего
продюсе ра
конт роль
по гу
по всюду
за пер
ги ба
люби шь
ству ющих
прави льные
муж скую
тон кои
хе лен
lo ve
писто лет
а том
де ми
рас пу
нрави ться
чер ном
туа лет
дву смыс
космо се
у ступа
па и
стен у
слабо сть
вшими ся
бо гов
пове рил
миро вом
приме ров
талантли во
поворо тами
подви г
испытыва ешь
t er
из ъя
раз верну
рас поло
мер зо
показа в
бра н
реши лся
одино кии
мечта л
нау чно
меся ца
жени ться
идеа лен
сверхъ есте
у дели
ъ ез
об воро
чу дом
став ка
попу ля
достоин ству
золо тую
стано вления
слыша ли
хар ви
h e
з лые
но тки
ко д
ре цеп
ви ктора
мя са
логи чески
взгля де
нев ня
преступ лении
норма льнои
спло шь
товари щеи
у спокои
за вы
за печат
за хочет
пи н
проти вно
свет лые
дви жу
чувству ют
анали зировать
у стои
ш ная
ы е
те сно
де ляет
са ры
ча ю
щи ком
ша ра
бер ри
нуж ные
смело сть
199 5
короткометраж ка
ро уз
про вод
ди заи
от рыв
вер ным
тра вол
жела тельно
ощу ти
россии ском
зада чи
типа ж
вече ра
надое ло
ава рии
корру п
у держать
го няет
ти ту
ви лось
би блеи
сня лся
пери петии
скры ть
рекла мы
бок сер
благополу чно
гомосексу али
реино льд
про сну
ров ка
сери еи
стре бо
взя в
возвра щения
благодар ность
нормаль ным
х х
ма мои
це лях
су да
фо рт
соци ально
бала ба
коммента ри
не понимание
во дои
си нг
драмати ческие
мужчи не
мра чнои
забав ным
бабу шки
учены х
бы вало
ставля ть
ожида ешь
великолеп ны
положи тельного
соци альная
скры вать
манья ков
слабы е
пись ма
кори до
с формирова
та л
бо сса
при че
ха т
ха бен
дра ива
чет веро
прави ть
говори ться
способ ствует
наблю дает
свобо дное
треиле ре
з меи
за ряд
от кло
при гля
си дишь
пре небре
ря ют
вер немся
ды х
побе ду
подру гои
попыт ке
соба к
клу ни
никола са
первоисточ ника
о пусти
не редко
не большим
по лом
ма скои
каза х
кро ко
роди ть
россии ские
жут кова
разы гры
тако вого
потра ченного
образа ми
уилья ма
вообра жения
влюби лся
целе устрем
лабора то
д енного
от би
мора льные
дэ вис
волшеб ныи
взры вов
роме о
по боюсь
зи ях
предста влении
затяну тость
режиссу ре
режиссу ру
сердца х
экс пресси
юно ша
иству д
росси ю
подели ться
ва х
слу жа
зе ме
успе ла
удиви ла
очеред ным
убе жда
использо вание
стилисти ке
ac k
бы вших
от клады
раз нои
ствен ны
прави льным
искрен неи
гря ду
пропа дает
короле вы
культо вои
натура листи
попыта лись
голу бы
ут ром
по строить
про вел
вы воду
жи вать
уда чные
тех ники
пор тят
лице зреть
забы ваешь
идеально и
нашу ме
рыца ря
мгнов енно
вы во
бе гают
бу рю
рас чле
еди нои
старая сь
ет у
со рти
пи нг
дет ях
кан н
прави тельство
пря мои
ква рта
гор дон
цион ных
реалисти чность
сми риться
en d
стреми ться
пусто та
душев нои
катастро фи
утвер ждать
кэме рон
т на
на пере
ла у
до са
ден ная
осо бую
ском про
неза да
грани ц
нау чнои
допусти м
джеф фри
a b
d re
т етра
мо шен
ми но
ди ри
пи ка
пере стал
ис следова
печа ль
фак та
лица х
з ю
ф т
за просто
ма д
челове чности
пред ме
мос кве
емо сти
нар коман
вопло тил
эмоциона льнои
жут кии
физи ки
волну ет
у видишь
но ль
не даром
лу на
пу ли
сте не
лета ть
демонстри руют
загадо чныи
антагони ста
небезы зве
а ро
о гля
ше нию
раз лу
пере смотрел
извест ными
совет ском
следу я
убе ждения
спи т
кам па
насла ждение
зрелищ ность
использу ют
чест ное
сопер ни
мисси с
ра со
ре сур
ва ля
ма ша
че лю
лег кие
высо чаи
вар да
солда та
уга ды
споиле р
умо пом
разба вля
поза ди
потихо ньку
и си
ф реи
до вание
жи теи
оригина лен
ква рт
пуска ется
драмати ческая
оши бо
мане ры
старо е
s o
у стал
па вел
ведь мы
вопро сами
отде льнои
сми та
взаимо отношениях
оли вер
заклю ча
иллю стра
совокуп ности
? ,
m y
и ном
ста ни
об ры
би лет
тра ктов
вя зыва
глу ши
плане та
благода рить
пара мет
своеобраз ным
умира ть
отор вать
воспита ние
примеча тельно
ште ина
ль ви
про ходя
ста рую
от прав
ты вали
пу х
безу много
пусты е
бру но
обнару живает
генера л
антагони ст
буржу а
о знаком
ве чные
про б
сти льно
сть ян
чу ди
карти нам
нь кии
стоя щее
аудито рия
красави цы
транс форма
обили ем
медици н
л с
п с
с держа
ди в
разу ми
цион ного
популяр ныи
холо дныи
изобра жения
образо вания
лес би
трю ков
марга рет
з ни
о про
о ше
р до
с гла
ле дя
рова но
уда чнои
пове рила
нена видит
искрен нии
тек ста
катастро фа
ла до
сто ра
созда теля
кар ло
коро б
измене нии
изюмин ки
заключе нии
изнан ку
о в
не которая
не большую
по надо
до ходит
про вала
при дур
преде лы
мульт сериал
куль тура
романти ческие
участ ники
независи мо
отказа лся
конфлик ты
интерпре тации
в енно
ч ти
на г
за мира
ма ску
це на
удиви тельная
великолеп ную
дар чу
невероят ныи
re s
четвер тая
гармо нии
жур на
дета лям
мораль ю
по лан
ри сует
те пла
про ни
ше ствия
ке ин
тно му
сра жении
необы чаино
неу доб
благо получи
идеально го
заня ть
наив ная
термина тор
улица м
дмитри и
ре мо
за каз
бо ну
па ет
вре за
стра хом
пле чами
гряз ные
вампи ра
опти мисти
в добавок
у бои
при дать
боль шии
заме ша
боеви ком
осозна вать
скоро стью
интригу ющии
вариан тов
робо ты
ала на
экше ном
ка ту
за б
за стря
вер ность
ходя тся
ожида я
комедии ных
пого не
at ion
свер ху
лишен ныи
адре нали
тита нов
ш э
э рик
дет скую
пу ле
чув стви
мини му
буква льном
поги бает
совершен ство
школь ников
ne y
апокалипси са
встав ки
ж ье
о ны
с м
с ходит
ди пло
бы вшая
сто на
пи щу
тя желая
эк ску
способ ного
произ носит
ува жением
монта жа
воло с
трэ ша
бон дарчу
увид енное
уилли са
обезья н
обворо жи
ч лены
со ж
ви дов
ев гении
треть ем
внутрен ние
мисти ка
детектив ная
комна ту
вышед шии
с держи
на за
не кие
ре на
ри еи
та ски
са на
оста льными
созда на
кажды е
предста влена
полити ческои
повторя ет
научи ться
способно стеи
правди во
галакти ки
' '
? ',
т щет
то ну
из мом
ще ко
уда чи
захва т
зага док
дея тельность
декора циях
а фе
с кру
мо сков
про идет
боль ю
каза лся
лег ких
муж ского
реши в
иска л
стиле м
2 4
бе гот
ис пра
стра те
фо кус
став ки
пле ния
обяза телен
оби тель
ок но
охот ник
фами лии
нагруз ки
го п
за сты
ма че
ди за
сле зами
обще ством
созда ны
логи ку
ино му
кло уна
вспо миная
неза кон
выра жа
саундтре ка
саундтре ком
преда тельства
переигры вает
соблаз ни
джоб са
экстре ма
ва емся
ви рус
сти ра
кон ти
сме ни
фа та
цвет е
макси му
предла га
британ ского
е ду
за явля
ви кин
си дят
су мер
ба нда
рова в
любо вныи
следу ющие
дар си
достои нои
класси ческие
превра ща
живот ное
руко води
удивля ть
акаде мии
позд нее
манипу ли
t e
не ва
не убеди
из го
ку рт
воз ле
мора льных
чаи ших
содержа нию
моно то
термина тора
сига ре
нарочи то
а хи
ми лым
само отвер
сме лыи
начина ть
зем нои
разли чными
клу ба
худ шии
вжи лся
уг лом
г ю
ко лин
кла де
стро я
призна ния
мор фо
фантасти ческого
бере гу
характер но
крова вые
затяну тым
препод носит
свадь бы
о пере
ко лен
се рыи
раз ло
кла рк
стре лять
удиви тельным
обе рт
жесто кои
мра чные
пропа сть
прими тивно
ух мы
во ри
ва силь
пер выми
зна к
пя тои
диа на
нен ного
соци ального
представля л
паде нии
полага ется
мэри лин
безо говоро
нале во
г с
по зор
ре кор
экра нное
уда ча
ито ги
бана льнои
уче ников
упомина ния
при гото
раз дели
сюжет ными
сла бои
вол но
вид ны
таи нои
основ ного
мэ гги
компози ция
захватыва ющим
а вари
ти лись
стра стно
пло хи
бра ка
начина л
вари а
достои ны
забы в
поведе нии
л лу
ш ваи
то вои
то ску
ма мо
бе скомпро
шенно е
происходя щих
невероят ная
профессиона льныи
идеально е
умер ла
эда кии
объясня ется
?? ?
просыпа ется
граду с
3 00
о кре
у дру
щ енное
го дится
ли вают
ди лось
па к
бу та
обы чную
точно стью
теря ют
раскры вают
исполни ла
разгово ра
преду бе
надея лся
темно те
столкну ться
замени ть
нюан сы
кино картина
ар те
наде ждои
сред неи
концов кои
норма льного
джу лия
космо са
контро ля
p e
е ц
по га
со ва
от нес
раз делить
пове сть
слы шит
положи тельным
драмати ческих
мыс ля
измени тся
проек тах
дня х
мед ведь
плака ла
; -
i d
о за
не нно
не мину
ру ке
при шед
раз бои
пу стую
пол ные
совер шил
интри г
раи оне
вспомни л
реалисти чности
определенно е
видео ряд
пись мо
уважа ю
рыца рь
кир пи
по са
по сторон
ре жет
ва ни
хо фф
бе гут
нем цы
каче ственным
написа н
детекти вов
разру шить
выбра ли
симво лом
кварти ру
ве зет
мне нии
дан те
отлично го
нена вязчиво
лиш неи
гло бус
поступ ках
дере вни
пусты не
рекла му
уро ки
пожале ла
попада ние
у луч
ве дется
ку ски
га ри
ци вили
пере мены
тя ми
вме ша
каче ств
заслу жива
близ кими
нове ллы
забы вают
япон ских
кульмина ция
наход ка
аристо кра
в да
о ко
не хва
ли вые
до мов
бы та
вы тяну
вы ходить
вра ча
сыгра но
гре з
идея ми
осозна ния
позволи л
отвле чься
сверхъ естественно
в меня
на ло
ли вои
чи ем
раз деле
га з
тре нер
дви жется
симпати чныи
конф ет
обая ния
руко па
франшиз е
неоднозна чныи
воспита ния
приве ло
позволя я
устра ша
нарека нии
l l
про щения
хо б
ши вает
доста то
музыка льных
фран су
знако мого
груп пи
неу держи
зад нем
каме о
мысль ю
раздра жение
постави ли
выигры вает
аспек ты
чемпи она
библи оте
р ныи
у хо
не большого
де к
все лен
пи рами
тельно му
уда чная
девуш ками
оригина льную
стано вление
чиво сть
производ ство
парт нер
иству да
ж ными
ч неи
по делать
ри ко
раз ъя
бе гать
пере ходя
свои ственно
кл эр
философ скии
подтвер ждает
сталки ваются
апло дис
вспом ним
х эт
сте нах
стви ях
пла тить
дже м
иде ра
сты ко
жан ры
добро тно
претен зия
художе ственных
стано вя
отече ственнои
опас ных
канни ба
цивили зо
о пло
но чных
на вы
бе лл
пы ль
тра г
прави льное
работа ла
совер шать
бри т
прово ци
окру жение
спокои нои
собира ет
нач нет
сюр приз
выполне ны
коэ нов
одноименно го
д ками
о ка
с ным
с еть
на силь
лю до
слу жить
внутрен них
201 7
мужчина ми
философ ские
заинтересо вал
прием ле
неповтори мыи
понадо би
л з
э на
ва ре
ру би
рова нная
твор ческои
необы чные
искре нности
мол чать
спокои ствие
паре нек
нару жи
крас ная
реализо вать
интерне та
а ман
с него
у кры
не кого
во вле
те ру
се рои
ма ле
соб ственными
тво рит
откры тием
чувству ю
андер сона
коллек ции
кенне ди
t r
ро га
ни ти
ка ска
из ер
об щих
сте пень
постанов кои
влюб ленныи
кэ рри
пира тов
ау тен
ма стеров
до тяну
ме ном
ку кла
бу и
ров ным
запа де
колле ктив
сати ри
вписа лся
руковод ство
у виден
хо а
кон стру
оста льного
обы чное
свя зы
сс ен
оказа вшись
получа ешь
мальчи ков
увере нности
аген тов
доказа тельство
сможет е
споиле ров
офице р
принципи ально
выго дно
з верь
с наружи
не победи
ро ковои
мо дно
те много
про мыш
что и
ин ту
пере кли
дол гу
ар тур
посте ли
кримина льных
оку на
нара ста
хули ган
лих вои
аутен ти
2 8
о л
о логи
э лит
ска и
моло дую
конце рт
серьез ную
внеш ним
иор ке
ассоции руется
употре бля
по ступить
ни нд
че б
бо льного
ди ва
от чу
чере да
наи дут
пор ту
напря мую
занима ют
иро ниеи
мета морфо
улыба ется
неспе шно
гаран тирова
. :
с ры
у стало
ст ны
во стребо
ен ных
за была
вы нести
це пи
пере ко
заме д
бес пре
замеча тельное
достои ного
соци альныи
уче ние
характе ру
шикар ные
сп лете
кристи ан
офици ан
сче том
3 5
p o
а стро
ко ля
пе е
показа лись
ден ных
ар ни
200 1
оска ро
крова вои
шпи она
прочита л
экспери мен
крат це
дья воль
кульмина ции
руковод ством
кост юмо
обеи х
брази ль
у кло
у делить
ка толи
пере носит
ан жели
узна ют
получа ются
бю ро
пово рачивается
оце нок
корот ко
выз вало
полити ческих
постав леннои
тыся че
зая вить
кано нам
домо хозяи
чарль за
неко его
ш от
ро ст
ру си
ба скет
ин тим
ис клю
доб ле
фо ль
зу б
кро у
кар ла
тяже лые
крити ками
гер ман
пари жа
завер шение
le s
ненуж ных
в ключить
с сов
сто уна
отли чных
мало вато
охо ту
сикве ле
выполне на
здра во
ав гу
сою за
длин ные
у голов
ш ного
ст ными
станови ть
убе жать
красо чно
пари же
фигу ры
короткометраж ки
в нят
о тель
не соответ
го сли
во шел
льно стью
рас сел
образ цо
тер пит
убии ством
прекрас ны
дво я
бол тов
несчаст ныи
традицион но
програм ме
нара вне
метафо ри
г рэ
о чер
у миро
не большом
за ходит
до мини
вы ступают
бе лла
рас страи
меня ться
пла в
кру з
высо ты
произве ла
куль т
ум рет
пода рить
добро та
отрица тельныи
иди лли
полага ю
адво ката
особен ным
шекспи ра
г б
у году
ра на
за стре
при зем
ску чные
моло день
спи н
шко льнои
любимы ми
сми н
возмож ных
слабо сти
объе кт
миха ила
надое дает
обстанов ке
сплош нои
теп лые
p s
ш три
ве чныи
при дир
сте кло
пода ри
очере ди
поки нуть
кадра ми
любопыт ство
подходя щии
б лэ
те нии
ку нг
це ва
ску чная
роди ны
расска жу
красо чныи
психологи ческого
подума ите
u st
о стин
с лю
с гу
у казы
су рро
чу ю
вели кие
ква дра
пози цию
рекомен да
убеди ться
услови и
противостоя нии
государ ство
мудро сть
ig ht
треуголь ник
сурро га
в ступает
в кратце
с сеи
у мнее
ми ссии
вы сказа
сте сня
три логия
ску чное
цы ган
каче ственных
извест на
хе лл
превра щаются
поступ ками
преда нность
дож дя
ы и
ри вза
сто лом
ча к
дру ге
доб ром
луч шими
ску ку
прав дои
уди влена
пози тива
мальчи ком
успеш ного
опыт ныи
рассказа нная
дне вно
кано ни
приключен ческии
dis ney
в ня
ци оне
ленно му
обо р
тор го
режиссера м
давно сти
фантасти ку
реаль ными
окружа ющие
стрем ления
противополо жность
пош лыи
предпочита ет
глад ко
б ью
о пусто
ро со
за мора
ди кого
обо снова
ар мию
мар вел
ог ня
произве сти
психо дели
весе лои
све жего
визу альных
жизнен ного
рисов ки
эдва рда
ч ре
то ми
ри ст
про га
ши на
просто та
кон центри
кру т
авто бу
пар ке
откры тие
подо шла
запа д
лиза тор
джона тан
сочета нии
дора ма
выя снить
британ скии
фраз ои
придира ться
франсу а
ф ен
э ни
по ступил
ро бер
ва емыи
при ю
об щие
па з
дет ским
сла вя
каче ству
кло ун
яр кого
драмати ческои
приключе ниями
эмоциона льная
автор ского
наши ми
бензопи лои
е ги
ва ющиеся
мо заи
ма гии
из ен
ста дии
при ведет
деистви ю
лли ни
понима ла
узна ете
объе кти
своеобраз ная
вза мен
) )
2 3
у спо
на правля
на встречу
по кон
ме ин
ба га
ха уса
фа мили
печа ли
встре че
бога того
in e
спро сите
тупы х
вшем ся
е д
на подобие
ну лись
чи лись
ря де
над пись
краси вого
мал ко
великолеп ного
следу ющем
кор ни
постоя нное
неза уряд
связа на
темати ке
програм мы
реа били
m b
у ла
не изве
не сконча
по соби
при дают
бу ль
стра ниц
музыка льным
страш ную
призра ка
шан сы
сум му
хит рыи
небо скре
не триви
ва тым
ле но
вы пле
ства ми
цен у
сыгра вшая
видимо сти
опас ные
награ ду
потре би
кварти ры
взросле ния
воо душе
4 5
u p
но сом
за свети
момен ту
реши т
мощ ь
ребе к
непонят ные
пост модер
агресси в
ч лен
ска ла
ственно му
ведь ма
рез ня
графи кои
смер тельно
рекомен до
случаино сти
погру жение
япон цы
пусто ту
образа х
фар ре
прокля тие
антони о
умопом рачи
то не
ко шка
ло бы
ме чтои
самои ро
доба вил
дети шек
необходимо сть
источ ник
полюби л
научи ть
концеп цию
свадь ба
девчон ки
в дум
но чного
ри ки
до мом
про слави
ди кои
ры б
чи вым
ха оти
сло ма
кру гом
сра жа
уи лла
оби ды
голливуд скои
дел ка
госпо дин
увле к
замы слова
умуд ря
откровен ныи
сму щает
жи ло
ту сов
глу пои
смер теи
ница х
мор ри
нове лл
иди о
психи чески
подобра на
уны ло
демо кра
дове рять
ли вым
ва ша
за ку
пе не
ха нс
дя дь
вку сно
норма льных
иллю стри
находи ться
фаши ст
чапли на
конти нен
у мен
на едине
се ние
фи кси
му н
нов ень
чь их
дли нныи
нг тон
причи ну
запомина ющимся
вспомина ет
успеш ным
друже люб
встрети лись
вд воине
ра ская
вы ры
си лен
ту ристи
од ними
ша гом
нь и
неи шее
особенно е
оригина лом
музыка льнои
оно к
моти вов
цвет ы
внутрен ним
успеш нои
браи ана
спраши вает
всевозмож ные
ассоци а
прише лся
ка приз
ма сте
от ступ
гла диа
рас смотреть
истори ческая
соб ран
интере сы
опреде ли
держа л
важ ного
норма льные
er s
сексу альных
затяну то
нево ле
доби лся
напра вление
несчаст ного
фин чера
никола и
груст ная
началь ника
пожи ра
но н
ре пор
до ка
сто р
хо р
ча стями
лу нд
лен д
великолеп ным
раи ана
жут кие
джеи к
отече ственных
старо сти
успеш ных
оправда лись
анге ла
столк новение
хичко ка
близо сти
э па
дела ла
свет лая
мар с
дале кои
популяр ного
внутрен няя
чуда кова
посовето вать
депар дье
f u
ве ков
вы тянуть
кру тым
жизнен ная
посы ла
воло сами
мило сер
переп лете
полноцен ныи
повседнев нои
невз ра
нинд зя
ва сили
ми еи
встре титься
слы шим
деся тка
жерт вами
гени альная
возмож ным
постав ленные
характера ми
саму раи
стремя тся
д енное
на вяза
да га
со пут
до ви
ву р
нес ра
пар кер
бер н
сен т
смело сти
блестя щии
молча ние
парадо кс
инду стрии
сереб ря
е дут
с родни
у ехать
по стер
се рые
до мик
вы ступи
му ску
пи кс
вер ности
уда валось
откров еннои
уче ного
использо вал
рассу ди
неиз глади
вариан те
плен ку
студен тов
ориен ти
констан тин
заим ство
консер ва
ущер б
t ion
у блю
на плевать
да нии
ку ин
года м
рен са
присут ствием
алек са
довери я
америка нец
но чные
дела ми
ходи м
разу мом
замеча ешь
картин ке
све жо
исполни теля
полюби ла
продемонстри ровать
руши тся
глян це
но лана
по эта
ен ная
мо стью
ста ром
тяже лое
раскры ли
исти нно
мор скои
францу зы
мульти ке
ули ц
лиз мом
празд ника
генера ла
в кра
за вести
из меняет
вы чур
оста льнои
совер шают
напря гает
пода ется
современно му
ново сти
запа х
дел ку
волшеб ство
душев ных
напомни ть
учены е
разнообрази е
ка над
ло зу
со бесе
хо н
лу каса
ния м
су и
пи кан
под зем
спо рю
созда телями
кру га
глу п
слож ную
коман дои
суро выи
чест ным
неудач ника
брэ д
у слу
же сты
при им
зна нии
ца рь
нрави лся
возможно е
ран них
жем чужи
дере вне
пят надцать
задумы ваясь
кадра х
заве домо
погло ща
девяно стых
ансам бль
отпеча ток
на ходить
ки с
про дать
фи лли
сти лю
ку чи
лет еть
неи шего
плохо м
пожа ло
сен та
поряд ком
проду кта
р нои
ть я
за мок
ле нин
про пусти
про лете
вы па
пре зен
пере воз
ша л
неи шие
леи т
чита ли
пря ми
краси веи
тру сли
свя того
ог нем
пое зде
алле го
гэ ри
отыгра л
добавля ют
б ляет
д заки
о нер
во ю
да дут
за глянуть
мен ных
сце ни
уров нем
исти нная
ценно стях
подру гу
физи оно
золу шки
лед нико
т с
на пуга
за кре
со обра
про пи
от рази
сти льныи
сла я
конце р
разру шения
кинематографи стов
ули цу
несчаст ных
британ скои
обсу ждать
девчон ка
спект р
демонстра ции
ли шена
же лан
про дав
мне нием
авто мати
каче ством
вери ла
мента лит
происходя щем
возвра щаясь
ува жать
япон скии
мафи я
ю рия
ста вя
ба лу
пере ити
том п
фе дера
вои ти
мину тах
тво ю
способ ные
мар си
поста покалипти
игру шки
глупы ми
прост ень
интелле к
реак цию
хоре ографи
б ского
ш ень
э лаи
ку ку
ря тся
су мере
су дите
само пожертво
дра ко
тол ка
привы чнои
исти нные
близ ка
стю ар
европеи ского
бесподоб но
медве дя
скепти чески
е вич
по дать
до чку
си д
ря за
кон ь
три о
фо ру
пла чет
душе вное
игру шек
просты ми
психологи ческие
неожи данная
задум ки
дороги х
о грехи
про чеи
са ла
ку пер
просто тои
сказа нное
извест ную
динами чным
бан к
ужасти ки
отече ственныи
ус петь
напар ник
скар летт
2 6
у бор
ма з
оста ваясь
авто ру
муль тя
безу дер
оригина лу
пя тыи
поста влена
гор ды
дети ще
занима лся
дальнеи шее
опас ныи
прочита ла
нака л
препод нести
фин чер
кинотеат ры
изящ но
одноименно и
средневе ко
выясни лось
ко риз
ни кова
се ла
об шир
па тру
лен тах
слу жан
тем ная
наз вали
пя тер
радо стно
тол па
симпати еи
художе ственное
противоречи вые
любы м
немец кого
итальян ского
поддержи вает
прит ча
леона рдо
а ном
в ника
и мену
ри туа
до зво
раз ок
вер нои
ша ги
тво рил
настрое нием
тю рем
бар ри
полити ческие
шан сов
марк ет
сеан са
оль га
к вин
с меняется
с мены
на смеш
ка леи
про ли
пере плю
сценари сту
понима нием
ск воз
доволь ны
съемо чная
поги ба
демо ни
паралле ль
арт хаус
а са
в па
по смотрим
ли не
де с
ми зан
до нельзя
про куро
бе дных
жиз неу
чер ную
дале ка
гар д
пен ни
джо ном
золо тая
199 9
кассо вые
провали лся
придумы вать
полан ски
то би
не известныи
про пове
нет ради
способ ных
уров ню
цион ные
измени ться
счастли во
исполни тели
взры ва
обеща л
насе ление
д рю
да ваи
вы зовет
начина лось
вол на
окружа ющеи
наркоти ками
зацепи ло
выну ждена
фасс бен
з нои
ду бли
зи рая
стоя л
бле к
жесто кая
подо гре
разочарова н
бит ве
составля ют
живу щих
гиб сон
ii i
кризи са
стыко вок
o d
и ную
ли чным
гра д
ставля я
смы слу
долж ного
кор не
шко льного
положи тельнои
верну лась
фана том
креп кого
сопрово ждения
соба ку
влия нием
завер ши
коп пола
дивер ген
жизнеу твер
на туры
за ву
де ру
ве ет
вы вести
хи жи
бра ун
сдела нныи
бро сна
убеди телен
клу бе
ште ин
f i
п ка
у слышал
на право
ми лое
са ль
са ите
нра во
сыгра нныи
мас ке
класси ческим
дости гает
эмоциона льного
вызы вала
мужи ки
пришель цы
инопланетя н
ли дера
де ни
от рез
экра нов
неве до
неве ста
жесто к
мальчи шка
хар ди
мими кои
спро сить
пости жи
хэн кс
извра щен
неимо верно
церков ь
не чем
за моро
логи еи
бер лин
весе лья
исти не
груп пои
описа нии
нео спори
трои х
яро сти
озе ра
ини ци
до ставляет
при говор
об щим
па сси
тель ством
рас сказал
шу точки
оче виден
зве ря
нуж ным
огром ных
вопло щения
психологи чески
девя ть
. (
а спект
не исто
по ют
ка ла
во ля
за гна
ми фи
бес просвет
мар ки
привы чного
ужас ная
ново сть
произо шла
вызы вая
воспринима ет
холо дно
кеи джа
изобра жает
требо валось
ностальги я
скон центри
лако ни
х эм
мо ну
ми ри
вер ху
истори ческого
суще ственно
мело чь
фантасти ческие
детекти вныи
собра лись
ита лии
телевизо ра
запи си
средневе ков
почер к
з му
з вали
у слож
ва емые
га ранти
подоб ными
теле видения
строи т
сказ кои
представля ла
трои ку
свер ст
форму ли
граждан скои
но гу
по гряз
ко ка
ни сон
во енно
ри ту
до пу
ти лась
ше ствие
ха рд
оста валось
кры ла
бес краи
бес чис
пя те
душе раздира
искрен нее
популяр ным
подража ния
поддер жки
помеша ло
зашка ливает
отои ти
ло гом
за гля
чи ками
стра хе
стви ю
вз ои
тру пы
оча ро
кли на
окру жении
замет или
продума нныи
сумасшед шего
алкого ль
развле чение
поддержи вать
дорого го
dre am
k s
в тяну
у еха
ч ень
со ставить
из му
вы ложи
бе спе
бе дныи
жа ждет
спе шно
мет р
ожида ли
реально м
встре тил
коми сса
компа ниеи
разно пла
хро ники
защи ты
собира лся
201 6
задум ке
использу ется
хру ста
обна жен
невыноси мо
р жа
по ступает
бы д
вы год
си к
ша ли
тно стью
сня в
спа сет
похо жая
типи чные
пошло сть
любя щая
разга дать
малы ш
кусо чек
предмет ы
и ю
об руши
ха ти
лет ним
тем ном
жу ти
кро ли
знако мая
сен са
уча ствовать
бры з
гипно ти
жизнеутвер жда
с полна
по знать
по менять
со идет
ле бе
из мены
сня тое
бра ту
дя ди
режиссер ское
твор ческого
внутрен не
внеш неи
выда л
отве чать
бесконе чности
заня тие
влия ния
слабы х
обита телеи
фами лия
магази не
о теля
ре я
те ров
за игры
ди ких
си о
лу ны
под бира
писа ла
безу кориз
куль туру
лез ет
ада мс
поро ки
разнообраз ных
плать я
уил сон
ш ным
ру х
пи су
пере идем
под креп
без ответ
гу ма
род ными
мальчи ки
повество вании
составля ющих
возмож ные
техни чески
демо ны
равнодуш ными
угро зы
воле ю
превзо шел
костюмо в
л же
о о
с нуться
до смотрел
ди ску
от то
ну дно
ду б
бе сце
кон центра
замеча тельную
искус ственно
ката р
краса вец
путеше ствии
порти ть
гран т
пира ты
преле сти
цени телеи
уло вить
безысход ность
опе ры
малеи шего
l d
с лен
с кла
на водит
на половину
ро з
ро дом
ко пеи
ка ков
вы полнить
бе лым
ши б
сыгра вшего
роди лась
добро ты
дэ ние
автор ское
путеше ствен
блестя щая
паро чки
споиле рить
реитин ги
не легко
раз да
пере гру
тя нется
зи да
кла ссе
режиссера ми
дю жи
ужас ного
подру г
скоро сти
испы тывал
дета лями
деше выи
иску сно
зво н
умудри лся
го речь
ва ку
до вести
чи ла
ту пик
рас пи
спе ши
ред кие
безу слов
собственно му
искус ств
моз гов
шан са
переживания ми
мона сты
пад динг
л тон
с мен
ми лых
из гна
чи вои
жа леть
обще ству
кры лья
тан цами
реши тельно
диа гно
комедии ная
комна та
анге лов
лишен ы
прогре сси
акаде ми
препят ствия
отте нок
ь те
не ны
по выше
ве ще
ско ром
фе я
пои ми
откры тия
лице мери
мани ака
прочи ми
думы вать
ощуща ешь
дугла с
те ры
за долго
вы пустить
от стране
ча плин
раз ницы
истори ческую
вос кли
эк за
снима ются
твор честву
рецен зен
неу моли
чисто м
пересматри ваю
пожи лои
огра бление
винова ты
власте лин
выте ка
хво ст
престо лов
д ны
л лои
то по
не состоя
вы дер
ци р
серьез ности
оцен ке
превос ходит
предло жить
гиб сона
метафо ра
ш ник
по сме
же них
боль ницы
созда в
история ми
тро л
боеви ках
превра щая
бере менно
психологи ческих
увлека ет
объе ктом
миха и
сказоч ныи
абстра ги
м са
по тру
ки ллер
ле б
ще дро
це ремо
гра фа
ужа сен
ключе вои
объя тия
захва тить
претен циоз
схва тки
совето вать
негатив ных
проника ешься
сро чно
е ды
ра вен
по бо
бо лливу
вы кру
чи стую
пере вода
мало сть
похо жеи
ск ле
пле чи
достои ную
подо шли
глубо ких
весе лье
искус ством
выз вали
холо дная
молодо му
образо вание
колорит ные
легендар нои
разбира ть
лаге рь
писто лета
прями ком
в ски
у досто
по кло
про ма
явля лся
бле ск
доста ть
опреде ление
опера ция
шка фу
ана логии
маи ка
пора жают
прости ту
неуда чи
режиссу рои
тако вых
акту альна
иллю зия
цита та
продолжи тельность
тяж кои
поза им
краино сти
оскаро нос
p ix
ф э
на це
от голо
пре кло
ги лли
рас па
рова нного
мину тои
замеча тельным
откры ла
исти нного
200 2
захватыва юще
женно сть
ох лобы
легендар ныи
священ ника
вязы вается
родриге с
моск вы
в ется
д рои
во ж
ви дать
из ряд
спо собы
ков бои
луч чи
сла бое
яр кую
обе щает
невероят ным
раздра жают
хорро ров
нау ки
нео пису
мсти телеи
субъе ктив
тридца ти
управля ть
аттрак цион
калеи доско
у воль
э лла
не возмути
се сть
за сыпа
за являет
про шествии
при ви
дет ском
пере дают
буду щих
тяже лым
недо вери
сомне ние
нена долго
костю мах
крова ти
патри ка
горо дом
дора мы
сва деб
мето д
балан сирова
первоисточ ник
секре ты
безнаде жно
аза рт
с ная
с ню
ли ам
та б
вы вается
так ти
ба ффи
девуш кам
деле ц
огром ном
потеря в
содержа нием
стере о
изюмин ку
стереоти пов
) ?
г нет
но са
да ите
ма то
ги я
под час
экра ном
случа ются
впечат ляют
каче ственную
дале к
расска жет
очарова тельнои
ана ста
творе нием
оли вера
мужчина м
мия дзаки
сочета ется
несчаст нои
молодеж ных
описы вает
михал кова
импери я
. ),
а фи
с мире
у ку
на бирает
ве ла
пе сси
ня тся
кино ленте
актер ское
яр лы
време нам
загадо чная
нося тся
повсе дне
мудро сти
в следствие
с ного
ю жно
на ряды
де ма
про чно
бу х
пере смотрела
рас смотре
отли чными
прави т
слож ное
динами ку
ужас нои
нач нется
экспери менты
отправи ть
обма ну
арти стов
рав ных
сда ваться
е ре
не здоро
не ясно
те лу
ги вает
мен ную
ня юсь
пере мо
нача в
доста в
перед ря
переда ны
симпати чные
добра ться
колорит ныи
as s
аристо крати
петер бур
h a
к эи
но ме
по при
си дела
жи ться
дра ка
наи вности
тор н
помни тся
све же
гени альным
искрен ние
ссо ры
нелепы х
вшему ся
золу шка
несправедливо сти
перео смысле
к рои
я ку
то ска
вы тяги
сно гс
три ера
рова лся
стре ляет
гре ха
ум нои
исти нную
загадо чнои
вдох нов
индии ского
излиш неи
ос ень
тота ли
дире ктор
сфе ре
стэн ли
qu e
стыков ки
суи ци
сногс шиба
ж ва
о пер
то ск
ку сту
ци кла
сты ми
авто ма
зло го
ар х
великолеп ное
еди ное
спец служ
эффек тами
настрое нии
сопрово ждается
окружа ющего
декора циями
сосе деи
экс пер
средства ми
к ром
п лу
да го
со тен
от каз
пере стали
тор гов
кло у
семеи ную
слож ным
спу бли
защи ту
физи ческои
гне ва
скоро тать
компьютер ные
стрем лении
веду щих
свидете лем
веща ми
сарка сти
гонкон г
диза ин
интеллек туа
pix ar
ре спубли
про пу
ви о
от ряда
сти л
сюжет ного
вои нои
пло т
зде ш
став шая
поли цию
бога тые
мини стра
преступ ники
проек ту
отрица ть
гам ма
шпи онов
отврати тельныи
фар го
вечерин ки
стани слав
ж ок
то пор
не многие
за писы
раз же
раз бо
раз бере
сле пои
ба лет
тор мо
опреде ля
нор веж
глубо кую
потряса ющее
мульти ки
нево ору
муд рыи
неприят ныи
сказы вается
разнообраз ные
порно графи
а мора
на выки
во рон
вы дают
ца рит
пла ст
американ ское
удиви тельнои
живу щии
эпо хе
культо вых
изюмин кои
сокрови ща
парамет рам
ш ках
э дит
по ре
ни ж
за получить
от пустить
жи ви
бе днои
воз бу
вра гом
поло са
сдела ло
иде ала
эк спо
бое ц
широ кии
вообра жа
справля ются
родствен ники
копа ться
перебор щи
не дур
до сту
из е
жа х
тя за
слу жат
хи мия
логи ческих
мар ку
графи ку
предыду щего
мужи ков
продума н
пат тин
голово лом
мутан тов
на гне
не ся
по мои
по неволе
ка ссе
пе ще
ча ются
ку н
га га
хва лить
удиви тельного
супер мена
любов ника
взаи мос
крас ного
наполне на
веду щии
провин ции
наказа ния
философи ю
здоров ье
ж ья
э лл
да вит
ду ют
бе ше
зна ние
челове чность
понима нию
сма зли
бен джа
произведе нию
исполни ли
раздра жать
француз ских
заклю ченных
психи ку
подобра ли
отталки вает
достовер ности
б ья
о сме
ш к
не жность
ва ющихся
пере лом
вз ят
ску чен
бес пла
коли честву
пуга ют
типи чного
напра шивается
кинотеат ров
огра бления
живе шь
лоша ди
а ги
у мень
х им
ница ми
бана льные
джа стин
реше нием
взрослы ми
обая нием
насе ко
фраза ми
беру тся
ne t
абстра кт
ст ят
ре пети
ди ло
от ка
са та
па вла
пи п
рас полагает
сюжет но
зда ние
иде ал
осно ванныи
ден ным
мар се
комедии ные
отношения ми
необы чных
связа ть
профессиона л
хорош енько
англии скои
адеква тно
охот ников
древ них
сострада ние
проска ль
к но
о ном
ло рен
со страдания
бе шены
сти хии
жа смин
це лые
тель ницы
дже фф
нем цев
голо да
ключе вые
увере ны
своеобраз нои
бол ду
ou n
душев ная
повторя ть
и лья
ли с
ва нное
со ити
про водят
вы бро
при част
чи ке
раз гу
стно му
обо рачивается
ожида емо
джон сона
раи она
автор скии
окружа ющии
кинематографи сты
оку пи
199 7
развяз ке
неж ная
откровен ных
арти ст
дика прио
переплета ются
оу эн
на вязыва
по зо
ва го
бо сс
из мере
вы клады
ру ющие
вер ные
без выход
рабо чих
свя зывает
учи ли
стран ными
знакоми т
демонстри руя
превосход ныи
дальнеи шие
биографи я
наив нои
премье ра
мюзи кла
кошма ра
триум ф
кэм п
а ны
на поле
не постижи
ре ги
ли ста
из люб
из образи
при виде
ря я
ша ми
фе к
тре нера
одно бо
режиссер ского
нас лы
ффе р
еди ницы
заба вное
неплох их
аа рон
священ ник
провиса ет
кладби ще
г лен
е лки
но я
ра ль
за сне
про пор
сть е
сво ло
без мол
авто рами
весе лых
чуде сно
клу бок
тирова л
литера туре
постара юсь
информа ция
развлека тельное
подробно стеи
а я
у сомни
но чам
ме шают
чу вак
ха ла
шо ке
дер га
зу т
мар ш
малень кое
гор ба
мальчи шки
мыс лях
цита т
обили я
приходи ться
коллек цию
мировоз зрение
блан шет
а ду
в п
з ти
ка кова
ва емои
ви ном
ди лем
челове ческим
ску ча
вра жде
све то
согла ша
пом ним
класс ная
золо то
жизнен ным
уо лл
проя вил
философ ских
деше во
деиству ющие
теп лыи
распро стране
интерье ры
ва ис
из мен
ге я
пере вести
под жи
тре к
жу сь
бле кло
обра щает
следу ющего
зем леи
захватыва ющее
продюсе ром
завое вать
харри с
у езжает
ка ран
мо лит
ки ри
со рока
гу бы
кры ше
логи кои
актер скому
обра ти
свет лои
расска зов
поя влении
недо разуме
бога тым
щим ся
неу равнове
ок ном
дости гну
шар ма
пусты ни
требу ют
бездар но
напар ника
особен ныи
депресси в
инопланетя не
доль ше
пожертво вать
импера тора
неприя знь
препода ва
в ю
и ная
о лег
т ными
у краси
от стра
щи те
эта кая
ар тура
узна ли
недо оце
представи телем
иро нично
оде жду
чужи м
напомни ла
сэм ю
по говорим
ре нием
ва тая
де да
же б
нима ет
само лете
кни гах
раскры ться
невероят ных
тур ни
обла дать
опа са
неу язви
претен зиеи
мэ рил
характе ре
кеи на
наполне нныи
гениально сть
да вне
де фо
вы са
му суль
ба тывает
ком мен
обра тите
зло сть
разви ть
привы чныи
мыш ления
привлека тельнои
постав ленныи
испыта нии
проработа ны
фоль кло
ж денно
у аи
у гнета
ш лась
ли ю
ва ших
про мах
ди ен
сто ле
вы держать
са да
га с
пере те
ходи те
вра гами
пробле ме
романти ческую
разве д
фантасти ческои
возра стов
мэ д
золо того
наслажда итесь
концеп ту
прези ра
а па
з лых
у ба
ма раз
сто ли
от бро
от нять
при страсти
ку пе
ан ну
зда нии
говори лось
зе л
вся ческих
фанта зиеи
талан ты
убе жи
талантли вым
оска ров
худож ники
горя чо
хри сто
разбира ться
драматур гии
безобрази я
ф та
на кло
не переда
мо цар
за му
под водит
слу жеб
прави тельства
име нами
вне сти
бор ются
ог ро
тив ныи
вин ни
исти ннои
фантасти ческая
зако нов
корот кие
бесконе чных
забав нои
00 7
кана ле
здра в
бэ я
исследо вания
калифор нии
а приори
е лена
по скорее
мо ль
вы дви
пере клю
тель неи
меня л
знако мо
нен ко
нуж ных
рус ское
риз ма
крас ные
изобра жать
мель кну
репли к
стандар тно
дизе ль
невоору женным
по играть
ро бби
ки л
до сматри
ча тся
при слу
си са
пре вы
ге нием
пи ке
сра жаться
совет ское
рус скую
дев ствен
смеш нее
доволь на
весе лым
смер тельнои
близ ки
стара ться
вопло щением
предсказу емым
оли гар
вдох новения
джарму ша
ля тся
при па
под дается
пу ши
сно в
игра х
хи п
ству ющие
счита ться
сред ство
романти чныи
рекомен довал
измени лась
твер дую
счастли вого
вдох новение
голово кружи
, -
п ту
ко нан
ла ит
хо у
би ль
ды вает
бер тон
джо кер
внутрен нее
нико лая
похоже го
выро сли
принце ссы
разговари вать
годзи лла
сопроти вля
вики пе
комментари ев
к хан
н o
у часть
мо ды
ви р
дет ское
ак т
боль ницу
понима ли
нуж ную
стри пти
зрели щем
разочарова ла
временно и
попыт ках
оцени ли
каз ни
пош лые
позна ва
лома ет
высказы вания
рэм бо
афф лек
ра ны
ба би
им пони
лет ят
кри ча
способ ная
следу ющих
следу ющую
убе жден
уи к
поро ждает
заня л
аген ты
комик сы
ракур сов
пользо ваться
е да
х му
то кио
по ступа
ря ю
тя жение
сло вес
стра хо
сме ются
образ ца
пси ху
привы кла
раи т
мечта ют
пеиза жами
завер ша
непре взои
послу шать
драку лы
я щик
на изнанку
ко лю
за ман
ма г
бы тие
па пы
пере смотрю
абсолю тнои
противо вес
второ му
оцен ят
дро жь
типи чнои
типа жи
ада п
охо ты
учитель ница
лоша дь
кубри ка
9 9
и поста
на ки
ва емых
за будьте
ма ту
ки лле
при ка
ня м
тра м
спе шит
отно ся
таи не
эпизо дами
шабло н
евре ев
инстру мента
деду шка
l y
а рома
ь тесь
не ф
не далеко
го стеи
ли вых
де скать
ди ль
при нести
гла ву
пере во
без рассу
кино критиков
наде ясь
сред них
дви жет
кам бер
пет ро
современ ную
шта тов
уче ник
мра чных
хро мает
подру жка
воспринима ются
отра жа
насы щенно
отмет ил
набо ром
ви нить
пи рс
пере ло
кон веи
пла т
рова нным
шенно м
свя то
опреде ленным
акцен том
цве том
заце пить
идеа лы
дире ктора
шоко лад
p ar
ре же
се рых
от пуска
смо н
тво их
прекрас ными
превра тив
зави сть
погру жения
запомни тся
реза ть
биографи ю
дона льд
198 4
бон дианы
негатив ные
пь ют
закадро выи
v ie
не нием
ды ры
ха ра
ке рти
вои нов
вос соеди
обо га
муж ская
чувства м
соответ ствии
художе ственные
сексу альная
сопережи вания
доби вается
отече ствен
впечатли ли
находи лся
уол тер
террори стов
разговари вают
i a
в водит
о сен
ла п
ком би
тре ти
свя тои
сред нее
совет у
пле чах
пен н
мыс ленно
голливуд ским
цени телям
сплош ная
воспользо ваться
тетра дь
. ).
на пы
на тяжкои
му мия
вер хо
сня того
кре стьян
осо бая
день гах
потряса ющую
затяну тыи
ост рые
паль цы
приеха л
встрети шь
меин стри
т вра
рас свет
дан ными
мало го
тро фи
семеи ное
бан де
восто чнои
боя лась
погру жается
лон дона
оре шек
требо вания
стилисти ка
зелены х
звуко вое
сверхъестественно го
! ?
у трен
со отечествен
вы таски
чи ло
па тро
ке ль
лет ние
прави льная
голо вами
стя к
станови лось
дале кие
следу ющая
весе лого
позво лит
пора дует
визу ального
джу д
харизмати чного
муже ство
стрель ба
добав лю
бул га
лаборато рии
ч жу
но жом
не правдоподобно
за вра
ше риф
под ме
сте на
логи ческого
пове се
взгля дами
тан цов
20 19
тогда ш
комедии нои
взя ться
форма льно
популяр ностью
траги ческои
прости тельно
сми ри
скор пи
акту ально
тет ы
гениально е
сью зен
пило та
тень ю
канику лы
f o
м рак
о боль
ст на
ра п
мо лли
та ль
пе з
без ру
сме ется
вос создать
кинематогра фом
приме ры
боя лись
жут кая
предо твра
музыкан т
расчле нен
адап тации
о пи
т нт
ре шет
ре порта
мо ст
да льно
ми лую
ве рен
бо ясь
му мии
от бросить
при хо
об ру
каза лась
пря чется
наз вала
ито гу
места м
супер героя
st ar
яв ным
предло жения
горе м
эст ет
вс пле
струк тура
подка чал
арно льд
промежу ток
л эи
на рез
не определенно
ла ри
со чувствуешь
жен ское
стре ляют
дя дю
снима лись
извест ном
раскры л
попа в
совет ская
получа лось
гро зит
джо кера
предыду щими
поро ю
забав ными
воен ная
задумы ваешься
лье ри
бесе ды
испа нии
киноискус ства
по заба
ка мне
те оре
ле чеб
му ки
щи ну
щи па
вра ть
вра та
наи дутся
тро пи
19 80
ситуа циями
следу ющим
обяза ны
искус ству
визу альным
появи ться
испыта л
фигу рои
неожидан ными
лоу ин
рассла бля
автомоби ль
прото ти
джиллен хол
достоев ского
в доволь
ра стает
фи ла
пе даго
вы вали
ру ющих
бу ше
пере кры
под держать
сло ман
пла нах
тяже лых
забо ты
парень ка
монта же
последствия м
проститут ки
гит лера
f li
у ти
ва ющую
да мо
ма ня
ле га
про верить
от правляет
бе ки
ге о
ев гения
стро к
кая сь
лек си
город скои
оборот неи
помощ ник
сохра нения
сопережи вание
кристи на
одержи мость
восхити тельно
безжало стно
моск ву
сэнд лер
с клон
на бра
ни в
го рит
во вич
за гляды
про си
от ходит
пу ган
показа тель
отноше нием
поч ве
дели тся
мора лизатор
написа ния
пола гать
счасть ем
воспомина ниями
темати кои
рассчи тывать
еже дневно
не медленно
ра ски
по чувствовал
за бира
ма ме
ми ф
пе ли
из ум
раз ное
соб ственная
хи ппи
чь его
тех ника
стве нен
диа з
зву ка
мак гре
взя ла
написа ли
согласи лся
порази ло
смеша нные
продук ции
коэ ны
предысто рия
и до
ш на
ми лого
до су
ска лы
ска тывается
пред вари
вла стью
попу т
моти вом
представи л
любов ник
красави цу
песня ми
схва тка
суме ла
домаш него
домаш них
б эк
о зор
по име
фи шер
от менно
си не
гра ви
стра жи
рас хо
обра титься
кар пен
пережи вают
боеви чок
класси ке
ал ла
привы чных
миро вую
эмоциона льные
бит ву
похожи ми
наблюда ешь
рожде ства
прили чныи
иници а
p l
u t
т вари
ш тор
то ски
об де
ин ь
ха ли
воз ни
сы новеи
слу ю
точно е
смы слов
ужа сом
мир но
талан те
сма за
er e
пусты м
измене ние
пош лых
напи шу
выполня ть
джоб с
контак т
становя сь
с х
ва тои
кон суль
нно стеи
наз ванию
высо кая
верну лись
мра чным
смея лись
вклю ча
отправи лся
прогре сс
серде ц
популя рен
з ев
х их
на ва
на воро
за ва
за брать
за кля
про лета
ру ти
ля ться
ци м
под хода
ров кои
вели кому
зло бо
профессиона льных
француз ская
мета ния
слабо го
испы тывают
задум ку
развяз ку
сезо ны
суро вои
косми ческои
похи ти
брута льныи
олицетво ряет
схе мати
недосказа нности
ко ря
за пове
об ходится
бе ст
ак кор
пере воплощение
сы и
аль бо
род ную
прият нее
ступ ень
американ ца
пар ши
тон ким
добро тои
весе ль
детекти вом
возвра щает
поколе би
детектив нои
документа льного
угро за
усили вает
мафи оз
гоня ют
неесте ственно
нуле вых
ч ом
во жде
ва шу
си гна
па но
па нора
ге ор
ша ло
ан то
пережи вала
добро дете
ужас ным
199 8
непре одо
мето дами
надея лась
даи ан
коп полы
разговари вает
офице ра
яи ца
зана вес
инстин кт
экску р
с меня
с вин
ю ки
не поколеби
ро ждает
со ч
ве чное
ду к
ин к
просто му
пло хими
рен ную
помо га
опера тору
жесто кое
пара ли
гло ток
творе ц
внутрен нюю
дере ву
посред ственныи
обстоя тельство
непло ха
катего рию
восприя тии
массо вои
двига ется
развле чении
отыгра ли
вчера ш
власте лина
погружа ешься
прозви щу
вытащи ть
пожало вать
на ря
по благодарить
ть ма
ло ри
до вания
же чь
пред полагает
глу хо
род ная
опреде лению
пози ция
неу довлетво
одино чка
форма та
ново испе
представля я
класс ные
попро бую
крова вая
увлека тельным
волшеб нои
сценариста ми
отсы лка
развлека тельныи
древ неи
хитро сплете
зеле ного
непреодо ли
по пере
ре воль
ми ллера
до смотрела
га ле
га роль
ря дового
дол га
тру щ
жела нию
гор дости
шка м
сек се
нар кото
близ кии
коман ди
маши нои
любов ную
вспомина ю
рома ны
номина цию
предсказуемо сть
позволи ло
хал тур
архи тек
инду стри
у пря
э рика
не известного
по немно
ми ка
ти вом
про чему
ви тся
пра х
ров ку
кру гах
буду щим
обра тил
учи телеи
великоле пи
семеи ство
сексу ально
мель ка
уча т
здра вого
подготов ки
ресто ране
уделя ется
о смысле
ре спект
ма дам
ле ден
че хов
са ду
рабо там
мер зав
печа льныи
ран него
теле видении
немного чис
разви тию
оди нок
принци пов
трога тельнои
поколе нию
второсте п
плен ки
сосед ству
сплош ное
осторо жно
выдержи вает
не понимания
вы ступления
са ши
чи кам
раз работ
под вале
три ер
обы чными
счита ла
ар джен
мак э
семеи ка
беско ры
вида ми
поки дало
озву чи
гром ких
бун т
угро зу
шах ма
разочаро вывает
резю ме
конне ри
д зи
на кры
во дово
до дума
ку з
пере вари
ды шать
оста вшиеся
отли ч
логи ческие
вели чины
обе ре
постоя ннои
свобо дно
кин са
возника ло
звезд ного
живот ным
траге диеи
безум ные
оцени л
эд гара
ио вович
обстанов ки
выро сла
растя ги
лест нице
тиши на
дегра да
ла ин
за голов
ве я
про мо
из уча
ге ль
ис полнить
пу лез
просто те
ан тон
стоя ла
нрави лась
показа нные
вели к
успе ваешь
доро г
един ственные
ск леи
серьез ными
взя лись
измени лись
счастли ва
ио ханс
вырази ться
пья н
появля ться
михал ков
попри ще
ки тая
от дых
са льери
ис пове
вз бал
лет нюю
сер жан
аль мана
сма хивает
лез ть
объя снять
пет р
кора бли
известно сть
выжи вать
мари на
охот ника
мат ч
иоханс сон
в прям
г рен
ч кан
ли лся
се рая
про жил
вы клю
ци кло
це лым
гра нью
стра стью
кино фильм
роли к
ден т
оригина льном
подо зрения
окру жает
силь ными
профессиона льнои
оде жде
противополо жно
благород ныи
устраи вают
трево ги
жени ха
анимацион ныи
непривы чно
эван с
тще слави
заву али
п етра
то ш
по ступать
та ска
про идя
жи тель
точно и
тво рят
обра до
эта пе
мар та
пережи л
держа лся
трога тельные
безум нои
пользу ются
демо на
чудес ная
студен т
яро сть
террито рию
купи л
зате я
схе ме
и горь
ли п
со плеи
пере ли
оч ках
дела ем
фа шиз
шенно сти
взро слую
побе га
глупо е
наме ков
сосе да
воро та
госпо дина
одинако вые
закру ченныи
взросло му
лекар ство
впрям ь
ль ется
ри пли
про ходить
вы тягивает
ну не
пере нес
рас став
пред посы
пла чу
кла ив
разу мно
мину сах
бро н
мар гина
гото вить
мисти ческого
чиво сти
коль цо
монстра ми
останавли ваться
особня к
феник с
аллю зии
д ну
у му
ре вность
ти руют
хо к
ин гре
без образ
вет ра
стоя щего
доб рыми
мос ква
али са
долж ным
зада ния
опа сения
эмоциона льное
раздра жала
волшеб ства
пута ть
болез нью
повторя ется
сегодняш него
руковод ству
танцу ет
a k
э фи
до ждем
бо ба
вы пить
са ть
ря ми
ша ла
вое вать
дале ки
совет ы
ана лиза
бан ка
выда ющиися
захватыва ющие
влия ют
суб титрами
немец кии
основа тельно
лаге ре
мультиплика ции
тяж кие
сбе жа
углу бля
насле дие
расту т
s c
из гои
так е
пи кса
ха оса
пред стал
цен т
ана лиз
предста ют
предыду щим
отда л
отда ленно
непри гля
призра ками
молодеж ныи
as y
полез но
кня зя
о смысли
ва емая
да вали
до чере
ду рак
ду шно
ци фро
ща л
логи ческои
сыгра ны
поч ву
подрост кам
сан ти
бре дом
запомни ть
кле р
конфли ктов
ac e
безна каза
едино бор
инсти ту
невин ных
д ков
о провер
с жа
по сет
ро та
ма лыи
ди кие
жи м
ин тон
рас сыпа
обще ственности
ман н
прави льнои
мон те
кло д
щую ся
взро слая
искре нностью
счастли выми
мра чную
реалисти чныи
ошиб ся
увлека тельное
гряз ью
стандарт ная
европеи ских
наив ным
фре да
желез ныи
бесподоб ен
недосказа нность
подтек стом
дерь мо
эпа та
net fli
дочере и
g i
м стить
о ду
о гляды
р ного
по мы
го роди
за су
за вид
та бе
ма сти
ма сс
ма стером
из вле
ря х
вер ного
наи дя
абсолю тное
зву ков
попа лся
стран ную
сне ния
типи чных
середи на
стандарт ные
ограни чивается
анге лы
потенци ально
фут боли
совершен ства
энерги еи
кошма ры
вражде б
netfli x
w i
по лю
ва вшии
та циеи
ме м
ме ро
вы водит
вы ходом
раз ныи
жа лу
сле ды
эмо циях
разви вать
блю до
кор мить
ум ное
фу туристи
просмотре в
забо титься
преда нности
использо вали
вар ва
сосе ди
спасти сь
трои ца
шан та
ливо сть
религи я
вписы ваются
пиро г
незамыслова тыи
динозав ров
ингре диен
а ис
г мати
г нали
н са
по работали
ка ле
со нов
пе до
пере рыва
рас полага
или н
учи тывать
пережи вал
чувство вали
опреде литься
дли нно
представля ть
глуби на
живот ными
круп ныи
сложи лась
недостат ком
атри буты
парт нера
цвето вая
фраг менты
охва тывает
гало чки
не убедительно
по жела
ва ви
ме стности
про цвета
ди ско
ди лась
га зо
ге ографи
ту ма
просто рах
созда нная
краси вы
муж ские
напомина ть
запомина ющаяся
попыт кои
уника льным
тыся чу
непонят нои
тюрь ма
кончи тся
обыкновен ныи
трансформе ров
на пле
те чет
от ро
вер ли
челове ческом
рабо чего
эта п
нови ч
заме чу
эи р
опера цию
рез кии
обычно м
леген ду
низ мом
опасно е
проя вление
преврати ли
очевид ным
выполне н
уважа емыи
сплош ные
лью ис
прикве л
сора т
безоговоро чно
шиб ко
давне нько
ю жнои
ка стин
со ля
до чкои
пере за
ха д
тем ным
созда ла
лан да
способ ным
мело ди
гото вые
рецен зиях
измени ли
переда ется
поро ге
отправля ют
199 2
неспра ведли
оп понен
телефо ну
арх ети
r y
то чныи
во зна
ли нд
про рыв
ля ция
сти му
щи ца
ство вало
фе ллини
ан гло
вне с
лично м
реши лась
бес чув
твор ца
написа на
мор да
видимо му
дере во
закончи ться
неожида нности
одея ло
d er
р том
ю ные
ра сы
га бри
пере оде
спо ры
фо стер
сла ве
соци альную
лиш ние
восхи щает
мастер ством
an t
привлека ют
сравни тельно
короле м
преврати ться
поко рил
посвя щена
неоднозна чное
арти сты
нынеш него
co m
а че
по терпе
ка ру
из бы
при гово
зна ющии
под ска
стра я
дела х
люби мому
ред ких
обо значи
поз дра
душе щипа
твор ческих
привы чные
миро вая
приня ла
запа дных
жут ких
штам п
уча тся
поко ри
впечатли ло
ряда х
прибли жа
приобре л
пропаган да
клин т
кита но
разнообрази я
отста и
числи ть
тошно твор
укло ном
и ен
ш ле
ре ста
за говор
до селе
са р
при укра
кра я
пло д
стави ла
ар сена
един ственную
запа дного
креп кая
джеи ми
япон ские
волшеб ная
опас нои
развора чива
алкого ля
последствия ми
lu m
импера тор
леони д
интона ции
джозе ф
пиани но
) -
2 7
на туре
за таи
про живает
са лли
ду ро
пи си
уме л
фак тор
пода но
легко сти
весе лое
привы ка
бана ль
джу ди
знакомы ми
систе мои
многочис ленными
богат ство
повлия ть
рядо вои
филип п
екатери на
парадокса льно
полит коррек
заб ве
стерео типа
арджен то
d y
ни ль
ло вить
та чки
ру сло
жи вы
бе ги
ба ссеи
сла до
ску ль
нрави лось
призна ется
добро му
джо ну
встреча л
an g
нелепы и
репута цию
кибер пан
а бо
о теле
о сили
у шло
ни лись
го сть
се нии
за прав
про ница
раз ряд
тя бря
дела ю
нача льных
люби е
отли чить
ден ни
ситуа циеи
вла делец
бри дже
лез ви
гото вит
честно сть
понят ныи
гени альнои
рэ д
креп кои
скоро сть
участ ником
ориен тации
гражда нин
o p
д вер
на о
по чи
по счастли
за хо
пе ц
вы падает
при вели
сте п
сте ба
юмо ре
реально е
принима я
бога тая
коми ка
силь на
сопрово ждением
случаи ных
преврати лись
напомни ло
вызыва ло
красно речи
несра вне
з ва
о злоб
у сер
ко пов
во ла
при ну
бе о
ня л
ша гу
истори ческим
хи том
россии ское
сни сходи
уго дить
знамени тая
вспомина ешь
мето ди
завяз ку
хле ст
гипер трофи
блокбасте ры
п ление
не объ
ло х
ло ге
хо лл
пу аро
рас смешить
созда нием
уда чное
мон стро
опреде ленная
встреча ют
съем ками
чисто е
неожида нное
таин ственного
завер шения
прико вывает
юри ди
тенден ция
проявления х
э с
ва ющими
ла тино
от мороз
си на
бе лыми
ши карен
чу жды
пыта ешься
бес сона
знако мои
постоя нных
постоя нная
лиш нее
полицеи ским
выда ющихся
пафо сом
экспе ди
ната лки
хэн к
храни тель
кня зь
заблу ждение
иза бель
университ ет
возни кла
с вести
ш па
ю б
на стро
не кто
ри та
ти руя
про ры
про сту
раз рыва
ге ром
пи щи
кон ц
ат лан
высо ким
талан ту
дре вне
динами чное
талантли вои
гер цо
пересматри вал
непонят ное
звезда ми
индивиду альность
адво ка
истре би
пассажи ров
хот еть
5 00
г л
у держаться
я дови
на шед
не жности
не заслуженно
ки нс
ти моти
про бира
про щать
са дов
ше стои
жи х
раз ницу
па сты
пер л
пи ко
ха вье
история х
став шеи
бес при
рез ни
риз м
све жии
влюб ленного
точ ке
оставля ть
препод не
мифо логии
изуми тельно
изу сть
дерев ню
вален тина
драи во
маки я
покон чить
- '
я го
за бирает
про све
бо т
вы играл
ку дря
печа льная
мину та
уди влению
зритель ского
подо пе
написа ла
цион ная
бере жно
брать ями
трудно стеи
орга нов
назы вали
выжи вших
харизмати чные
опас ного
шедевра ми
поп со
зацепи ла
последова тельно
кусо чки
мисси ю
владе ет
ш ра
да уни
за дать
ви ру
сле пы
бле ском
вла деть
щен ным
невероят ную
потряса ет
профессиона льные
кримина л
осозна вая
поме щении
спор те
уника лен
дис сона
моно тон
пусто ты
акту альность
гениально сти
откровен ные
свадь бе
поддер жку
бел ль
дэни эл
славя н
р хи
т ками
у ходить
на изусть
ро ста
ки са
же ле
ти пу
са ло
об щается
раз вод
ня ли
под бо
просто р
полу чения
уда ры
моло же
эн да
шен ными
мар ке
ум ными
влюб лена
влюб ленность
выделя ются
худ ших
пропаган ди
сади ст
нала дить
бео вуль
ж ками
о ва
п нуть
ни ста
те о
те чению
ла ба
за писа
ви в
лу м
ня к
10 00
сы нов
успе ху
нить ю
плю сам
прекрасно м
мини ат
реше но
жут кои
выбра ла
броса ются
завтра к
продемонстри ровал
жд енного
w ay
к рэ
с мут
э ду
на лет
ко рт
со ц
бо лен
вы пусти
от стои
об щи
бе ни
пол года
сюжет ным
жесто кими
стали на
тек сту
фер ре
полити ческии
гам му
непри кры
скор б
тар ковского
очевид ные
неудач ников
облада ющии
фили гра
спорт смен
велико британии
первонача льно
необъ ят
u m
р ву
у ход
се ба
все поглоща
пере ска
лет учи
эта лон
помо гли
свет лого
наде ется
противо бор
романти к
груп п
окру жения
норма льная
типи чным
разру шает
жест кои
блу м
паца н
удо су
иису са
собесе д
а виа
э шли
по вре
за гу
за полне
ма гни
ти неи
ру ди
все цело
при бе
чу жую
сме хо
интере сов
глубо чаи
привы чно
драмати ческую
одино кои
спокои ная
супер мен
справи тся
необходи мые
мерт вые
привлека тельная
бесконе чнои
кинематографи ческои
непонят ныи
опас ным
сложи вшеися
грам м
насы щенныи
задумы вался
пье р
схо жесть
андре а
ресто ран
стрель бы
предысто рии
родриге са
слэше ров
близо сть
хэл лоуин
бест се
е сь
я сна
за голо
за воро
ки тон
си дни
пре терпе
ке на
каза лись
дале ких
серии ныи
гор ло
нор тон
принци пами
измени т
забо тится
таин ственнои
пригла сили
плака л
надое ли
гаи дая
сооб щает
ата ку
сюрпри зов
на клады
по работать
со творить
бе дного
гла сит
чу ж
зи ра
оригина льна
шен ную
коми чно
осозна нно
уверен ным
оли вье
национа льнои
дож дли
цини чныи
серо го
сокрови щ
к эт
о ся
т эи
у пы
де жа
ве ст
ру ющеи
це нит
пи во
зна то
нра вы
сцена м
уда ра
вели кую
свет ля
дале кого
постоя нного
добро ту
подрост ком
переда ли
мета лли
оправда ние
страха ми
банди та
разобра ть
апо фе
сэнд лера
фабу ла
полков ник
аплоди ровать
чти во
сумер ки
понемно гу
с балансирова
у стали
но жи
на ги
ли вать
за пись
ма темати
ма дага
ле ва
ди его
ше ст
под талки
сдела ют
собы тием
помо гла
бро уди
призна ки
мальчи ку
свобо дного
дэ на
пти цы
профессиона лы
бом бы
образо ва
199 6
техни ческие
поиска ть
револю ция
любопыт ныи
пафос ные
недостат ками
саи мон
останавли вается
несправедливо сть
хова рд
скру пулез
маркет ин
не раскры
ро вои
да вя
про пускать
при ступа
си ти
па ни
пу стая
кино ленту
дело к
попа ло
противо поста
превра щение
обре л
побе дит
игру ше
соответ ствуют
переда ла
осозна л
рисо вать
постав ленных
таин ственная
штам пами
паль цев
космо нав
шоки рует
автомоби ли
отры ваясь
разме ров
происхо ждение
кух не
осуществи ть
с дается
за о
ми шу
про честь
фи шки
вы деляет
ду эта
пере би
ску ка
бра ке
тан ца
ожида лось
гре ш
ники та
драмати ческого
стара лась
зако ну
профессиона лизм
неуда чно
глуби нои
япон цев
документа листи
восприя тию
дам с
почита ть
эстети ческое
испорти ли
разочаро вы
по еди
му че
ба нд
ха ет
против ников
бана льности
нове нием
забо т
психологи ческую
зрелищ ные
экспери ментов
цвета ми
атмосфер но
el l
подои ти
функ ции
рожда ются
вымы сел
побы вать
взбал мо
в ступление
то нов
ва тые
ле вои
вы рисо
жи лись
сти ческои
пло хую
показа нная
кро лик
пря мым
зритель скои
рез она
относи лся
возвра щаются
характер ные
предыду щии
фер на
четвер тых
сна б
утвер ждает
позволи ли
форса жа
привяза нность
сооб щи
пки нс
негодя и
заци кли
адренали на
е лиза
у равнове
ф лин
то чь
ли чи
ле ром
мы ши
ци рк
ту н
вер ное
пра гмати
зи руют
кто ром
ан туа
созда нные
уби ла
перед ви
бро сила
тяже лую
зву ком
удиви лся
значи мость
опера тором
заслу ги
очарова тельныи
романти ческии
сложно сть
талантли в
раздра жал
мель кают
деше вых
желез ного
примитив ныи
кассо вых
кари бского
кэме рона
экспре сс
полноц еннои
переко че
у казывает
ч жи
за преде
са кра
жи лся
смо жешь
ву л
тре ниро
получи вшии
особенно стеи
сыгра ет
грани цу
положи тельную
побе ре
побе де
детекти вы
тек стом
професси я
отрица тельного
эффект ныи
201 8
своеобраз ное
источ ником
любя щего
ющем ся
неоднозна чные
эго изм
сати ры
злове щие
конкрет ного
поучи тельныи
музыкан тов
коммер ческии
уильям са
сопроти вления
фоби и
э ма
по раз
по спорить
да вал
со образи
му со
при мери
ну ара
сло мать
ведь м
проис ходили
тро я
сами ми
вся кое
раскры вая
фанта зию
отде льным
пле на
прое з
невозможно е
дости жение
ar e
захватыва ющая
оконча ние
оцени ваю
сове стью
нео пыт
тупо сти
замы сла
интерпре тация
mo vie
блиста тельно
похоро ны
интересу ется
услыша в
бескомпро мисс
) ...
п фаи
т ети
ка у
ре в
мо нах
да ющии
че рти
про ходили
при ле
раз дол
вер ных
челове честву
тре ша
кла на
бес принцип
откры вать
рез кие
потряса ющим
отра жается
разру ша
использо ванием
бессмыс ленные
уэ р
черно ко
чо кну
короткометраж ку
уг рю
достовер ность
в пустую
ц изма
на лицо
ра ды
че тов
раз гля
неи шую
хи мии
прави льного
доро же
кли чке
дро жа
холо д
глупо стью
компью тера
мане ру
документа льнои
поднима ются
нака нуне
центра льнои
впечатля юще
куро са
задеиство ваны
перевопло щения
влюбля ются
бабо чки
бланшет т
у инс
но лан
по тро
ни откуда
во ско
ли бера
ен ным
за полня
та ка
хо пкинс
при вел
вер ная
люби меи
вос хва
вые з
прекра ща
способ ностью
принима л
лиза ции
безум ная
напра сно
уто ми
наигра нно
музыкан та
депресси ю
экстра сен
неизглади мое
поеди нок
а жи
о пира
не ры
при сту
ши ре
ву да
сте л
ье р
кан ву
вос хо
доста ет
пар не
класси ческую
необы чаи
верну л
описа нию
неуда чныи
манья ком
театра льнои
вариан ты
массо и
неприят ные
высоко мер
хле ба
юно ши
объясне нии
осу ждать
север нои
пунк та
догады ваться
леони да
нажи вы
десятилети и
оше лом
з лая
у достои
на ту
на сторо
ва ря
от у
от пор
ше ра
рас преде
чер тами
режиссер скую
стер воз
фран ци
емо му
гор дона
возра стом
нач нут
пароди еи
стреми лся
ост рых
просматри вая
адапта ция
? ...
у идет
э гои
по эт
ро ку
ме да
фи ни
под хва
оста тки
пло ха
дра кон
просмот ров
вос ходя
поло чкам
послед ствиях
тво его
хе л
таи лер
нена видят
среди зем
алек се
рэ я
ou t
поко рить
чудес ным
стату са
научи лись
абсур дно
журнали ста
сбо ров
визуально е
удовлетво рения
хищ ника
клин та
изобраз ил
поми не
посчастли вилось
не обязательно
ко ня
бо рис
вы ходили
ту ск
лько м
сле да
слу шает
ино стран
малень кими
сколь зь
динами кои
гени ален
симпа тия
ува жении
дости жении
претен довать
пого нями
зрелищ ных
ограни чи
бессмыс ленныи
молодеж нои
бет тани
копи я
подви ги
предо преде
жанро вых
предела х
зеле ная
пропита на
высказы вание
умудри лись
кинофестива ле
квен тина
удели ли
9 5
d b
j o
у вижу
де сан
ле го
до ход
про кру
бы вшим
из быт
при несет
ха не
ке ров
зи ма
род ное
эк ста
нор мы
моти вами
выра жает
паль цем
рома ном
сценар ные
наступи т
этало ном
мале фи
е жи
и к
т т
х ну
я ть
по ведь
ро зма
во б
са ман
при крас
би ла
пере стать
пере стала
под ходом
ха б
зо не
зо ны
ред ким
обра щение
учи телем
пот тера
напря женная
интри гои
восто ка
разно цвет
контра сте
хол мс
вписа лась
фрон т
паранорма льное
4 7
в дво
в скользь
и щите
у пал
на полни
ка сса
мо д
со кру
об рыв
жи е
пере ходы
кино манов
нача лись
говори те
режиссер ском
осно вана
ар хе
эи фо
против ник
привы чном
холо дным
перестре лками
пау ка
подвер га
отпу ск
механи зм
джарму ш
спецслуж б
розма ри
вдво ем
б разили
с писать
я влении
по могут
со у
от ныне
си нии
раз вернуться
бе верли
под во
обще нии
фо ман
вос становить
буд неи
гото вого
пов стан
гер мана
полицеи скои
уверен ная
черно бы
связ еи
сотруд ников
наход ки
шэ рон
лозу н
а ме
ко ну
ко еи
за ж
ви лся
ча стям
ты ваются
сле дит
пу стом
сня ться
сня тои
бле нии
бои тесь
осно во
фанта сма
меч ом
напря женнои
ново стеи
мисти ческих
задума но
ета х
мель чаиших
демо крати
ваите сь
торо пи
ир рациона
познакоми лся
ара б
оттен ки
всплы вает
шери фа
моцар та
инк визи
г вар
не узнава
ли ла
ри тори
ва чо
ло мать
да ю
ды вать
ску ра
доста лось
привы кнуть
мень шин
представи теля
знамени тым
захватыва ющего
симво лов
199 4
джор дан
пау к
алкого ли
мотива цию
спря та
особня ком
контроли ровать
привиде ниями
д ди
на летом
не логично
ка мни
мо не
за ты
бе шен
мы шки
ком форт
кру за
уда лись
кри чат
пои ду
абсолю тная
тяну т
смер тельная
потеря ете
измени ла
подру жки
знамени тые
раздра жения
загадо чного
мари он
служ бе
древ него
свадь бу
разба в
офици ально
бл эк
галлюци нации
з в
у язви
ь ем
ко вым
ва ющаяся
ле ин
же лу
ви ни
бы вшие
при были
ши ф
су де
пы ли
кро т
снима лась
тяже лого
откры вают
добро порядо
остро ты
вар вар
пари к
кореи ского
вестер на
сосре до
настраи вает
хати ко
те зии
ма зо
ле чи
из лу
вы пустили
чи вые
пре прово
сле по
гу н
челове ческими
име ющие
пыта ющиися
иг ри
пя тая
пожа леть
добро жела
написа нныи
смер то
зако но
кримина льное
ненави жу
сочета ются
непонят ных
соста ву
выполне но
любопыт ства
пило т
упра вления
гит лер
вда ваться
копеи ки
ж ны
ч онок
но те
на сме
на чисто
не мого
за влека
ле лу
от ъ
бе ис
лу ис
кра х
ис под
дела м
тем ную
ман ги
шенно сть
помо гло
ар ма
продол жая
шно сти
долго го
сомне вался
бана льное
слож ного
занима ть
гени альные
стар шеи
забо та
мощ но
использо вания
гне з
вклю чает
объеди нить
полюби ли
европеи скои
тупо сть
впечатля ющии
патриоти зма
специали ст
мали ка
хруп кая
открове нии
роу д
маик лом
равноду шие
субъекти вное
на сущ
не зри
не хи
де г
ки ры
со кров
ди логии
бе де
су л
ин же
кон текст
кино лент
само убииства
много кратно
режи ма
ман на
уда чного
бои френ
име ло
обо б
вся кую
значи мости
огром ными
деиствия м
встреча ться
раду ется
съем ку
пье се
пит т
обсу жда
увид ят
ап пет
бизнес мен
катастрофи чески
автомати чески
x ix
с кра
по дает
за гроб
де ц
ти ков
ди ском
вы жать
ше вели
енно му
ша га
сте фа
стра нном
просто ры
сме хом
ставля ется
тон кие
одино кого
разочарова на
стар ших
яв ные
уничто жения
интелле кт
автомоби ля
субъе ктивно
джун гля
футбо ла
захо лу
а лом
з лую
м пи
на про
не суще
ла ско
ки ллера
че мо
пи ар
стоя щих
ству ющии
поло тна
работа я
голо дные
свет ло
ответ ил
высо т
маль ски
недо работа
джи на
лки ми
возра сту
подозре вая
противоречи и
198 7
игро вои
реитин гом
прило жил
антони они
досту чаться
к гб
у лов
по ходит
ро го
ме чется
ти хая
из уро
бе дная
лу н
боль ная
боль ным
име ющая
роди на
пор цию
реали ти
кор м
мело чам
стри н
гото вя
важно сти
шикар нои
гряз ных
рассказы вая
элемен том
комик сам
упомина ется
премье р
выстре л
мит че
теори я
co me
низко проб
восьми десятых
откли к
оттор жение
уклады вается
c t
жи о
бе ла
ку рит
пре воз
ба вля
пере чер
лет я
теле видение
бер д
вну т
красо тки
очарова ния
уни та
уче ники
дере тся
воспринима ют
осозна ешь
шку ре
круп но
философ скои
праз дно
катастро фе
тонко сти
насили ем
проника ет
философи еи
вале рии
хладно кро
столк новения
еру н
дугла са
смон тирова
заголо вок
уинс лет
m or
не тесь
ри нг
ле он
ми гран
про следить
от моро
жи ваются
па лки
чу ва
кри стин
пар ка
извест ное
ощу щать
узна ешь
тол кает
бана льного
мор щи
лиш ними
подрост ковои
счастли вые
диало га
поме шать
документа льных
интелле кта
развлека тельного
косми ческии
скажет е
отмет и
разма хом
недав него
брасы вает
препода ватель
внут рь
не ду
не которыи
го ру
со образ
до у
вы пускает
пы л
дово дилось
мульт фильмом
теря я
друзья х
прош лые
живот ного
фри ман
преж неи
техни ческих
шабло нов
завяз ки
служ бу
рассе ла
настои чиво
a u
в дума
п пер
на чита
не кому
ка ну
ли ны
ле сли
фи лов
бо вал
пере хода
вер на
дела и
оста вался
ходи шь
зо о
созда но
кру ги
поч ки
глаза м
пуга ющие
креп ким
полити ку
сравни вают
подозре ние
школь ники
олицетво рение
лэн г
эни стон
д ках
о пуска
с работа
у пустить
по смотрит
ко да
ни ну
ве ки
ди кто
при чески
бе дные
ку т
ку кло
пере дан
под дуб
оч ков
тре пе
люби мое
успе хов
зве реи
психо пат
одино кая
спокои ствия
интригу ющим
199 1
груст ные
саи лент
таб лет
ш ное
ст ном
по смотри
ле жат
ми д
вы играть
ру бить
лю бу
ги р
кры шу
способ нои
уни жения
дро бо
знамени то
художе ственным
деше вые
сход ства
ио хан
потре бления
отсы лает
угро зои
пал ку
устраи вается
переигры вают
идео логии
певи ца
поды то
у кре
ч не
ль чи
ри цы
про к
про щение
все общего
при го
чи стым
ду бле
ис ся
игра ющие
чь им
мульт фильмах
обе скура
дев чу
лки н
нера вен
молоды ми
обая тельная
впечатления ми
скучно вато
уо кер
подня ться
озву чке
расследо вании
прописа н
програм му
позна ния
оттен ков
бене фи
реинольд с
s p
е пи
р эп
ро джера
ро бина
се ред
ве чных
от ло
ча сье
су э
обще му
дра ками
дя ми
высо са
мульт сериала
сра жение
плю сах
рус ско
пора жения
зад нии
эм мы
сексу альные
бом ба
здоро выи
непри тяза
выс ших
ост рыи
укра шением
199 3
подра ста
бун тар
обнару жил
мэт та
трав мы
пропаган ды
прие мами
афри ке
готови тся
наивно стью
необыкнов енно
дегра ди
муз еи
b b
b lu
g a
т ком
не простая
не благодар
ме ган
ди ем
вы вая
бе ит
стра нности
кро пот
ар меи
совет ским
цион но
забы ваем
цвет у
жут кое
леген д
привлека тельныи
пят ница
сочета ет
выбо ров
обма нуть
напи чкан
прибы ль
танцу ют
предшествен ников
свида ние
мела ни
б с
е дят
ра сто
по рекомендовать
ро че
ни лся
за са
из ли
ля гу
ту п
кры ши
поня тии
авто биографи
сеи л
свет у
гото вым
просмотре нных
мест ным
соответ ствовать
лик вида
заня ты
неожиданно стью
душев ного
сре ды
выя сня
поверх ность
мило вид
стату эт
возраст нои
уга са
веща м
патриоти зм
ужи н
проститут ка
пас ха
камбер бэт
вачо вски
с меняются
не однозначно
ри ны
да ние
де ва
ми лы
ме дли
бо у
вы делю
все могу
ше лся
бе сит
су интон
боль ные
просто м
дже ров
одно часье
цы га
прият ную
замеча ют
долж ном
пять десят
нев разуми
трудно стями
скры тыи
шта тах
пуга ющии
искрен ним
широ кого
уэ са
воен ную
производ ят
откровен ная
десят ку
обеспе чить
мсти тели
поез дки
поез дка
средне нь
ганг стеров
неуме стно
непредсказу емыи
шля пу
закономер но
баио пик
ti me
двоя кое
с эи
не реши
по желать
ни чему
со гре
ве сна
вы пускать
си р
ба ле
пере растает
сы нок
ред кое
актер скими
удиви тельные
взя та
сни мет
джи а
тора ми
забы вается
мра чное
мерт в
костю мирова
стари на
симво лично
проя влении
уэ с
контра сти
кварти ра
трю к
абсур дность
хэн кса
зелены е
малы ша
построе на
зар пла
фунда мента
que en
е л
не совершенно
ль ка
мо ри
до про
до словно
до пустить
ве чного
сто у
ча сами
об мана
пре достав
под ко
вер тится
кино ман
жно му
жда ю
емо сть
великолеп ных
фак торов
наблю дал
таи т
россии ским
сопрово ждает
должно сть
пропа л
ошиб кои
отда вать
спор ныи
бок сера
независи мости
цар ство
торже ства
еже днев
выреза ть
корре кт
б рэн
в переме
ру ющего
жи вую
бе до
ге к
пи аф
ис кры
пу зы
челове чески
сня лись
буду щеи
тру б
эн дом
рен ными
спи ска
рез ких
ал ка
заи ти
верну вшись
ужас ных
съем кам
эмоциона льных
запомина ющимися
парня ми
пусты х
акту альности
лон доне
ас фаль
проявля ть
назо или
собрать ев
огро мнеи
4 4
t al
во спе
за мани
ти вном
бо вари
бы кова
вы пустил
пре следуют
рас писа
вто рые
пло ды
пла нами
нрави лись
бор ту
свет лана
19 60
хе ппи
рус скому
пода че
запа днои
посте ль
мечта ла
собира юсь
исче зают
научи лся
противоречи я
двои нои
ужи м
повлия ло
деревь я
виртуоз но
ж юри
на ску
не больших
за тер
за буду
за город
за кат
ся га
со ску
про фи
сто е
вы ключи
ше ф
зо ва
поло в
тон кую
вну шает
пово дом
крити к
дети шки
гри ффи
эмоциона льным
кримина льную
вариан та
харизмати чных
потра ченном
зво нит
интелле ктом
обви нения
духо вно
выполня ют
тви ст
b l
в стал
н кои
у мили
го го
те чением
ма жор
ви ски
пе ст
бе дно
ку рить
пре успе
ком пли
вре д
ца ра
рас правля
зо ра
пла ну
эмо циям
жанра х
гото вых
стара юсь
мра чного
траги ческая
бар бара
неле пои
кин сеил
поме щения
времен ных
уча ствует
тихо и
разбира ется
конкурен тов
фено мен
маиер с
издева тельства
плаги ат
навязыва ю
леден я
д жан
на падения
ко вых
за но
ме г
ду эль
под держа
стра ницы
пока зу
буду щии
комеди ино
обяза нности
разно гла
докто ром
изобра жа
сикве лы
проник нуть
звуча ла
завора живают
сумасшед шая
колорит ных
погиб ших
игро ков
литератур ного
полноцен ным
сжи ма
прегра ды
бута фор
у ез
ка лам
про игра
чи не
пре данныи
сте кля
им хо
режи м
шо м
тру со
голо дных
осно вания
сыгра ло
пои дут
убии це
дале кии
меч тах
взя ты
обре чен
привы чки
уче ника
художе ственная
определенно м
сексу ального
уверен ного
запомни лось
мощ ная
зрелищ ным
круп нои
реша ются
пес неи
послу ша
мг новения
требо вать
косми ческих
прова лом
исполня ют
вызыва ющии
пересе каются
архи те
броси в
дег тя
в слух
да ния
за у
при способ
га до
кру тая
аб за
абсолю тныи
талан тов
нер вно
вопло щает
результа том
представи телями
документа льное
мура вь
дино завра
кула к
изя ще
открове нием
мам бе
преувели чения
розы гры
разду мии
фика ции
трикве л
а сса
с ним
с дви
на вести
по прав
во шли
ва ган
ва емого
ви ра
чи вое
жа ждои
пере езжает
вз ве
тре з
хи та
дово дит
кри ка
фор рест
бен нет
гор диться
психо анали
коми чных
собира ть
запомни л
превосход ная
уча ствовал
качества ми
склады ваются
старе нь
писатель ницы
магази на
фильмографи ю
предшествен ника
втор жение
инту и
меро прия
ка мере
ва того
те тов
при но
пре ры
много образи
слу хи
сов падение
вопро су
удиви ли
мак сим
шко льные
тур ман
выра жается
бре ж
мерт вои
документа льные
сре ду
неприят ное
очевид ныи
развле чь
школь ник
поту ги
сби вает
экстра ваган
привне сти
стерж ень
пособи е
в ступить
с держать
я ков
то мом
не кро
не простые
да к
про х
из раи
ля н
бе ду
га ль
сте ин
кон чается
много миллион
... -
созда лось
свя зу
учи л
спи ну
напря женные
романти ку
ссо и
разочарова нием
моз гу
колле га
симпати чнои
монст ром
несчаст ная
скром ная
зерка ле
агре ссии
ностальги ю
переп лет
вписа лись
совмести ть
манипу ля
хичко к
конструк ции
вега се
выска зыва
пе стрит
вы смея
от пры
ту ет
дан ти
писа телеи
кро хо
обра щаться
эн си
вопро сах
нес частью
фран ция
слы шу
мульт фильму
удиви т
превра щения
коли на
мора льного
семеи ным
норма льное
вдо ль
жур нала
кварти р
здра выи
сою зе
слэше ра
вьет нам
m i
v il
а ним
г нул
э ри
на тур
ре вности
та бу
при водя
при несла
жи д
ски н
стра нои
челове ко
мер тво
стро ят
род ном
деть ся
рус скими
постоя нныи
каса емо
мор ских
напомина ющии
мэ л
крова вого
детектив ного
миру я
кристи ана
реитин га
расста вания
дмитри я
хоб бит
ажи ота
) !
ни сона
ма лик
бо жь
ска рс
логи ческое
режиссер ские
голо д
обо им
свет лым
пода на
недо четов
счастли вое
пти ц
популяр ные
точ ками
эпо пеи
художе ственном
мощ ным
крас ных
женно м
нега тива
называ емыи
древ ние
одо ле
позволи ла
тря су
дебю том
правосу дия
2 9
б рь
по куп
за вали
де нием
ста ди
ча ка
ну дныи
си би
зна ки
пере шел
нима я
рас цвета
вет ром
режи ме
шо ссе
вя зов
эк зем
начина ем
долго и
опера торов
бана льность
коман дир
эмоциона льную
профессиона льного
мощ нои
случи лась
обая тельного
ета ми
превосход ство
философ ская
произведения х
наив ные
син га
воспоминания х
нелепы м
фальши во
символи зм
доми ник
шекспи ров
сбор ник
бек мамбе
дополне ние
корру мпи
дожда ться
оско мину
сожа ления
присуще и
бран до
ш ков
по о
ли зы
за дел
ди кту
ля ются
раз мах
ду эин
пре р
ци нично
ски дку
пла чут
фина льную
серьез нее
необходи м
разно шер
результа та
мисти ческои
леген де
леген дои
дня ми
заня тия
эпи де
ненави стью
обеща ли
сумасшед шие
выбира ют
предназна чение
жир ныи
аф га
xx i
колли н
переосмысли ть
травол та
квин тэ
не часто
ро ну
ка прио
да лла
при ла
це лу
пере смот
сме ешься
слу жи
зу ба
зем ного
взро с
наблю дения
современ ными
зага дку
мерт выи
ошиб ках
психи ат
пусто е
поми ная
уль тра
седь мои
рекоменда ции
томп сон
' ;
ма жо
ди ни
вы пры
ста рыми
при шлась
ин ферна
лен да
время препрово
сня вшии
хва леб
кар тера
тан нои
сма рт
отношения м
ана лог
тол стого
поклон ницеи
моз го
результа ты
заставля ли
кинематографи ческого
бессмыс ленных
вил ля
взросле ние
198 8
итальян скии
испорти л
аван гар
блеи к
бизне смена
переста ешь
бата лии
ложи тся
вдохно вляет
никол сон
сюрпри зом
добре е
нао ми
эду ар
g r
а мели
в стря
за бра
за ост
пе сне
му сора
чи вых
раз броса
лу чи
мя с
ску чных
нови з
день е
тив нои
показы вал
корот кое
беспо рядо
золо тые
захватыва ющих
поги бли
ваи ся
участ ник
привле кло
198 9
фир мы
злоб ныи
розо вые
темно ты
бесполез но
горизон те
франкен штеина
еги пет
консуль тан
квинтэ ссен
к ван
с мир
у ступают
не дово
не яс
ко ву
ка тя
го нок
ли ф
об иде
раз рыв
под созна
сло у
спе иси
выи дя
зу бов
выгля дя
мак карти
драмати чныи
бана льных
влюб ленные
нару шает
неле пости
компьютер ную
любя щеи
намере ния
принце ссу
попада ются
старше класс
обыгра ть
иль и
экипа жа
app le
p ro
д зе
с доб
у хва
ва ющегося
про лог
про рисовка
сти к
кон стати
пло тно
меди а
пря мое
опреде ляет
судь бо
исти нных
нев зирая
разли чия
произо шел
эффект ные
француз ские
бал то
офи с
кэ ро
блестя щеи
убииства ми
харизмати чен
зам ка
супру гов
облада тель
твори ли
тран сли
уа ил
гражда не
im db
олд ман
b ro
t v
в ставить
то вар
на ду
на помню
ра мок
да ются
ки ну
ми зер
са мура
при каза
су ток
пере пи
гу берна
много му
... '.
обы ватель
бои ца
дж од
вопро се
менно го
щее ся
нали чием
мэ тра
характер ныи
бесконе чное
имени тых
дальнеи шего
грам ма
соеди нить
берг мана
беру сь
обраща ешь
материа лы
незада чли
тотали тар
елиза вет
в ник
з вя
ю лия
на перед
не известные
ро лям
ри тся
де спо
вы ходил
ру гают
му а
при вносит
при смотреться
па пи
само убииство
сту пор
чер тои
режиссе ре
зе ль
жела ющих
мар ко
пода рили
искус ственныи
кну т
выда ющимся
ске леты
трои ка
суро вые
жден ныи
прокат чики
зая д
lo st
мсти тель
ненуж ные
озе ро
кинофестива ля
напо вал
правосу дие
наста и
наркото р
взрос леть
s u
о уэ
р ф
э ра
не мо
не поня
не мои
во всю
те неи
ме нов
ти р
про жива
при помню
об щаются
ку б
ку эи
га ном
бу шу
пу стя
чу тся
сте нои
без мяте
ствен нее
аль фред
чита ется
смы слы
доста ется
ступ лении
откры тии
противо по
необходи ма
собра в
разру шение
парня м
преду га
рассказа ли
очевид на
увле чение
ирони чныи
коэ на
переста ют
десятилети е
суэ изи
f il
д да
о фф
у шеи
у сколь
не гри
по ближе
ри вер
за со
ки нуть
до шло
при бывает
при носят
ге ев
под вести
пра вления
пы ток
зу бами
начина ю
проти вном
ор дина
замеча я
повество ванием
живу щие
случаи ным
эффект ных
останови тся
терпе ние
тащи ть
недоуме нии
риску ет
кату шку
h app
а стра
е ль
к в
с мяг
я сен
то чным
по зы
ни щ
го рах
ве чность
са хар
ча ло
при стои
при готов
стра жеи
кино картине
рас плы
игра ющая
писа телем
кар мане
коле ба
мон т
стер ва
подо бает
сни мут
миро нов
динами чная
проблема м
съем ке
загадо чных
поворо та
копи и
независи мого
номина ция
богат ства
наци стов
филип па
слыши шь
леитенан т
k o
с эр
у ско
по тяну
от пускать
сте кла
пред мета
кро вопро
мину сам
учи лся
бес ша
продол жил
гре т
вери ли
полно ценно
кли ни
заслу гам
прово дя
обла дая
мол нии
счастли вая
творе нию
необходи мое
кримина льные
знакоми ться
пересматри вала
стандарт ных
потра тил
млад шая
атмосфер ность
эстети ка
ав ро
желез нои
заключе ния
избра н
прогу лки
приблизи тельно
несчасть е
рецеп т
ошибо чно
пяте ро
перево дом
хане ке
п o
ри лся
про сла
бо рт
бу ню
кре ди
бла га
стя за
заме на
нес проста
состоя лась
реалисти чные
мисти ческая
джеи ка
видео касс
наполне ны
джор джи
рассказа на
пау зу
револю цию
утра ты
арти ста
генри ха
зеле нои
психопа та
козлов скии
компро ми
усомни ться
аним э
d ay
w o
п ке
не обрати
по ди
по кро
ме льком
ти не
ди ву
об мен
мен те
ба рон
сло ев
геро изм
кла ссо
кре стныи
роди ться
положи тельная
добро вольно
динами ке
лице мер
компью тере
окружа ющими
золо та
ер мо
кэ ри
джона тана
возник нуть
полнометраж ных
эми гран
жанро вои
ганг стера
певи цы
квен тин
феник са
массов ки
психиатри ческои
в рывается
по рабо
по кое
ко вые
ри ччи
до вали
ди ак
ние в
ге на
ту х
ды шит
воз ла
люби мом
шу тит
кла у
высо кое
трилле ре
вен ча
кну л
знаком ят
жал кие
профессиона лов
сила м
бом ж
сохра няет
техни ческая
терпе ния
пригла шает
оке ане
приве ла
упре кнуть
s a
x v
у нд
на полняет
по вида
ко де
бы ков
из вили
му чения
при ходя
ше ю
па лец
ски та
ска фан
вно сят
просто ту
ке ре
зи л
вели чие
зе ния
нуж ном
добро те
ужас на
орга ны
стар шая
япо ния
иска ла
окружа ют
кинематографи ческии
отече ственные
пье са
нега тивно
тет у
доль ф
близне цы
предвзя то
владель ца
попробу ите
полноц енного
диагно з
скуль п
смехо твор
а зии
о во
на вязы
во пи
за писать
пе ру
вы му
при вкусом
при слуши
сле дом
пред чув
спе ца
вра же
глу пого
кар ман
шко льных
побе дил
исти нным
повество ва
гри го
заня т
немало важно
контра кт
заинтересо ва
фир менныи
фестива ле
ic e
уол берг
197 9
подвер г
солне чныи
материа лов
зараба тывать
риско вать
звя гин
s k
е фре
ва та
ло ки
ти по
бо яр
ска л
сте чению
вля ют
нно стями
зо диак
име ющих
осо ба
пои сков
пле я
мело дию
фу льчи
пет ен
соци ума
привлека тельным
психи кои
предло жил
оре шка
ошиба юсь
библи и
тенден ции
рожден ныи
марио нет
шьяма лан
ося за
не ком
по разить
ро ком
ко з
за ката
ви до
сто лети
ге но
лен ко
без дну
пло ские
режиссер ских
яр чаи
пода рит
недо ступ
пола м
отрица тельным
ошиб лась
анима цию
пересматри вая
безум ным
мель кает
харизмати чным
бель гии
любя щих
спраши вается
констан тина
неторопли во
тва рь
граби телеи
поступи ли
газет ы
позави довать
шарлот та
характеризу ет
аман да
е вои
у голо
по крови
по меньше
ме дали
вы став
вы ступление
от цы
енно сть
пре т
ту м
пере ма
ща ли
зи на
само достато
вои ска
кру го
вра чи
эта кого
фор мои
сыгра в
похо да
гре гори
ум ственно
город ских
гри ме
симво лы
безы мя
замы слу
совмест нои
дубля же
хобби та
блэ р
возна гра
джод жо
ш веи
не ру
не шу
не путе
ко ко
ко пы
ко лом
во енное
ть те
до ставить
вы вора
от чи
жа к
пере ез
зы вают
без дель
шо ро
сня ла
меди та
спа сли
призна к
состоя щии
предста влено
шта т
реалисти чнои
колле дж
внеш них
полити ке
работ ников
четвер того
сикве лов
пеиза ж
нака ла
свер ши
рэи ми
центра льных
ремеи ка
подходя щее
истери ки
блондин ки
прикры тием
пользо ва
материа лом
моги лы
мака дамс
бэн кси
лиде ром
продви ну
гонора р
wor ks
ребек ка
биль бо
б ров
в ходят
не шься
ми ше
вы ско
бу ря
ак тиви
ника ким
дума ите
поч ка
свет лых
оригина льными
ар ка
фан нинг
откры ваются
уи вер
деся тые
строе на
бана льна
понят нои
кур са
отве ча
неожи данного
яв ная
психи ки
гон ка
пры гает
иллю зор
откровен ным
уга дать
свидете леи
пробу ждение
духов ного
нрав ственности
замкну том
секса пи
рассчи тывал
демонстра ция
эволю ции
дива не
подска зывает
впереме шку
c on
в вести
на падение
ро ни
за полнить
про гно
мен ными
под ходить
кино фильма
пред ков
пред веща
фильме ц
образ цом
вра чеи
бле щу
сты чки
уди вления
ден ную
фина льного
откры тои
рус ски
дев ят
фу р
тол к
мальчи ке
замет ьте
перво класс
выс шую
времен ные
яв ных
проник ся
добра лся
пригла сить
голу бои
подобран ные
функ цию
годзи ллы
свидетель ствует
негодя ев
нелов ко
умни ца
предме тов
аплодис менты
а сси
то чная
не двусмыс
ра ка
ро до
ла к
за по
за водит
раз ницеи
ски вать
пи ва
бу маги
фе ль
фо и
кри ста
лан до
обра тном
ходя чих
свет ит
ощу щением
зритель скии
заслу жи
искрен нюю
хро ни
типи чное
посред ственно
джек ман
брю нет
вспомина ются
доказа тельства
старо мо
ната лья
вообра жении
ав стрии
споиле ры
разде ление
голова х
лову шку
приез жают
комфор тно
баланси рует
кварт ет
поиме шь
отъ яв
не нь
по де
за кра
че хова
про смотреть
па в
кра м
пере запу
рас кро
фе вра
созда вал
виде нию
внима нию
призна вать
важно сть
пуга ющих
настрое нию
жест кого
пье су
чест ного
неж ныи
двадца того
проработа н
недостат ках
бесподоб на
энерги ю
посла ние
ами ти
мм м
инспе ктор
ознаком ления
мону мента
и рина
у хода
да вление
за работа
за труд
раз бу
це за
кра сках
под пи
истори чески
сме лая
свои ственнои
вра жду
чет е
наи вен
муж ских
хоте ра
нес частли
ар тем
убе гает
романти чно
приме сью
професси ю
помощ ника
дво ря
эпо пе
назы ваться
заставля ющии
города х
жизнен ную
оконча нии
постави в
препод носится
катастро фу
мона хи
ic k
сценар ных
поучи ться
хем сво
хок кеи
д за
и у
и ка
и ера
не желание
не подготов
не существу
ва ющеися
де душ
ти ля
про мы
про слав
ви ком
ру мы
раз ная
бе кинсеил
вз до
работа ющии
лин да
нуж нои
практи ка
красо чные
тол пе
влюб ленная
зави сти
запомина ющеися
глупо стеи
ясно е
объе к
дис ци
вечно м
дога дки
масштаб ные
сумасшед шеи
возник ли
монтаж ом
вло жить
изде ваться
парти ю
королев ство
вспы ль
упра вляет
зараба тывает
зашка ли
мюр реи
придур кова
чемо дан
в ные
е ст
е вы
е вича
по ма
мо ника
про слуши
сти т
кото в
пи ц
рабо то
явля ющиися
уда ров
зло ключе
зре ло
пои му
туа лен
спи не
оби ду
пуга ющеи
нали чия
холо дного
внеш ние
лиза ция
труд ныи
таин ственности
жест кие
немец ких
нынеш них
финан сирова
дьяво лом
ано н
несли сь
бума ге
меша ло
подразуме вает
выполни л
лесби ян
быд ло
сынов ья
з вать
с вал
ш ре
на ха
не ю
ка ф
за шел
со шел
чи стые
жи ль
сти хо
жа ка
га в
или сь
нет ру
спо ко
... ',
иг рок
юмо ру
уме нием
американ скими
серии ного
значи мых
куль турои
напря жением
верну ли
пти ца
хариз му
голливуд ская
ер вер
броса ют
загадо чным
философ ским
дам ма
ото шел
задумы вается
прописа нные
мг новении
органи зм
тепло м
требо ва
эроти ки
последова тельность
тупы м
зависи мость
писто летом
проте ст
лав ры
подка чала
мучи тельно
бл эи
контек ста
еру нда
быст рыи
вете ран
вытека ющими
злобо днев
а лад
с бегает
но ты
ре жут
ли шает
за цию
пе ла
из меня
вы сказать
ча ки
при зывает
лу не
па пу
щи ку
под ле
дру жно
аль бом
россии ская
гро мож
объя сню
необходи мыи
влюб ленности
неле пая
глуби н
води теля
рекла мирова
боро ть
умер ли
фаль шь
обви няют
немец кои
обсу ждения
роско шь
первоисточ ником
андже лес
замени ли
комплек сов
чемпи он
добави в
критери и
тщет но
1 40
у точ
со ору
про чая
ви руса
вы вере
от це
при каз
ба ни
пере еха
пол ке
пред водитель
логи чныи
моло дом
тро нул
шно сть
тол кнуть
мора льныи
джо ша
согла сятся
иди те
пусты шка
жест кая
женно сти
преврати тся
хан на
рожде нии
син те
увле чь
самостоя тельныи
преимуще ство
преследо вать
ага ты
цио нера
оле га
дизе ля
иису с
заци к
у теря
у гне
по чувствовала
ни ло
ни чнои
ли вое
са ни
чи стеи
жи телями
ши вают
фе дор
тем ное
кро лика
теле фона
уме ния
интересно м
откры вая
разве дки
скры тые
вспомни ла
бар ха
st or
кинематографи ческих
противоречи выи
вероят ность
ниц ше
косми ческого
испан ского
афри ки
прогре сса
джун гли
лени выи
торже ство
изу чать
антиутопи и
n a
я ще
не легкои
во ка
ва шим
пе сок
бу ри
тель стве
пол ны
пред прия
рова нное
чита ите
вели чия
поста влено
фантасти ческим
соци альным
спецэффек тах
деля тся
симпати чных
отчая нныи
захватыва ющеи
старо му
произведения м
скром ного
примеча тельныи
lo w
основа но
злове щии
прит чу
приори теты
картон ные
шварценег гер
хоа кин
абстраги роваться
отголо ски
франци ско
к ви
по делаешь
го сте
ле бов
ти руется
ры нке
ше п
щи т
пер ри
ень кая
бу т
ке ром
воз деиствия
воз ит
ству я
сла ба
кре сла
виде нием
доста лся
обра щая
пси хотера
меч тами
нор ве
оби тели
ница м
джу лии
закончи лись
аген том
завер шить
скром но
уми ления
подчерки вают
секре тар
дебю та
быто вои
авантю р
доль фа
предупре дить
повер ку
усугу бля
предме том
переборщи ли
камне м
пфаи ффер
у ка
ю би
ко жу
ко тии
мо нар
да ра
ма гне
при глу
об заве
ду э
пере сказ
сли ть
сте лла
сы ро
само быт
обра м
дале кое
корот ких
колле гами
психологи я
манья ки
рассказы вал
худож ником
широ кую
кол дов
потре бо
европеи скии
ланд ша
визуально м
девя ти
феи ервер
повели тель
по у
ка ться
ди лет
пе ле
от вести
раз гар
бе сс
ци кл
под ъем
стра шен
лен у
воз ве
однои менныи
успе вают
вери те
комедии ным
мело чах
шко льныи
ген дер
напомина л
мол чит
переда ча
перво бы
золо том
сравни вая
мане рои
нау ка
уника льное
бессмыс ленным
чужи ми
обсу ждают
as h
приключен ческого
террори сты
здоров ья
условно сти
совме стно
мотоци кле
матри цы
пребы вания
гиль ермо
подозри тельно
затме вает
бага ж
прок лять
е ван
ю ность
на роде
не обяза
ть ме
за гру
та ить
до жи
ди тесь
бе ля
ак туален
пере несен
под ходе
пол ете
сы р
ран ние
уме ли
станови лись
получа я
боеви ке
смеш ную
матери али
миро вых
гени альных
джу нг
холо диль
сексу альность
работ ке
опас ную
смысло вую
ус нуть
джор дана
схо ж
противополо жности
парни шка
чувствует е
нагруз ку
лову шки
низко бюджет
усилия ми
цио нер
оу шена
полков ника
группи ровки
умудря ются
сумере к
пано рам
и ран
т o
у пи
по наблюдать
ре ку
до пуска
вы строить
при вер
раз ряду
би ло
лен тами
без возвра
без вкус
ан не
ан типа
сме лые
хи лла
ев на
сла вныи
прави льном
обра тное
счита нные
бес челове
шен ка
уве ряю
графи ке
сомне вается
треть им
приня тия
пуга юще
счет а
евро пу
труд нее
дальнеи ших
продума ны
красави цеи
тихо го
называ емых
копи лку
национа льного
тепло е
китаи ского
рек визи
замкну тыи
вестер нов
подка чали
удоб но
кос венно
величаи ших
гет то
спеца ген
s i
а ви
с рази
ю го
за с
за живо
за хотели
от ступление
ше ро
па ться
ци тирова
пере не
чу жом
акте ре
нра вов
сказа нного
ску чными
уда ром
кре стья
поло жить
уме стить
снима ю
тяже лее
ощу щает
мисти ческие
отве чу
крова во
выбра сы
непре ры
шабло ны
чо пор
щими ся
цве ток
шер лока
пафос ных
злове щих
первоисточ нику
испан скии
втори чность
неитра льно
фла г
восста ние
деду шки
контроли ру
тва реи
обыва теля
подчеркну то
балаба нов
импони рует
дисци пли
к сено
у пусти
у боже
ре нности
мо та
про гляды
си ст
об рывается
ту мане
пере строи
глав ен
экра нныи
тер мин
сценари ев
послед нему
осно вании
особенно стью
мар са
постоя нном
твор ческие
нар ра
захва тывают
соци опа
холо дное
наме ком
пят на
испы тывала
гармо ния
ребя там
преж ним
фэн тезии
щенно сти
телевизион ныи
потреб ности
структу ру
огне стре
доспе хах
asy lum
аппет ит
п л
но су
на ступил
ва у
мо ду
за горе
до стоя
вы лез
от клю
са га
ду ка
ку чка
бу м
сле дно
жен ским
сты д
кро ше
безу спешно
бес следно
тяже сть
неве же
дев чонок
хра нит
цион ным
бан ков
нев ро
занима лись
нару ши
отве чают
крас ную
деше вои
дове ря
индии скии
секрет ных
эда кая
шоки ровать
стилисти чески
длин ными
мерз кии
быто вые
бизне се
нюан сов
нужда ются
однокласс ников
терза ния
джиллен хо
фамили ю
куку ру
джунг леи
d s
а джа
ра или
фи з
чи ку
ще л
жа м
би и
ба зу
сказа в
рова нными
чита и
мало е
равно души
нуж ного
вари ации
заслу женныи
нор тона
грани ца
страш ными
восто чных
приня тие
дости гается
ске пси
рия ми
француз ское
води ли
уника льная
перестре лка
устрои ства
обнару жить
упомина ние
мими ки
обви нить
уважа емые
фрэн сис
пенси ю
быто вых
бат лер
дикта тор
бродя га
остав ят
хель синг
прикоснове ния
удру ча
погиба ют
куз не
p r
в скры
е нием
ш ную
э э
не но
ко ше
ко шек
за ставят
про заи
игра ющих
кру с
поня в
чув стве
момен там
прав ят
краси вее
уме ющии
мак кен
постоя нным
дви жи
порадо ваться
мерт вым
психологи ческое
случаино сть
жест ким
старо сть
плен у
веду щего
любы ми
возник нет
студен ты
цело стности
it y
нелепы ми
индивиду альности
гим н
схе ма
нахо док
высочаи шем
a st
д риф
не отврати
ни чество
мы шь
пере полня
зи руя
сме нить
доб ря
рабо чии
тем пе
игра ми
тер нер
вели ком
возможно стью
ужа се
части чку
голо со
взя тых
заслу женные
дви жением
визу альную
разочарова лся
прости т
иска ли
глуби нки
гряз ныи
тите лен
лишен ная
веду щие
суро вая
винова та
пиро га
вечерин ку
проща и
интересу ют
сарка зма
восхища юсь
шварценег гера
шьяма лана
авари ю
d u
а спе
и ко
р ше
э бби
э фир
на зову
ра диа
ко лла
та ино
при ся
пре сы
пер си
зна мена
ин ци
пере гово
под киды
вер т
ды ша
логи чным
фа вори
возможно стями
стави в
проис шествия
соци альное
гри ну
пого ню
изобра жая
паль цам
болез ненно
находи шься
фестива ля
пробу ждает
автомоби леи
вло жил
лови шь
дэи в
аккура т
кило метров
анно тации
противоре чит
синд ром
формиру ется
водово рот
у ч
ф лет
не оно
ко жеи
ло ми
ла рс
му зе
бе сцен
ге име
ту пого
гла зы
гу ру
чет кая
стро ки
уби ра
жела ющии
вод ки
сериала м
предсказу емы
поро ков
выда вать
собира лась
лете л
дам м
чудес ные
соеди ненных
номина н
полнометраж ного
свидете лями
погиб шего
религиоз ных
компле кс
андже леса
нестандарт ныи
лако нично
напряженно сти
попкор н
привыка ешь
fil m
а ресто
не бом
ко сну
за держи
ле со
ле гла
фи га
бо риса
вы жил
ста вшие
от стре
ту пая
кру тыми
уда ются
начина ющии
зе мель
ар ген
19 70
ог ни
фак тур
присут ствовать
бана льную
оборот ни
жут ким
защи щает
воспомина ние
рекла ме
бессмыс леннои
уны лыи
оправда ния
молодеж ная
сезо ну
блу жда
пья ныи
чика го
традицион нои
косми ческие
муже ства
фраз е
спорт сме
дорого е
поддер жка
открове ния
инстру мент
настав ника
прониза н
шваи гер
нетру дно
в дали
г гер
ре пер
во шла
ри д
че ско
ви е
чи слу
пре пара
смо жем
зна кому
пере смотрев
пу чину
дь ю
рас крепо
гу се
пы тки
ан тро
слу ху
пыта юсь
над вига
способ ное
напря женных
класси ческом
обяза на
россии скому
пово да
принци пам
необы чную
миро нова
связа нныи
трога тельную
выда вая
соба кои
тако вы
уника льнои
уничто жает
воло са
акту альнои
иску шенного
мура шек
неж нои
голу б
кореи скии
неви нов
музыкан ты
красав чика
каи ф
дубля жа
крю гер
ошиба лся
роко вая
предпоч тение
заде вает
малко вич
цент ром
не известным
по любоваться
из вер
от вора
са зер
ис це
сте нами
рас света
обще ственного
аль берт
гру стью
кро вать
зе ра
американ скому
фак тами
очеред ном
положи тельными
обла дал
нена тура
мор до
талантли веи
ново яв
разочарова нии
поступ ка
боя знь
подру ге
представи ли
взаимо деиствие
попыт ками
иро нию
оли вия
стари ков
предло жении
вклю чать
злодея ми
берг ман
излиш няя
примеча телен
папа ша
туре ц
рав нои
ющему ся
подростко вого
организа ция
196 8
гражда нина
сказо чнои
безразли чие
среднестатисти ческого
младен ца
дилет ан
1 50
ф они
я вное
то чные
на стора
ра фа
ка рт
ри ана
за маски
ле чить
ми риться
са ру
пре выше
ге д
гра циоз
ак ва
ха ют
слу га
вя жется
кри во
особенно и
сыгра нная
ор ландо
супер марк
пери пети
реалисти чным
кримина ла
кримина льным
компози тором
вампи рах
хозя ев
немало е
пры гать
коротком етра
сия ние
шпион скии
энерги я
исполнитель ница
незнако мец
чуж до
о си
у во
э я
ст эи
по размышлять
ре нии
се лин
ма лая
до ры
про чность
про летает
от жи
от бавля
чи ст
си дели
су е
ха нд
кино поиска
шу тят
кру пи
логи ческии
ник ки
ар ха
мар кус
семеи ки
повто рение
бит в
сексу альности
выбра н
неиз лечи
дальнеи шеи
посы лом
выделя ть
банди тами
подходя щая
схва тке
антура же
исчез ну
теори ю
запутан ныи
неподража емыи
фраг мент
призы в
высмеи вает
марша л
цензу р
господ ь
серед ня
знакому ю
г ле
э сте
не быва
ко г
ли ва
за каза
за мах
со ны
ти ком
про тяжение
от деле
при творя
па пои
лен ни
сме шит
рова нную
ленно стью
фор ман
свя зя
тон кого
вол ную
попа дет
получа т
зада вать
лица м
стар то
демонстри ровать
эффект нои
ошиб ками
изобра жением
круп ного
судьба х
прост ят
похи щение
конкрет нои
возлюб ленного
подобран ныи
наве вает
принадле жности
стили зо
отвлека ет
кося к
опо зда
коллекти ва
успо каи
корт ни
е ние
на поминая
ко ул
ре вну
ри ста
да рят
бо а
ста нно
при стре
па виль
сво ен
рас писывать
обо жает
зло полу
бес смерти
сред нем
поста рше
произве ли
комедии ном
доволь ство
спокои ное
необходи мы
популяр ны
убеди тельна
забав ного
бок се
выход ки
пры гнуть
подня л
дора му
зво нка
равнодуш нои
ощущения м
последу ющим
дебют ная
обли ке
конку ри
изы сков
подума ли
рубе ж
построе ния
кос мети
сарка зм
рассказыва ющии
клиен тов
рефлек си
экипа ж
инспе ктора
долгож данныи
e x
s on
н энси
ко ме
ни тся
да ны
ми с
фи а
бо ссы
ди ком
са по
ско рую
щи нои
ту ро
би оз
под вел
без до
ан дрои
чув ственно
удиви тельную
пле мени
гото вая
фантасти кои
разочарова лась
эл лен
непри стои
короле вои
интригу юще
атмосфер ная
увле чения
доброт ная
домо га
появля лись
тащи т
запла тить
сокра тить
клет ке
свежи м
всемир но
доспе хи
неотъемле мои
долгу ю
повседне вности
мусуль ман
конвеи ер
а таки
ж на
с выше
я влением
на вряд
не прекраща
за снуть
ме си
су рка
рас пути
зи руется
обще приня
пред сказать
созда валось
чет кои
показа нных
фа ити
сыгра на
бес связ
пози тивом
постанов щиков
колле джа
недоста тка
полити ческая
верси еи
офи се
ауди о
иди оты
проце ссом
паль цами
безум ных
мяг кии
бь ется
предо ставляет
роско ши
вжи ться
ковар ныи
колори том
убежда юсь
ахи лле
перекли кается
с писа
ф ру
ш ника
на громож
до тяги
ви сит
ру ша
ру блеи
са ли
ку мира
пере считать
ис правля
кру шение
чита ют
поло жением
наи т
над ры
жела ют
менно е
ответ ственныи
похо жую
серьез ностью
состоя лся
преступ ности
раи дер
запа л
спецэффек там
моз гами
рассу ждении
уника льность
кана лу
жизне нное
ярко сть
душев ным
отправи лись
подозре вает
ливо сти
смерт ных
символи зирует
религиоз нои
секре та
наигра нности
продук ты
брэ да
открове ние
препят ствии
преследо вания
софи я
пир са
арно льда
пэ рис
калеидоско п
предотвра тить
предвари тельно
отбавля и
2 50
у худ
на лин
ми рок
пер вен
жу ть
таи ные
весе лее
мра чность
жизнен ными
броса ть
загадо чности
реза ли
укра шение
поки ну
гром кие
цело стность
закру чен
обстоятельства ми
откровен ную
подробно стях
расста ться
ближаи шем
прони зыва
бух гал
крэ иг
о говорю
о глуши
с пусти
ц ци
э изен
за рази
ма нен
из бира
от ступления
ска чет
под сознательно
ис ходит
сте сняется
кон фе
мет ри
прави лами
иде альна
спа л
реши ться
бес хитро
пя того
мас се
год ныи
вол ков
шка ле
бере г
пора жение
англи я
обычно му
художе ственную
заставля л
француз ским
отда ли
рин ге
техни ческом
бру к
бру кс
привле кла
крат кое
хол мов
сот ню
груст ное
зацепи ться
обита ют
меха низ
соответству ющие
гно мов
предпочита ют
мифо в
беспоща дно
манипу ляции
просматри вается
прорисо ваны
перено сном
разбо рок
воб щем
y e
и тан
с пят
ф рак
э таким
мо гил
се г
про гло
ну сь
раз личного
ши к
ге ниев
пи на
под ъе
воз о
тре зво
хи ты
люби телем
чь ем
вол ни
теря ются
нер вни
смеш ны
вин чи
бан ки
задума лся
трога тельных
собра ли
стано влении
бессмыс ленное
ото дви
уны ние
чудес нои
198 6
позитив ные
одержи мости
конкурен ции
серо сть
аспек тах
доказы вать
джентль мен
закре пи
наслы шке
короткометра жек
о жесто
т рас
но гах
за рисовки
ми кс
бо жии
ди кая
ру пер
при ду
пре ди
ска ли
тя м
воз ло
созда вали
уби того
женщи нах
кло да
достои ном
зада ешься
добро сове
потеря вшии
гри меров
чувству я
in k
любов ного
компози цию
гряз нои
изобра жении
вспомина ют
кана лов
выход ные
ад мира
мура веи
самостоя тельное
поры ве
кошма ров
обу слов
верши не
едино жды
спря тан
гит ле
предысто рию
включи л
хабен скии
гек ко
у стоять
на туру
ко кс
ко ордина
ли ниями
се ло
за гла
ма сси
ми лыми
ти мо
ти хом
вы ка
при казы
стра ницах
пред принима
него дование
сут ки
немного слов
зритель ских
маи ор
мора льнои
страш ном
убеди лся
хода ми
раздра жали
несколь ким
мани фе
успеш ная
ou r
называ емого
секрет ные
фотогра ф
китаи скии
победи телем
спосо бов
фрон те
выки нуть
креа тив
миниму му
позаим ство
w n
з лым
о пустить
у строен
не правда
ля л
рабо чие
рова нно
бле ска
стави тся
тан ки
убе ждает
превра щают
стать и
твер ды
шта та
случаи ные
симпати чен
насла ждения
миллио нер
посвя щается
иллю зию
нынеш неи
нынеш ним
de ad
сью зан
залож ники
пациен тов
готови лся
неприятно стеи
wh at
крепо сть
разделе ния
экспо зи
а те
о кажутся
с нах
э фе
не интересныи
по ехать
те нием
ть му
ми ровать
ку ш
па ют
це льныи
пи лы
пере ключи
ком бина
оста вшихся
слу шая
пло скии
созда ннои
вос принять
чер ными
нови чок
прият ен
зре нием
ом ра
написа ны
комедия ми
разно сторон
популяр ная
жал кое
обая телен
стари ки
шар мом
пусты ми
уо кера
демо нами
опыт ного
млад шеи
водя тся
отсы ла
упомина ть
стилисти ку
ир лан
объясня ют
отнести сь
подростко выи
кона хи
плы ву
разоча рует
догада лись
принадле жа
воспи тывать
хабен ского
h s
s ho
в тяги
е ров
с ными
не ре
ре ны
го лыми
ло бо
за наве
за клина
ме даль
ви то
вы но
при зыва
си гала
ку пера
ного и
пи пец
пол ку
оста тке
дол гая
тре ском
нов скии
бра на
прави льных
рен ни
ито н
сом мер
отде льную
еди ныи
серд жио
заслу жили
неза б
пода в
стру ны
закончи л
отда вая
четвер тую
цеп ляют
укра шает
душев ную
отврати тельная
свер ка
неприят ных
сумасшед шим
ремеи ком
хозяи ка
бала ган
вло жили
комму ника
слад кии
эволю циони
проникнов енно
облож ке
муз ее
боге м
хофф ман
но мере
ло рд
за глу
за хотела
ве щает
про дли
все общее
от работа
це лыми
ба раба
име но
лег ком
пове зет
чере ды
вне д
заме чено
оди ссе
получа л
приме ра
француз ском
воен ным
мили ции
лишен ные
пля же
эстети ки
рассла би
подростко вых
специали стов
вале рия
клас сов
слад ко
неот рази
стару шка
bo y
всплы вают
амбициоз ныи
элементар но
одноразо выи
капу р
поеха ли
недоволь ство
госли нг
леднико выи
3 3
а го
в праве
с красить
ко ла
ва емым
за жа
та ба
ма лю
со слу
ми лень
ме бель
бо ем
бо лла
из мена
му шк
ля п
ры нок
га да
ба за
ин ти
ров ке
без дом
кино студии
оста вшись
стоя щие
игра ющего
кла н
иде альную
прекра тить
мир ных
туа лете
нен ную
долж нои
романти чная
траги ческих
посте льных
францу жен
бре дово
отве дено
заставля ть
англии ских
поворо том
непонят ная
несчаст ные
анге ль
называ емые
алкого лем
подготов ка
джесси ки
наслед ство
небе са
отре зок
матри ца
грубы и
загово ра
менталит ет
цикло пе
резона нс
судьбо нос
happ y
з вания
ра бы
за про
со держи
пе ние
от бор
при сматри
ше в
сле п
дру жить
без мерно
кино маны
было и
дра я
ску чного
ску чную
фа м
чер ни
эн циклопе
начина ла
пя тую
тон кое
поста покалипси
вну тре
сма хи
заслу жила
ана логично
недо люб
маи клу
откров енного
шед шии
кеи си
семья нин
дис кримина
опас ная
посвя щенныи
шабло нные
британ ских
обеща ние
индии ских
транс вести
премье ру
адре налин
существа ми
оттен ком
цвето вои
черепа шки
перспекти вы
тури стов
шам пан
толеран тности
диссона нс
антуа нет
оговорю сь
d on
p ic
в ная
на стал
ти ве
вы ло
вы мира
жи телям
це ху
ря ди
ба лов
ба рах
под порти
ша гов
фе ли
истори ческое
сер ье
хи лтон
щу н
мери л
сред няя
сра жаются
двух часо
опера тив
кор ню
пода рила
неплохо го
романти кои
мальчи шек
неу го
нове лле
участи и
проек тами
наме рен
труд ную
джеи ко
здоро вого
уничто жение
развяз кои
наив ного
студен та
198 1
бэ рри
кона на
плы вет
благодар ности
предназна чен
спектак ля
прогу лка
аку лы
напряженно сть
корре кти
здраво мысля
oun d
о ран
ш ников
не пред
ро жи
ро сла
ва шему
мо га
да вала
вы годы
об ал
сти и
ге л
ды вается
чу же
вле чет
прави льнее
ден та
тан цах
жела л
похо тли
эи на
жесто кую
призна ет
подо зритель
пода чеи
тол пу
невероят ного
посте ре
костю мами
трога тельным
евро па
крова вым
возь мем
середи ну
прико снуться
склады валось
противополо жных
ремеи ки
обви нять
китаи скои
схва тку
обита тели
непредсказу емым
брен дан
близне цов
отыгры вает
фоку си
бросна н
оболь сти
котии яр
h i
и да
с подви
э ры
за мо
со дея
па дать
ба ро
зна нием
сдела ю
уби вали
авто бус
внима тельныи
американ цам
кни гам
гре ции
изо ли
вол нения
нор м
неза вер
сказ ках
близ кое
лета ющие
мыш лен
дея телеи
трога тельное
пан си
стан цию
физи ологи
таин ственным
непло хими
акту альная
акту альны
горя чие
адеква тныи
пал мер
устрои л
цини зма
придумы вает
спря таться
воздуш ныи
выдели л
жера р
фил да
бондарчу к
о храни
у пер
у краи
у гар
не зва
ра ш
по хоть
по полам
ко вы
ко щун
ре ве
ли ни
ма лым
ле пту
ми ке
же нить
ти с
ру рк
ты ваться
пере хва
жиз нями
кон тен
спе ша
шу точек
кла ра
чита тель
уби вал
обо ру
бес предел
реали змом
грани це
второ пла
оцен кои
две надцать
две надцати
свобо днои
есте ственным
мор ков
невозможно сть
необ дума
поступ кам
мисти ку
неле га
созна нием
бесконе чныи
сохра нять
пят но
кэ сси
иди ота
четвер ка
разы ски
доби ваться
паль мо
скром нои
нако пи
слав ных
саму рая
подбор ка
офице ров
олицетво ря
посовето вал
джульет та
предатель стве
грудь ю
расстоя нии
балаба нова
постмодер нист
гладиа тор
очаро вывает
о черта
у еди
я стре
на са
ка ти
ло вит
за комплек
при пра
при мире
раз раба
мы ло
жа дность
ин струк
ша хру
кон курс
вет вь
кру тить
показа нныи
бра те
ожи вает
муж ское
лин н
серьез ном
долго м
откры тую
грани ча
дома х
восто к
остави м
жут кого
отра жения
цеп ь
тако выми
озву чки
массо вые
отлича лся
слав ные
утра тил
прокля тия
уол тера
растя нуть
привяза нности
анимацион ных
прида чу
стремя сь
утом ляет
переплета ется
верто лет
капель ки
столи цы
лебов ски
мушк ете
а пол
з она
к п
да ться
бо лл
от дают
об лом
раз ря
сво дя
вле чение
голо сов
сим биоз
совет скую
сериала ми
ана логов
против ники
эт ти
потеря но
шта ны
любов ница
ске лет
пропа ла
похва льно
нарко ма
пят надцати
загадо чные
препод несен
вжи лись
пропаган дист
бл би
брэ дли
ir l
проме жут
возмез дие
церемо нии
таке ши
g u
о сь
ч ник
на силу
те на
се рым
со не
хо жу
бу ка
под гото
сте ру
лет нем
показа нное
уби тых
обра щаются
тру па
кар ли
перед вига
бес созна
сюжета ми
плю ше
нг тона
зритель ское
пози тивное
мело драмои
обре чены
маи ами
бан ду
замет ит
мест ная
ценно стями
мульти ков
отрица тельнои
90 х
крова вое
акцен тирова
гармо нию
нео прав
дора ме
сумасшед ших
хол ланд
хол мса
слуша ться
сотруд ники
цар стве
индивиду ально
струк туры
прие ма
поддер жке
апо гея
величаи шии
бам блби
лабирин т
афф лека
wi th
соу сом
и мо
л ках
с режис
я г
на пе
на доб
не известных
по су
ре чеи
за чи
ма кти
со ставили
ру жье
са дится
су хом
пи джа
пере ступить
рас кра
чер вя
ник ем
помо гал
тяже лове
зем лет
наблю дение
фантасти ке
верну тся
одино чки
преступ никами
нове нию
визу ал
мисти ческим
художе ственно
кана лы
зам ке
молодеж ного
переживания х
суро вого
шер лок
благород ство
пош ля
неповтори мои
исполня ть
религиоз ные
сценар нои
невы пол
построе но
повер нется
швар ц
выдержа на
черну хи
трудо люби
доско на
фиа ско
возо мни
шахру к
c an
в плет
по спе
ни чать
ре вни
ли цен
да ря
со дер
ми фы
от пусти
ку рят
пре следова
жа дно
щи цы
ска ль
под ста
под су
сно сно
гу би
цен ю
рова нии
созда нных
кла ус
жда нное
чере п
кар мен
ху дои
бор на
зло сти
помо гая
бес проигры
знако мое
мак конахи
очеред ные
весе лую
рекомен дова
спаси теля
выра жении
необходи мым
характер ных
корот кои
собра ла
взаимо деиствия
затяну тости
возь мет
крас ным
реша ите
сезона х
глубоко мыс
пригла сил
сор ви
хал ту
вжи лась
ракур са
you r
хищ ник
незабыва емыи
кир стен
услыша ла
комикса х
стюар та
фассбен дер
и ра
о казывает
с мя
ш вы
не са
не умело
ко мом
ни шу
ви лла
бо кс
му хи
ше ве
ще пот
га джет
ска м
ин дианы
вре ди
нь ем
много сло
рабо в
явля ют
сыгра н
жела ниями
неве сту
обе зу
спи ску
тора м
мыш ление
францу зов
прия тель
случаи ная
отрица тельную
своеобраз ную
днев ники
второстепен ныи
пры жки
спасе нию
лиз ме
обви ня
сует ы
197 7
сопер ника
провинци ального
просле зи
исследо вание
нахо жу
риску я
козы рь
деревь ев
супруже скои
предрассу дки
демокра тии
неумоли мо
википе дии
чжу н
неуго мон
r u
в сматри
в пору
по хаб
ко те
за нос
вы чер
ду н
много значи
стоя ли
аль фреда
дан ст
точно го
чен кова
али сы
сыгра вшие
прият ными
бро дит
слы шно
попа дается
исполне нием
тол пои
коми чные
одино ких
эм бер
разочарова ны
in d
джеим сом
раздра жало
докто ру
гам п
непри мет
неж ные
угро жа
щенно сть
нелепо сть
сро ки
гот эм
комплек сы
безуми ем
хеи ли
уэлл са
удержи вает
выдум ка
викин гов
здрав ству
землет ря
л бу
не многим
ра стро
ка ша
ли ама
ри ма
ва вших
за рожда
про летают
вы писа
от став
ще мя
си сь
ин диана
рас цени
тре ки
тра тьте
нача льные
хи тов
чер тах
печа льное
пове дать
достаточно е
нен ными
зада ется
встреча ла
одино ко
спокои ным
счастли вых
th er
собра ны
фон та
задум кои
посвя тить
наро чно
высоко бюджет
капита листи
устраи вать
одержи м
ne w
достоинства ми
прото тип
сказо чно
no w
заим ет
выли вается
дополне нием
спон та
добродуш ныи
охлобы стин
анаста сия
безвозвра тно
а стери
с формули
у часто
ва емое
сто ла
бе дность
жа тся
рас хва
рас пада
пы ла
цен ят
фо кса
стои кое
чув ственныи
мет ко
кре пости
фор мати
удиви шь
зве ном
фак ти
съ есть
взя лась
постоя ть
запа с
эмоциона льном
сопрово ждении
золо тых
рассу док
использу ются
атмосфер ное
атмосфер ности
масштаб ных
пригла шение
называ емои
независи мость
отказа лись
поддержи вают
возлюб ленная
розо вых
плы ть
спорти внои
потреб ность
марша лл
кью ри
поедин ки
исчер пы
dream works
джунгля х
ж ник
не ща
по щеко
ко ша
ка в
го рю
те чения
да ка
да влением
ки ллиан
ми ны
ми лле
ве ном
про пуска
при ют
об стоят
ска жи
вер нет
явля лась
уда чными
кре стного
тор гу
роди ла
держа тся
спи д
нер ви
бере меннои
комедия м
динами чные
переда но
дере ва
должно сти
трога ть
разгово рами
сикве лом
звуча ние
участ никами
оправда но
подра жать
препод носят
маги еи
журнали стка
наказа ть
мутан ты
огор чает
психолог изм
структу ре
выво дов
канниба лов
посет ить
ова ции
v hs
ж гу
к ю
р ве
ц изм
не сложно
по ступают
ти нои
из ре
при ступ
си жу
си ровал
жи вя
ци тировать
пере смеш
сте ры
спе ку
вя зывает
клю к
экра нных
кан нах
чер те
иде альные
тро н
бри джи
спец на
необы чен
вку сы
силь вер
замет ны
тек сты
зако нами
типи чную
тради циям
бит л
внеш нее
труд нои
бесконе чная
разгово ре
проник лась
уны лое
худ шее
кула ками
хью го
деви ца
последова тельности
провали лась
черепа шек
игнори ровать
драго цен
ближ него
трансформе ры
деру тся
опи раясь
хад сон
смерто нос
вник нуть
b ad
а з
ж дете
н ков
ш тра
но ут
по полни
по середине
ва гон
ве чную
че ва
вы ставить
му нд
при нося
пи том
под толкну
пу р
без раз
без ду
кино вселеннои
вз дра
вя че
свои ство
стро гии
дже ффа
режиссер ским
шенно му
тор на
муж ья
ответ ит
сма ку
ган ни
превра щаясь
замет на
просмотре л
уче нии
эпизо дом
тю ре
увлека ется
детектив ных
прост енькии
шабло нно
удивля ют
мими ку
традицион ныи
проработа нныи
меха ник
расста ваться
ресто рана
чрезмер нои
депресси я
лью иса
добавля я
неординар ныи
кита е
кит ч
конструк ция
страте ги
вника ть
болду ин
осмысли ть
пораз мыслить
десан т
аспе ктов
в ход
у став
но стеи
на ма
по кончи
ка так
ка зу
се веро
за бе
ну ля
ци ан
бу да
кра сном
вер ную
мер кьюри
зе лен
рю к
говоря щии
потря с
честно сти
повество ванию
мор гана
однозна чныи
случаи ныи
полити ческого
застави в
ненави ст
ваи со
наполне нная
вече рок
фигу ру
джен ни
моно логов
198 5
цини зм
метафо ры
предполо жения
свида ния
шоко ла
нечи сть
астро нав
осново полага
g irl
o k
в гляды
к лом
н a
да ша
ла пы
за всегда
до шли
сто ри
вы носит
чи ми
мен на
бу ру
ба рона
чу ток
вре дить
вто в
ан нои
ску пи
экра ннои
ден нис
мон до
рую щую
ключе вым
лин клеи
тон ны
пле чу
эффек том
позво ль
встреча лись
скры вают
выра сти
защи ща
демонстри руется
треиле ру
мель те
приключения м
поднима ют
предла гается
лиз зи
напомни ли
конкрет ном
реалистично стью
идеа лов
гур ни
однокласс ники
авторит ета
кью сак
идиоти зма
аэро порту
участо к
г р
г рю
е ву
не та
не совмести
ко лум
ни ном
ва вшись
ла ра
де рико
все общеи
су хои
ба ло
ба бы
пу ля
пред ъ
чет кое
сторо нам
уди влением
доро гая
пережи ла
еди ным
оби да
кам ня
свобо дои
приня т
подрост ками
влюб ленным
наме кают
право охрани
мета фор
работ ник
анима циеи
завер шении
тать яна
сюр призы
полюби вшихся
тет я
молча ния
служ ба
итальян скои
переме ша
кореи ских
ау т
корпора ция
нормаль ную
резю мируя
дани эль
брига да
кампа нии
бегот ня
метаморфо зы
усер дно
оуэ на
шеро хо
t y
д ры
о пья
на гру
на вора
ли стов
ви нг
ди ким
ну вшись
раз об
пер манен
пере ги
ша ются
рас кладе
карти нок
пред по
нов ского
зу бодро
бои шься
послед ними
особенно стями
мало и
уме нии
встре ч
убе ждении
напря женным
потряса ющего
фантасти ческую
дю ма
одино ким
колле дже
креп кие
привлека тельности
закры вать
жест че
непонят ного
скром ному
европеи ское
смерт ныи
трэ ше
центра льная
сум ма
обили и
пош лым
зая вил
поддер жкои
манера ми
принадле жность
воспи тывает
неуклю же
уэи на
викто риан
привне с
энтузиа змом
оттор жения
траг изм
прога дал
ула вли
лунд гре
любимеи ших
кану н
поо щ
c re
e p
а лена
с делку
х нули
ч лена
э ска
ко сто
ко вер
ен ную
да нила
ма том
про пустил
ви ков
му чает
ста вших
при хва
раз думы
пи то
дет ки
пере ры
под мет
под сознания
нет т
сту дию
глу бь
фа инс
года ра
мон д
бро ви
великолеп ными
судь я
ум на
важ ными
превра тил
против ником
глубо ком
свобо дным
фантасти чески
оборот ень
вдо ва
зако ном
профессиона льная
поведе нию
чаи шие
стан ция
четвер ть
интригу ющее
ужаса х
массо выи
чест ных
центра льныи
утвер ждение
груст нои
програм ма
познакоми лись
восхити тельная
появля лся
заворажива ющии
построе ние
сопроти вление
осле пи
хэт э
понадоби лось
о ло
р вется
т д
я д
го спи
те лами
ло нг
да г
ла са
ми нг
ста рт
ста жем
ге ем
ци рка
под ни
ша нель
пол неишии
гу лять
доб ры
цен ко
ству ющеи
отли чия
бра уна
стро нг
успе в
сред ним
практи ке
комедии ную
силь ны
джа стина
эм ми
крова вую
ита на
брю сом
неиз менным
судьба ми
девочка м
боро лся
сумас шествия
уэ ин
упомя нул
согласи тся
at e
надое дли
религи ю
устрои ство
198 2
короткометраж ныи
ссы ла
рассказ чика
сказоч ных
площа ди
разба вить
посла н
вечерин ке
эпизоди ческих
олд ску
мели сса
викто рия
спортив ная
ближ нему
никол сона
обыденно сти
фунда мент
рекор д
пене лопа
континен та
элаи джа
воскли ца
керти с
предпосы лки
( !),
f f
h er
на пу
на сильно
ни нои
ка шу
ва рд
за ры
ма мон
ти льда
про играл
ви ло
са ран
об уча
бе лую
ха ри
ке ры
ца ре
воз деиствие
без во
вои дет
чув ственная
хва ла
года р
мало известныи
станови шься
реали ях
тив шего
еди ную
спи сы
таи ныи
очарова тельна
цион ное
джо ван
причи нно
возвра щении
ребен ке
сосе дка
поки нул
индии ское
национа льности
традицион ные
переме щения
мсти т
темно кожи
li fe
поменя лось
риск нуть
динозав р
олим пии
баль боа
хохо та
соревно вания
волно ваться
идио тов
арма гед
а фо
з лу
з еи
к ции
о ве
о зада
п пе
то дд
не известнои
ло ко
за вле
за чет
ма ко
ма сла
про ходил
пе вец
ста и
при лага
об вола
пре бывает
ин д
10 и
лы сыи
пла мя
аль фа
подоб ному
име ющего
уби т
ожи вить
коле са
нови ча
мак ке
присут ствовал
романти ческого
весе лить
столь ких
стара ниями
пуга ющая
разочарова ло
мэ тью
друж бои
неуда чнои
случаи ного
уверен нои
бом бу
дон на
мета физи
волшеб ник
пошло го
ули чных
преж них
ад министра
награ да
грамо тныи
благород ного
мерз ко
скло нен
щенно м
королев ства
заворажива ющая
мали ну
фраг мента
тяго моти
особня ке
провер ку
протагони ста
джозе фа
леитенан та
отнес ся
рап со
n er
а пель
в падает
д вора
к вали
р ку
у носит
у летучи
я му
то ту
то вать
ра вни
по считали
ни тесь
го на
при личное
ше лу
об учение
бе дности
ак се
под гляды
фе ис
три жды
сюжет ном
оста ново
нра ву
созда вался
сдела нные
фран цию
высо сан
зву чать
сра жается
противо стоит
класси ческое
психо лога
потряса ющих
динами чен
неу ют
мая к
бар ди
холо дные
страда ющии
живу щая
нег р
выда ющеися
эффект ная
использо ваны
увлека тельная
волшеб ным
изобра жены
яв нои
дур нои
любя щие
называ ю
удивля ешься
капита ном
национа льныи
изби тыи
197 4
оттен я
доми но
всевозмож ными
приеха ла
восста навли
мясо руб
идеали зирова
кварт ета
робер том
экза мен
двер ью
u l
и скоре
с бур
у мов
не дюжи
ко ста
во иск
мо т
мо дных
хо мя
чи п
раз роз
пере смотре
зи ли
ан тона
прави льную
[...]
